{"version":"1.0","truncation":null,"padding":null,"added_tokens":[{"id":0,"special":true,"content":"[PAD]","single_word":false,"lstrip":false,"rstrip":false,"normalized":false},{"id":1,"special":true,"content":"[BOS]","single_word":false,"lstrip":false,"rstrip":false,"normalized":false},{"id":2,"special":true,"content":"[EOS]","single_word":false,"lstrip":false,"rstrip":false,"normalized":false},{"id":3,"special":true,"content":"[SEP]","single_word":false,"lstrip":false,"rstrip":false,"normalized":false},{"id":4,"special":true,"content":"[UNK]","single_word":false,"lstrip":false,"rstrip":false,"normalized":false},{"id":5,"special":true,"content":"[MASK]","single_word":false,"lstrip":false,"rstrip":false,"normalized":false}],"normalizer":{"type":"NFKC"},"pre_tokenizer":{"type":"Metaspace","replacement":"▁","add_prefix_space":true},"post_processor":null,"decoder":{"type":"Metaspace","replacement":"▁","add_prefix_space":true},"model":{"type":"BPE","dropout":null,"unk_token":null,"continuing_subword_prefix":null,"end_of_word_suffix":null,"fuse_unk":false,"vocab":{"[PAD]":0,"[BOS]":1,"[EOS]":2,"[SEP]":3,"[UNK]":4,"[MASK]":5,"\n":6,"!":7,"\"":8,"#":9,"%":10,"&":11,"'":12,"(":13,")":14,"+":15,",":16,"-":17,".":18,"/":19,"0":20,"1":21,"2":22,"3":23,"4":24,"5":25,"6":26,"7":27,"8":28,"9":29,":":30,";":31,"<":32,"=":33,">":34,"?":35,"@":36,"A":37,"B":38,"C":39,"D":40,"E":41,"F":42,"G":43,"H":44,"I":45,"J":46,"K":47,"L":48,"M":49,"N":50,"O":51,"P":52,"Q":53,"R":54,"S":55,"T":56,"U":57,"V":58,"W":59,"X":60,"Y":61,"Z":62,"[":63,"]":64,"^":65,"_":66,"`":67,"a":68,"b":69,"c":70,"d":71,"e":72,"f":73,"g":74,"h":75,"i":76,"k":77,"l":78,"m":79,"n":80,"o":81,"p":82,"r":83,"s":84,"t":85,"u":86,"v":87,"w":88,"x":89,"y":90,"z":91,"~":92,"·":93,"́":94,"ᄀ":95,"ᄋ":96,"ᄏ":97,"ᄒ":98,"ᅮ":99,"ᅲ":100,"ᅳ":101,"ᆞ":102,"‘":103,"’":104,"“":105,"”":106,"→":107,"∼":108,"▁":109,"■":110,"▲":111,"△":112,"▷":113,"◆":114,"◇":115,"○":116,"〈":117,"〉":118,"《":119,"》":120,"「":121,"」":122,"가":123,"각":124,"간":125,"갈":126,"감":127,"갑":128,"값":129,"갔":130,"강":131,"갖":132,"같":133,"개":134,"객":135,"갤":136,"거":137,"걱":138,"건":139,"걷":140,"걸":141,"검":142,"겁":143,"것":144,"게":145,"겐":146,"겟":147,"겠":148,"겨":149,"격":150,"겪":151,"견":152,"결":153,"겸":154,"겹":155,"겼":156,"경":157,"계":158,"고":159,"곡":160,"곤":161,"곧":162,"골":163,"곳":164,"공":165,"과":166,"곽":167,"관":168,"괄":169,"광":170,"괜":171,"괴":172,"굉":173,"교":174,"구":175,"국":176,"군":177,"굳":178,"굴":179,"궁":180,"권":181,"귀":182,"규":183,"균":184,"그":185,"극":186,"근":187,"글":188,"금":189,"급":190,"긍":191,"기":192,"긴":193,"길":194,"김":195,"깊":196,"까":197,"깐":198,"깔":199,"깜":200,"깝":201,"깨":202,"꺼":203,"께":204,"껴":205,"꼬":206,"꼭":207,"꼼":208,"꼽":209,"꽃":210,"꾸":211,"꾼":212,"꿀":213,"꿈":214,"꿔":215,"뀌":216,"끄":217,"끈":218,"끊":219,"끌":220,"끔":221,"끝":222,"끼":223,"낌":224,"나":225,"낙":226,"난":227,"날":228,"남":229,"납":230,"났":231,"낭":232,"낮":233,"내":234,"낸":235,"낼":236,"냄":237,"냈":238,"냉":239,"냐":240,"냥":241,"너":242,"널":243,"넓":244,"넘":245,"넣":246,"네":247,"넥":248,"넷":249,"녀":250,"녁":251,"년":252,"념":253,"녕":254,"노":255,"녹":256,"논":257,"놀":258,"농":259,"높":260,"놓":261,"놨":262,"뇌":263,"뇨":264,"누":265,"눈":266,"눔":267,"눠":268,"뉴":269,"느":270,"는":271,"늘":272,"능":273,"늦":274,"니":275,"닉":276,"닌":277,"닐":278,"님":279,"닛":280,"닝":281,"다":282,"닥":283,"단":284,"닫":285,"달":286,"닭":287,"담":288,"답":289,"닷":290,"당":291,"대":292,"댓":293,"더":294,"덕":295,"던":296,"덜":297,"덧":298,"덩":299,"데":300,"덴":301,"델":302,"도":303,"독":304,"돈":305,"돋":306,"돌":307,"돕":308,"동":309,"돼":310,"됐":311,"되":312,"된":313,"될":314,"됨":315,"됩":316,"두":317,"둔":318,"둘":319,"둥":320,"뒀":321,"뒤":322,"뒷":323,"듀":324,"듈":325,"드":326,"득":327,"든":328,"듣":329,"들":330,"듬":331,"듭":332,"듯":333,"등":334,"디":335,"딜":336,"딩":337,"따":338,"딱":339,"딸":340,"땅":341,"때":342,"떠":343,"떡":344,"떤":345,"떨":346,"떻":347,"떼":348,"또":349,"똑":350,"뚜":351,"뛰":352,"뜨":353,"뜻":354,"띄":355,"라":356,"락":357,"란":358,"랄":359,"람":360,"랍":361,"랐":362,"랑":363,"래":364,"랙":365,"랜":366,"램":367,"랩":368,"랫":369,"랬":370,"랭":371,"략":372,"량":373,"러":374,"럭":375,"런":376,"럴":377,"럼":378,"럽":379,"렀":380,"렇":381,"레":382,"렉":383,"렌":384,"려":385,"력":386,"련":387,"렬":388,"렴":389,"렵":390,"렸":391,"령":392,"례":393,"로":394,"록":395,"론":396,"롤":397,"롭":398,"롯":399,"롱":400,"뢰":401,"료":402,"룡":403,"루":404,"룩":405,"룬":406,"룸":407,"룹":408,"뤄":409,"류":410,"륙":411,"률":412,"르":413,"른":414,"를":415,"름":416,"릉":417,"리":418,"릭":419,"린":420,"릴":421,"림":422,"립":423,"릿":424,"링":425,"마":426,"막":427,"만":428,"많":429,"말":430,"맘":431,"맛":432,"망":433,"맞":434,"맡":435,"매":436,"맥":437,"맨":438,"맹":439,"맺":440,"머":441,"먹":442,"먼":443,"멀":444,"멋":445,"멍":446,"메":447,"멘":448,"멤":449,"며":450,"면":451,"멸":452,"명":453,"몇":454,"모":455,"목":456,"몬":457,"몰":458,"몸":459,"못":460,"몽":461,"묘":462,"무":463,"묵":464,"문":465,"묻":466,"물":467,"뭐":468,"뭔":469,"뮤":470,"므":471,"미":472,"믹":473,"민":474,"믿":475,"밀":476,"밌":477,"밍":478,"및":479,"밑":480,"바":481,"박":482,"밖":483,"반":484,"받":485,"발":486,"밝":487,"밤":488,"밥":489,"방":490,"배":491,"백":492,"밴":493,"밸":494,"뱅":495,"버":496,"번":497,"벌":498,"범":499,"법":500,"벗":501,"베":502,"벤":503,"벨":504,"벼":505,"벽":506,"변":507,"별":508,"병":509,"보":510,"복":511,"본":512,"볼":513,"봄":514,"봇":515,"봉":516,"봐":517,"봤":518,"부":519,"북":520,"분":521,"불":522,"붕":523,"붙":524,"뷔":525,"뷰":526,"브":527,"블":528,"비":529,"빅":530,"빈":531,"빌":532,"빙":533,"빚":534,"빛":535,"빠":536,"빨":537,"빵":538,"빼":539,"뽑":540,"뿌":541,"뿐":542,"쁘":543,"쁜":544,"사":545,"삭":546,"산":547,"살":548,"삶":549,"삼":550,"삽":551,"상":552,"새":553,"색":554,"샘":555,"생":556,"샤":557,"서":558,"석":559,"선":560,"설":561,"섬":562,"섭":563,"섯":564,"섰":565,"성":566,"세":567,"센":568,"셀":569,"셈":570,"셋":571,"셔":572,"션":573,"셜":574,"셨":575,"소":576,"속":577,"손":578,"솔":579,"송":580,"쇄":581,"쇠":582,"쇼":583,"수":584,"숙":585,"순":586,"술":587,"숨":588,"숲":589,"쉬":590,"쉽":591,"슈":592,"스":593,"슨":594,"슬":595,"슴":596,"습":597,"슷":598,"승":599,"시":600,"식":601,"신":602,"실":603,"싫":604,"심":605,"십":606,"싱":607,"싶":608,"싸":609,"싼":610,"쌀":611,"쌍":612,"쌓":613,"써":614,"썼":615,"쏘":616,"쏟":617,"쓰":618,"쓴":619,"쓸":620,"씀":621,"씨":622,"씩":623,"씬":624,"아":625,"악":626,"안":627,"앉":628,"않":629,"알":630,"암":631,"압":632,"앗":633,"았":634,"앙":635,"앞":636,"애":637,"액":638,"앤":639,"앨":640,"앱":641,"야":642,"약":643,"양":644,"얘":645,"어":646,"억":647,"언":648,"얻":649,"얼":650,"엄":651,"업":652,"없":653,"엇":654,"었":655,"엉":656,"에":657,"엑":658,"엔":659,"엘":660,"엠":661,"여":662,"역":663,"연":664,"열":665,"염":666,"엽":667,"였":668,"영":669,"옆":670,"예":671,"옛":672,"오":673,"옥":674,"온":675,"올":676,"옮":677,"옵":678,"옷":679,"옹":680,"와":681,"완":682,"왔":683,"왕":684,"왜":685,"외":686,"요":687,"욕":688,"용":689,"우":690,"욱":691,"운":692,"울":693,"움":694,"웃":695,"웅":696,"워":697,"원":698,"월":699,"웠":700,"웨":701,"웹":702,"위":703,"윈":704,"유":705,"육":706,"윤":707,"율":708,"융":709,"으":710,"은":711,"을":712,"음":713,"읍":714,"응":715,"의":716,"이":717,"익":718,"인":719,"일":720,"읽":721,"잃":722,"임":723,"입":724,"잇":725,"있":726,"잉":727,"잊":728,"자":729,"작":730,"잔":731,"잖":732,"잘":733,"잠":734,"잡":735,"장":736,"재":737,"쟁":738,"저":739,"적":740,"전":741,"절":742,"젊":743,"점":744,"접":745,"정":746,"제":747,"젝":748,"젠":749,"젤":750,"져":751,"졌":752,"조":753,"족":754,"존":755,"졸":756,"좀":757,"좁":758,"종":759,"좋":760,"좌":761,"죄":762,"죠":763,"주":764,"죽":765,"준":766,"줄":767,"중":768,"줘":769,"줬":770,"쥐":771,"즈":772,"즉":773,"즌":774,"즐":775,"즘":776,"증":777,"지":778,"직":779,"진":780,"질":781,"짐":782,"집":783,"짓":784,"징":785,"짜":786,"짝":787,"짧":788,"째":789,"쪽":790,"쯤":791,"찌":792,"찍":793,"차":794,"착":795,"찬":796,"찮":797,"찰":798,"참":799,"창":800,"찾":801,"채":802,"책":803,"챔":804,"챙":805,"처":806,"척":807,"천":808,"철":809,"첨":810,"첩":811,"첫":812,"청":813,"체":814,"쳐":815,"쳤":816,"초":817,"촉":818,"촌":819,"총":820,"촬":821,"최":822,"추":823,"축":824,"춘":825,"출":826,"춤":827,"충":828,"춰":829,"취":830,"츠":831,"측":832,"층":833,"치":834,"칙":835,"친":836,"칠":837,"침":838,"칭":839,"카":840,"칸":841,"칼":842,"캐":843,"캠":844,"커":845,"컨":846,"컬":847,"컴":848,"컵":849,"케":850,"켓":851,"켜":852,"켰":853,"코":854,"콘":855,"콜":856,"콤":857,"콩":858,"쾌":859,"쿠":860,"쿨":861,"퀴":862,"큐":863,"크":864,"큰":865,"클":866,"큼":867,"키":868,"킨":869,"킬":870,"킹":871,"타":872,"탁":873,"탄":874,"탈":875,"탐":876,"탑":877,"탓":878,"탕":879,"태":880,"택":881,"탱":882,"터":883,"턱":884,"턴":885,"털":886,"테":887,"텍":888,"텐":889,"텔":890,"템":891,"토":892,"톡":893,"톤":894,"톱":895,"통":896,"퇴":897,"투":898,"튜":899,"트":900,"특":901,"튼":902,"틀":903,"티":904,"틱":905,"틴":906,"틸":907,"팀":908,"팅":909,"파":910,"판":911,"팔":912,"패":913,"팩":914,"팬":915,"팽":916,"퍼":917,"펀":918,"페":919,"펜":920,"펴":921,"편":922,"펼":923,"평":924,"폐":925,"포":926,"폭":927,"폰":928,"폴":929,"폼":930,"표":931,"푸":932,"풀":933,"품":934,"풍":935,"퓨":936,"프":937,"픈":938,"플":939,"피":940,"픽":941,"핀":942,"필":943,"핑":944,"하":945,"학":946,"한":947,"할":948,"함":949,"합":950,"항":951,"해":952,"핵":953,"핸":954,"햇":955,"했":956,"행":957,"향":958,"허":959,"헌":960,"헐":961,"험":962,"헤":963,"헬":964,"혀":965,"혁":966,"현":967,"혈":968,"혐":969,"협":970,"혔":971,"형":972,"혜":973,"호":974,"혹":975,"혼":976,"홀":977,"홈":978,"홍":979,"화":980,"확":981,"환":982,"활":983,"황":984,"회":985,"획":986,"횡":987,"효":988,"후":989,"훈":990,"훨":991,"훼":992,"휘":993,"휴":994,"흐":995,"흑":996,"흔":997,"흘":998,"흡":999,"흥":1000,"희":1001,"히":1002,"힌":1003,"힐":1004,"힘":1005,"▁이":1006,"▁.":1007,"▁다":1008,"▁는":1009,"▁에":1010,"▁을":1011,"▁의":1012,"▁하":1013,"▁고":1014,"▁가":1015,"▁,":1016,"▁한":1017,"▁은":1018,"▁.\n":1019,"▁를":1020,"▁지":1021,"▁기":1022,"▁있":1023,"▁대":1024,"▁으":1025,"▁도":1026,"▁1":1027,"▁으로":1028,"▁사":1029,"▁시":1030,"▁인":1031,"▁2":1032,"▁수":1033,"▁아":1034,"▁로":1035,"▁어":1036,"▁했":1037,"▁에서":1038,"▁그":1039,"▁해":1040,"▁(":1041,"▁)":1042,"▁전":1043,"▁들":1044,"▁과":1045,"▁일":1046,"▁보":1047,"▁적":1048,"▁자":1049,"ᄏᄏ":1050,"▁부":1051,"▁정":1052,"▁주":1053,"▁제":1054,"▁것":1055,"▁만":1056,"▁'":1057,"▁나":1058,"▁상":1059,"▁등":1060,"▁위":1061,"▁공":1062,"▁경":1063,"▁라":1064,"▁되":1065,"▁면":1066,"▁게":1067,"▁와":1068,"▁개":1069,"▁중":1070,"▁여":1071,"▁조":1072,"▁3":1073,"▁할":1074,"▁\"":1075,"▁된":1076,"▁년":1077,"▁관":1078,"▁원":1079,"▁“":1080,"▁”":1081,"00":1082,"▁국":1083,"▁’":1084,"▁성":1085,"▁‘":1086,"▁내":1087,"▁거":1088,"▁오":1089,"▁연":1090,"▁유":1091,"▁구":1092,"▁비":1093,"▁선":1094,"▁소":1095,"▁서":1096,"▁한다":1097,"▁마":1098,"▁안":1099,"▁었":1100,"▁신":1101,"▁모":1102,"▁예":1103,"▁·":1104,"▁방":1105,"▁세":1106,"▁4":1107,"▁5":1108,"▁며":1109,"▁미":1110,"▁분":1111,"▁통":1112,"▁발":1113,"▁장":1114,"▁말":1115,"▁스":1116,"▁최":1117,"▁문":1118,"▁진":1119,"▁명":1120,"▁교":1121,"▁생":1122,"▁우":1123,"▁동":1124,"▁월":1125,"▁화":1126,"▁없":1127,"▁않":1128,"▁회":1129,"▁차":1130,"▁20":1131,"▁때":1132,"▁실":1133,"▁현":1134,"▁계":1135,"▁%":1136,"▁당":1137,"▁단":1138,"▁영":1139,"▁?":1140,"▁바":1141,"ᄏᄏᄏᄏ":1142,"▁강":1143,"▁재":1144,"▁까":1145,"▁무":1146,"▁6":1147,"▁더":1148,"니다":1149,"▁까지":1150,"▁~":1151,"▁건":1152,"▁특":1153,"▁네":1154,"▁결":1155,"▁또":1156,"▁김":1157,"▁따":1158,"▁감":1159,"▁학":1160,"▁불":1161,"▁받":1162,"▁노":1163,"▁지난":1164,"▁반":1165,"▁같":1166,"▁던":1167,"▁입":1168,"▁#":1169,"▁확":1170,"▁후":1171,"▁추":1172,"▁배":1173,"▁올":1174,"▁7":1175,"▁포":1176,"▁요":1177,"▁면서":1178,"▁저":1179,"▁매":1180,"▁설":1181,"▁대한":1182,"▁지만":1183,"▁및":1184,"▁8":1185,"▁라고":1186,"▁된다":1187,"▁-":1188,"▁았":1189,"▁달":1190,"▁됐":1191,"▁함":1192,"▁많":1193,"▁겠":1194,"▁출":1195,"▁형":1196,"▁처":1197,"▁물":1198,"▁에게":1199,"▁금":1200,"▁다는":1201,"▁201":1202,"▁산":1203,"▁남":1204,"▁는데":1205,"▁위해":1206,"▁지역":1207,"▁알":1208,"▁운":1209,"▁투":1210,"▁평":1211,"▁10":1212,"▁간":1213,"▁9":1214,"▁아니":1215,"▁행":1216,"▁프":1217,"▁박":1218,"▁사업":1219,"▁19":1220,"▁청":1221,"▁억":1222,"▁권":1223,"▁한국":1224,"▁야":1225,"▁작":1226,"▁부터":1227,"▁역":1228,"▁활":1229,"▁점":1230,"▁두":1231,"▁다고":1232,"▁열":1233,"▁집":1234,"▁상기":1235,"▁법":1236,"▁직":1237,"▁데":1238,"▁음":1239,"▁파":1240,"▁증":1241,"▁피":1242,"▁업":1243,"▁민":1244,"▁호":1245,"▁참":1246,"▁코":1247,"▁체":1248,"▁?\n":1249,"▁외":1250,"▁리":1251,"▁용":1252,"▁본":1253,"▁초":1254,"▁합":1255,"▁통해":1256,"▁판":1257,"▁치":1258,"▁임":1259,"▁밝":1260,"▁라는":1261,"▁검":1262,"▁협":1263,"▁될":1264,"▁못":1265,"▁좋":1266,"▁필":1267,"▁씨":1268,"▁양":1269,"▁때문":1270,"▁광":1271,"▁번":1272,"▁드":1273,"▁200":1274,"▁종":1275,"▁총":1276,"▁우리":1277,"▁습":1278,"▁경우":1279,"▁새":1280,"▁시장":1281,"▁..":1282,"▁보다":1283,"▁기업":1284,"▁심":1285,"▁변":1286,"▁타":1287,"▁앞":1288,"▁사람":1289,"▁각":1290,"▁높":1291,"▁문제":1292,"▁지원":1293,"▁환":1294,"▁근":1295,"▁대표":1296,"▁천":1297,"▁맞":1298,"▁정부":1299,"▁규":1300,"▁항":1301,"▁가능":1302,"▁교육":1303,"▁따라":1304,"▁대해":1305,"▁였":1306,"▁니":1307,"▁복":1308,"▁이름":1309,"▁위원":1310,"▁도록":1311,"▁경기":1312,"▁서울":1313,"▁그러":1314,"▁시간":1315,"▁S":1316,"▁살":1317,"▁잘":1318,"▁습니다":1319,"▁창":1320,"▁사용":1321,"▁삼":1322,"▁관계":1323,"▁사회":1324,"▁이상":1325,"▁돼":1326,"▁위한":1327,"▁이번":1328,"▁목":1329,"▁함께":1330,"▁밝혔":1331,"▁표":1332,"▁관련":1333,"▁해야":1334,"▁약":1335,"▁군":1336,"▁#@":1337,"▁카":1338,"▁미국":1339,"▁12":1340,"▁크":1341,"▁ᄏᄏᄏᄏ":1342,"▁!":1343,"▁줄":1344,"▁연구":1345,"▁경제":1346,"▁11":1347,"▁취":1348,"▁\n":1349,"▁북":1350,"▁프로":1351,"▁준":1352,"통령":1353,"▁채":1354,"▁필요":1355,"▁대통령":1356,"▁트":1357,"▁손":1358,"▁개발":1359,"▁C":1360,"▁기술":1361,"▁식":1362,"▁의원":1363,"▁먹":1364,"▁계획":1365,"▁생각":1366,"▁농":1367,"▁누":1368,"▁온":1369,"▁너":1370,"▁디":1371,"▁A":1372,"▁승":1373,"▁언":1374,"▁충":1375,"▁편":1376,"▁속":1377,"▁0":1378,"▁담":1379,"▁지금":1380,"▁이나":1381,"▁세계":1382,"▁뒤":1383,"▁걸":1384,"▁중국":1385,"▁진행":1386,"▁토":1387,"▁별":1388,"▁돌":1389,"▁이후":1390,"▁아이":1391,"▁메":1392,"▁지난해":1393,"▁순":1394,"▁다른":1395,"▁문화":1396,"▁이용":1397,"000":1398,"▁30":1399,"▁질":1400,"▁ᄏᄏ":1401,"▁측":1402,"▁시작":1403,"▁절":1404,"▁넘":1405,"▁하나":1406,"▁올해":1407,"▁투자":1408,"▁상황":1409,"▁최근":1410,"▁가장":1411,"▁조사":1412,"▁국내":1413,"▁산업":1414,"▁K":1415,"▁어서":1416,"▁뭐":1417,"▁버":1418,"▁포함":1419,"▁15":1420,"▁효":1421,"▁곳":1422,"▁급":1423,"▁완":1424,"▁현재":1425,"▁L":1426,"▁그런":1427,"▁만들":1428,"▁독":1429,"▁후보":1430,"▁백":1431,"▁패":1432,"▁관리":1433,"▁특히":1434,"▁접":1435,"▁팀":1436,"▁친":1437,"레이":1438,"▁운영":1439,"▁병":1440,"▁찾":1441,"▁정보":1442,"▁대상":1443,"▁축":1444,"▁그래":1445,"▁센":1446,"▁국민":1447,"▁m":1448,"▁다양":1449,"▁느":1450,"▁결과":1451,"▁사실":1452,"▁논":1453,"▁대학":1454,"▁도시":1455,"▁일본":1456,"▁이날":1457,"▁큰":1458,"▁이런":1459,"▁죠":1460,"▁플":1461,"▁애":1462,"▁늘":1463,"▁브":1464,"▁정도":1465,"▁갖":1466,"▁길":1467,"▁전문":1468,"▁발생":1469,"▁시스":1470,"▁학교":1471,"▁가지":1472,"▁태":1473,"▁커":1474,"비스":1475,"▁날":1476,"▁책":1477,"▁국가":1478,"▁허":1479,"▁관계자":1480,"▁글":1481,"▁M":1482,"▁활동":1483,"▁ᆞ":1484,"▁힘":1485,"▁으면":1486,"▁금융":1487,"▁예정":1488,"▁시스템":1489,"▁이어":1490,"▁그렇":1491,"▁어요":1492,"▁민주":1493,"▁철":1494,"▁추진":1495,"▁사이":1496,"▁볼":1497,"▁싶":1498,"▁모두":1499,"▁려":1500,"▁정책":1501,"▁향":1502,"▁평가":1503,"▁라며":1504,"▁그리":1505,"▁또는":1506,"▁엔":1507,"지만":1508,"▁응":1509,"▁서비스":1510,"▁막":1511,"▁많이":1512,"▁는다":1513,"▁이제":1514,"▁좀":1515,"▁해서":1516,"▁I":1517,"▁과정":1518,"▁으며":1519,"▁자신":1520,"▁들어":1521,"▁T":1522,"▁눈":1523,"▁거나":1524,"▁기관":1525,"▁골":1526,"▁하지만":1527,"▁기준":1528,"▁홍":1529,"▁폭":1530,"▁환경":1531,"▁제공":1532,"▁18":1533,"▁기록":1534,"스트":1535,"▁P":1536,"▁갈":1537,"▁학생":1538,"▁다시":1539,"▁업체":1540,"▁베":1541,"▁선수":1542,"▁정치":1543,"▁13":1544,"▁테":1545,"▁시설":1546,"▁참여":1547,"▁벌":1548,"▁제품":1549,"▁키":1550,"부터":1551,"▁난":1552,"▁규모":1553,"▁다음":1554,"▁너무":1555,"▁구성":1556,"▁결정":1557,"▁첫":1558,"▁방법":1559,"▁처럼":1560,"▁또한":1561,"▁시민":1562,"▁설명":1563,"▁센터":1564,"▁쓰":1565,"▁삼성":1566,"▁따르":1567,"▁16":1568,"▁증가":1569,"▁왜":1570,"▁부산":1571,"▁14":1572,"▁D":1573,"▁끝":1574,"▁얼":1575,"▁그러나":1576,"▁터":1577,"▁확인":1578,"▁님":1579,"▁경찰":1580,"▁G":1581,"▁%)":1582,"▁국회":1583,"▁잡":1584,"▁B":1585,"▁층":1586,"▁뿐":1587,"▁영화":1588,"▁나타":1589,"▁100":1590,"▁25":1591,"▁합니다":1592,"▁위원회":1593,"▁선거":1594,"니까":1595,"▁시키":1596,"▁대구":1597,"ᅲᅲ":1598,"라고":1599,"▁내용":1600,"▁방송":1601,"▁회사":1602,"▁지방":1603,"▁설치":1604,"▁국제":1605,"▁레":1606,"로나":1607,"▁최고":1608,"▁새로":1609,"▁감독":1610,"▁엄":1611,"▁판매":1612,"▁왔":1613,"▁안전":1614,"▁동안":1615,"▁회장":1616,"▁빠":1617,"▁/":1618,"▁오늘":1619,"▁발표":1620,"▁알려":1621,"▁현대":1622,"▁성장":1623,"▁마련":1624,"▁북한":1625,"▁기대":1626,"▁클":1627,"▁그리고":1628,"▁발전":1629,"▁다가":1630,"운데":1631,"시아":1632,"▁주민":1633,"▁코로나":1634,"▁냐":1635,"▁러":1636,"▁생산":1637,"▁17":1638,"▁대회":1639,"▁전국":1640,"▁극":1641,"▁범":1642,"▁생활":1643,"랜드":1644,"▁이유":1645,"▁분석":1646,"▁중요":1647,"▁피해":1648,"▁사건":1649,"▁구조":1650,"▁가격":1651,"▁이렇":1652,"▁이미":1653,"▁송":1654,"▁당시":1655,"▁교수":1656,"▁기간":1657,"▁상태":1658,"▁확대":1659,"▁육":1660,"▁행사":1661,"▁밖":1662,"▁케":1663,"▁긴":1664,"▁활용":1665,"▁가운데":1666,"▁어려":1667,"▁공개":1668,"▁50":1669,"▁자동":1670,"▁주택":1671,"▁주장":1672,"▁일반":1673,"▁귀":1674,"▁울":1675,"▁휴":1676,"▁여성":1677,"▁요구":1678,"▁째":1679,"▁일부":1680,"▁경쟁":1681,"▁머":1682,"▁처음":1683,"▁최대":1684,"▁효과":1685,"▁중심":1686,"▁;":1687,"▁놓":1688,"▁몰":1689,"▁사진":1690,"▁페":1691,"▁직접":1692,"▁폐":1693,"▁탄":1694,"▁부분":1695,"▁F":1696,"▁한다는":1697,"▁수준":1698,"▁단계":1699,"▁프로그":1700,"▁진짜":1701,"▁블":1702,"▁△":1703,"▁단체":1704,"..":1705,"인다":1706,"▁듯":1707,"▁모든":1708,"▁준비":1709,"▁한편":1710,"▁분야":1711,"▁k":1712,"▁자리":1713,"▁강화":1714,"▁운동":1715,"▁장치":1716,"▁보이":1717,"▁프로그램":1718,"▁”\n":1719,"▁은행":1720,"▁이렇게":1721,"▁개선":1722,"▁핵":1723,"▁21":1724,"▁공동":1725,"▁십":1726,"▁존":1727,"▁전체":1728,"▁전망":1729,"▁소비":1730,"▁낮":1731,"er":1732,"▁만큼":1733,"▁는지":1734,"▁스타":1735,"in":1736,"▁근데":1737,"▁어떤":1738,"▁24":1739,"▁홈":1740,"▁인터":1741,"▁공사":1742,"▁같이":1743,"▁모습":1744,"▁방식":1745,"▁이러":1746,"▁조성":1747,"▁~\n":1748,"▁따른":1749,"▁이라고":1750,"▁관심":1751,"▁얘":1752,"▁윤":1753,"▁추가":1754,"ᄏ\n":1755,"▁지적":1756,"대로":1757,"▁ᄏᄏᄏᄏᄏᄏᄏᄏ":1758,"▁률":1759,"▁>":1760,"▁건설":1761,"▁새로운":1762,"▁나오":1763,"▁콘":1764,"▁장관":1765,"▁해당":1766,"▁회의":1767,"▁여러":1768,"▁E":1769,"▁없이":1770,"▁인천":1771,"▁계속":1772,"▁밀":1773,"▁사랑":1774,"▁행정":1775,"▁봐":1776,"▁돈":1777,"▁공급":1778,"▁잠":1779,"▁현장":1780,"▁처리":1781,"▁상품":1782,"▁실시":1783,"▁고객":1784,"▁기존":1785,"▁<":1786,"▁강조":1787,"▁광주":1788,"▁적용":1789,"마트":1790,"▁22":1791,"▁먼":1792,"▁관광":1793,"▁석":1794,"▁그래서":1795,"▁아파":1796,"▁병원":1797,"▁맛":1798,"▁떨":1799,"▁형성":1800,"▁입장":1801,"▁침":1802,"▁대비":1803,"이터":1804,"▁뉴":1805,"on":1806,"요\n":1807,"▁황":1808,"▁23":1809,"▁나라":1810,"▁그룹":1811,"▁루":1812,"▁40":1813,"▁달러":1814,"▁영상":1815,"이스":1816,"▁여기":1817,"▁수사":1818,"▁영향":1819,"▁가족":1820,"▁특별":1821,"▁다\n":1822,"▁변화":1823,"▁건강":1824,"▁위원장":1825,"▁혁":1826,"▁노동":1827,"▁개인":1828,"ᄒᄒ":1829,"▁민주당":1830,"▁N":1831,"▁마음":1832,"▁압":1833,"▁검찰":1834,"▁경영":1835,"으며":1836,"▁이야":1837,"▁봉":1838,"▁중앙":1839,"▁어떻":1840,"▁오후":1841,"▁입니다":1842,"▁기능":1843,"▁아닌":1844,"▁얘기":1845,"▁혼":1846,"▁유지":1847,"▁미래":1848,"▁인데":1849,"▁탈":1850,"▁\"\n":1851,"▁바이":1852,"▁위치":1853,"▁해외":1854,"너지":1855,"▁예상":1856,"▁캐":1857,"▁지속":1858,"▁팔":1859,"▁란":1860,"▁희":1861,"▁아파트":1862,"▁:":1863,"▁각각":1864,"▁시즌":1865,"▁보여":1866,"▁떠":1867,"▁역시":1868,"▁악":1869,"▁못하":1870,"▁공간":1871,"▁티":1872,"▁노력":1873,"▁예산":1874,"▁인사":1875,"▁니까":1876,"▁아직":1877,"▁선정":1878,"이트":1879,"▁주요":1880,"▁상대":1881,"▁물론":1882,"▁어야":1883,"▁내년":1884,"▁이야기":1885,"▁자동차":1886,"▁업무":1887,"▁실제":1888,"▁보험":1889,"▁감사":1890,"▁거래":1891,"▁제도":1892,"▁계약":1893,"▁정상":1894,"▁협력":1895,"▁열린":1896,"어나":1897,"▁개월":1898,"▁통신":1899,"▁연결":1900,"▁떨어":1901,"▁사고":1902,"▁통합":1903,"▁R":1904,"▁확보":1905,"▁26":1906,"▁로부터":1907,"▁역사":1908,"▁성공":1909,"▁의미":1910,"▁액":1911,"▁방문":1912,"▁27":1913,"▁대해서":1914,"▁게임":1915,"▁불법":1916,"▁치료":1917,"▁책임":1918,"▁상승":1919,"▁검사":1920,"▁차량":1921,"▁답":1922,"▁몸":1923,"▁적극":1924,"▁선택":1925,"▁역할":1926,"▁대책":1927,"▁199":1928,"▁풀":1929,"▁전자":1930,"▁기자":1931,"▁신청":1932,"▁의료":1933,"▁둘":1934,"▁28":1935,"▁로서":1936,"▁더욱":1937,"▁전략":1938,"▁바로":1939,"▁비롯":1940,"▁개정":1941,"▁능":1942,"▁율":1943,"▁더라":1944,"▁방향":1945,"▁해결":1946,"an":1947,"▁전기":1948,"▁보호":1949,"▁얻":1950,"▁혐":1951,"▁조치":1952,"리아":1953,"▁외국":1954,"▁품":1955,"▁풍":1956,"▁시대":1957,"▁시행":1958,"▁스마트":1959,"▁글로":1960,"▁제조":1961,"▁보인다":1962,"▁한다고":1963,"▁든":1964,"▁의해":1965,"▁직원":1966,"▁자기":1967,"▁c":1968,"▁자유":1969,"▁제작":1970,"▁컨":1971,"라인":1972,"▁맡":1973,"▁왕":1974,"▁교통":1975,"▁고\n":1976,"▁작업":1977,"▁창원":1978,"▁위기":1979,"▁방안":1980,"▁글로벌":1981,"▁웃":1982,"▁복지":1983,"▁이동":1984,"▁에너지":1985,"▁조선":1986,"▁!\n":1987,"▁부담":1988,"▁다면":1989,"▁지지":1990,"▁봤":1991,"▁공연":1992,"▁작품":1993,"▁잇":1994,"전자":1995,"▁우려":1996,"▁대응":1997,"▁안정":1998,"▁이사":1999,"▁데이터":2000,"▁착":2001,"▁의견":2002,"▁어떻게":2003,"▁수출":2004,"or":2005,"▁요청":2006,"▁위해서":2007,"▁돌아":2008,"▁29":2009,"▁쉽":2010,"진다":2011,"▁대부":2012,"▁판단":2013,"▁나가":2014,"▁나온":2015,"▁환자":2016,"▁이루":2017,"▁세요":2018,"▁집중":2019,"▁죽":2020,"▁고려":2021,"▁이하":2022,"▁즐":2023,"▁평균":2024,"▁조직":2025,"▁조정":2026,"▁가구":2027,"▁t":2028,"▁과학":2029,"▁광고":2030,"자리":2031,"▁놀":2032,"▁자체":2033,"▁격":2034,"▁비용":2035,"▁쇼":2036,"▁개최":2037,"▁인정":2038,"▁인지":2039,"▁이뤄":2040,"▁공정":2041,"▁매출":2042,"▁지난달":2043,"▁감소":2044,"▁이전":2045,"▁씩":2046,"▁퍼":2047,"▁등록":2048,"▁전문가":2049,"▁거리":2050,"▁도로":2051,"al":2052,"▁,\n":2053,"▁목표":2054,"▁기본":2055,"▁내부":2056,"▁어린":2057,"▁가치":2058,"▁202":2059,"▁도입":2060,"▁H":2061,"▁만나":2062,"▁워":2063,"▁마을":2064,"▁LG":2065,"▁암":2066,"▁활성":2067,"▁공공":2068,"▁자연":2069,"▁관한":2070,"▁앞서":2071,"▁중소":2072,"▁쪽":2073,"▁대부분":2074,"▁롯":2075,"▁펼":2076,"▁브랜드":2077,"▁혁신":2078,"▁O":2079,"▁징":2080,"▁)\n":2081,"▁기반":2082,"▁배우":2083,"▁몇":2084,"▁업계":2085,"▁하루":2086,"▁뛰":2087,"러스":2088,"at":2089,"▁단지":2090,"▁리그":2091,"▁ᅲᅲ":2092,"▁그냥":2093,"▁촉":2094,"▁겨":2095,"▁어\n":2096,"▁사무":2097,"▁마다":2098,"▁헤":2099,"▁친구":2100,"▁롯데":2101,"▁협의":2102,"▁어느":2103,"▁뜻":2104,"▁종합":2105,"▁자료":2106,"▁장애":2107,"▁퇴":2108,"▁U":2109,"▁31":2110,"▁아요":2111,"en":2112,"▁해도":2113,"▁오전":2114,"▁전시":2115,"▁라면":2116,"▁영업":2117,"▁자금":2118,"▁SK":2119,"▁구축":2120,"▁특징":2121,"▁음악":2122,"▁결국":2123,"▁60":2124,"▁캠":2125,"▁이해":2126,"▁랑":2127,"▁녹":2128,"▁반대":2129,"▁건축":2130,"▁보도":2131,"▁모델":2132,"▁&":2133,"▁드라":2134,"▁기회":2135,"▁혐의":2136,"▁대출":2137,"▁수익":2138,"▁수요":2139,"▁예술":2140,"기업":2141,"▁전화":2142,"▁주변":2143,"▁표현":2144,"▁슬":2145,"▁차지":2146,"▁갑":2147,"▁소비자":2148,"▁소속":2149,"▁상당":2150,"▁팬":2151,"▁모르":2152,"▁즉":2153,"▁먼저":2154,"▁꾸":2155,"▁일정":2156,"▁카드":2157,"▁참석":2158,"▁여행":2159,"▁제기":2160,"▁논의":2161,"▁제주":2162,"▁지도":2163,"▁여부":2164,"▁도움":2165,"▁경험":2166,"▁인가":2167,"▁청소":2168,"▁정말":2169,"▁유치":2170,"▁출시":2171,"▁끌":2172,"▁지정":2173,"▁훈":2174,"▁신고":2175,"▁사장":2176,"주의":2177,"▁%,":2178,"▁대전":2179,"민국":2180,"▁체험":2181,"▁위험":2182,"▁드러":2183,"▁아무":2184,"스크":2185,"▁싸":2186,"▁선보":2187,"▁지구":2188,"▁올라":2189,"무원":2190,"거리":2191,"▁분기":2192,"▁능력":2193,"▁ᄒᄒ":2194,"▁냉":2195,"▁경기도":2196,"▁장기":2197,"인트":2198,"▁누리":2199,"▁시켜":2200,"▁인기":2201,"▁디자":2202,"▁헌":2203,"▁펀":2204,"▁공장":2205,"▁우선":2206,"▁대한민국":2207,"▁빨":2208,"▁언론":2209,"▁그럼":2210,"▁규정":2211,"▁히":2212,"▁경남":2213,"▁청와":2214,"▁시청":2215,"▁청와대":2216,"▁유럽":2217,"▁본부":2218,"▁그런데":2219,"▁비판":2220,"▁우수":2221,"▁인해":2222,"▁재정":2223,"▁마지":2224,"▁어렵":2225,"▁동시":2226,"▁핵심":2227,"▁제시":2228,"▁검토":2229,"▁시험":2230,"▁최초":2231,"▁고용":2232,"▁부족":2233,"▁얼마":2234,"▁홀":2235,"▁색":2236,"소리":2237,"▁전했":2238,"▁담당":2239,"▁높이":2240,"ar":2241,"▁수도":2242,"▁여자":2243,"▁으로써":2244,"▁분양":2245,"반기":2246,"▁논란":2247,"▁지급":2248,"▁에선":2249,"▁전달":2250,"▁형태":2251,"머니":2252,"▁나왔":2253,"▁인터넷":2254,"▁사항":2255,"▁자원":2256,"▁마지막":2257,"▁행위":2258,"▁못했":2259,"▁W":2260,"▁기획":2261,"▁출신":2262,"▁울산":2263,"▁사례":2264,"전히":2265,"▁km":2266,"▁잔":2267,"▁규제":2268,"▁부동":2269,"▁각종":2270,"▁소재":2271,"▁반면":2272,"▁견":2273,"▁TV":2274,"동안":2275,"▁네요":2276,"▁합의":2277,"▁넣":2278,"▁부문":2279,"▁재판":2280,"▁수행":2281,"▁삶":2282,"▁반응":2283,"▁네\n":2284,"▁대로":2285,"▁확산":2286,"▁잖":2287,"▁셨":2288,"▁흐":2289,"▁참가":2290,"▁감염":2291,"▁대형":2292,"▁으로서":2293,"▁의회":2294,"▁어디":2295,"▁우승":2296,"▁소득":2297,"▁일자리":2298,"▁밖에":2299,"▁나타났":2300,"▁온라인":2301,"▁찾아":2302,"한다":2303,"▁전환":2304,"▁좌":2305,"▁현실":2306,"▁을까":2307,"▁2010":2308,"▁아서":2309,"▁엄마":2310,"▁비교":2311,"▁제한":2312,"▁매우":2313,"▁분위":2314,"▁의사":2315,"▁차례":2316,"▁성과":2317,"▁움":2318,"▁꿈":2319,"▁주소":2320,"▁슈":2321,"▁서로":2322,"▁∼":2323,"▁비해":2324,"▁70":2325,"▁이거":2326,"▁항공":2327,"린다":2328,"▁반영":2329,"▁ᄏᄏᄏᄏᄏᄏ":2330,"으나":2331,"▁부동산":2332,"▁께":2333,"▁염":2334,"▁웅":2335,"▁보내":2336,"▁조합":2337,"▁섬":2338,"▁▲":2339,"▁한테":2340,"▁연기":2341,"▁#\n":2342,"▁이익":2343,"▁음식":2344,"▁2012":2345,"▁솔":2346,"▁설립":2347,"▁비속":2348,"▁창원시":2349,"▁공무원":2350,"이지":2351,"▁공원":2352,"▁비속어":2353,"▁흥":2354,"▁는데\n":2355,"어난":2356,"▁올림":2357,"▁푸":2358,"이드":2359,"▁택":2360,"▁따라서":2361,"▁차이":2362,"▁지나":2363,"▁특허":2364,"▁청년":2365,"▁현지":2366,"▁진출":2367,"디어":2368,"▁행복":2369,"BS":2370,"▁식품":2371,"▁작가":2372,"므로":2373,"▁최종":2374,"▁포인트":2375,"▁낙":2376,"▁곡":2377,"▁가입":2378,"▁s":2379,"▁2014":2380,"▁2013":2381,"▁2015":2382,"▁본격":2383,"▁달리":2384,"▁주목":2385,"▁2000":2386,"▁디자인":2387,"▁분위기":2388,"▁붙":2389,"▁펀드":2390,"▁짜":2391,"▁숙":2392,"▁세대":2393,"▁보고":2394,"▁폴":2395,"▁건물":2396,"▁방침":2397,"▁아야":2398,"▁목적":2399,"▁남자":2400,"▁인식":2401,"▁정신":2402,"▁존재":2403,"▁그렇게":2404,"▁제대로":2405,"▁공식":2406,"▁누구":2407,"▁조금":2408,"▁영역":2409,"▁과거":2410,"▁밥":2411,"▁인상":2412,"▁구매":2413,"▁공격":2414,"▁어린이":2415,"▁2011":2416,"▁제안":2417,"▁자산":2418,"▁망":2419,"▁이모":2420,"▁물질":2421,"▁올림픽":2422,"▁무엇":2423,"▁빈":2424,"▁빌":2425,"▁아시아":2426,"▁대신":2427,"▁여야":2428,"▁체계":2429,"▁목소리":2430,"▁소개":2431,"▁증권":2432,"ic":2433,"▁198":2434,"▁컴":2435,"▁거든":2436,"▁느냐":2437,"▁금리":2438,"▁35":2439,"▁절차":2440,"▁피부":2441,"▁변경":2442,"▁으로부터":2443,"텐츠":2444,"▁출연":2445,"▁스포":2446,"▁밤":2447,"▁류":2448,"▁V":2449,"▁전통":2450,"▁졸":2451,"▁p":2452,"▁◆":2453,"▁주식":2454,"▁인구":2455,"▁납":2456,"▁레이":2457,"▁희망":2458,"▁선발":2459,"▁..\n":2460,"▁연구원":2461,"▁교사":2462,"▁근로":2463,"▁바람":2464,"▁민간":2465,"▁배치":2466,"▁겪":2467,"▁전력":2468,"▁중소기업":2469,"▁영국":2470,"▁무대":2471,"▁만든":2472,"▁특성":2473,"▁축구":2474,"▁’,":2475,"▁이게":2476,"▁알려졌":2477,"▁혜":2478,"▁경북":2479,"▁소리":2480,"▁벤":2481,"▁2009":2482,"▁투표":2483,"▁제외":2484,"▁효율":2485,"▁노래":2486,"▁체육":2487,"▁예방":2488,"▁궁":2489,"▁다만":2490,"▁자치":2491,"▁ᄏᄏᄏᄏᄏᄏᄏᄏᄏᄏᄏᄏ":2492,"▁국정":2493,"▁끼":2494,"▁은데":2495,"▁숨":2496,"▁시기":2497,"▁노조":2498,"▁비율":2499,"▁갔":2500,"▁내려":2501,"▁프리":2502,"▁고민":2503,"▁기초":2504,"▁려는":2505,"▁연속":2506,"▁외부":2507,"▁통한":2508,"▁의혹":2509,"▁2008":2510,"▁신호":2511,"▁기념":2512,"▁수입":2513,"▁공항":2514,"▁지하":2515,"▁술":2516,"▁제출":2517,"▁차원":2518,"▁외국인":2519,"▁균":2520,"▁스트":2521,"▁힘들":2522,"▁화학":2523,"레스":2524,"▁거의":2525,"▁으나":2526,"▁80":2527,"!!":2528,"▁라도":2529,"▁설계":2530,"▁홍보":2531,"나라":2532,"▁일단":2533,"▁심사":2534,"▁줘":2535,"▁깨":2536,"▁훈련":2537,"▁ᄏᄏᄏ":2538,"▁드라마":2539,"▁충분":2540,"▁최소":2541,"▁보유":2542,"▁인력":2543,"▁학습":2544,"▁회복":2545,"▁500":2546,"▁들어가":2547,"▁대선":2548,"▁정당":2549,"▁2016":2550,"▁협회":2551,"▁스포츠":2552,"학교":2553,"▁가까":2554,"다는":2555,"▁결합":2556,"▁공부":2557,"▁고자":2558,"▁실적":2559,"▁속도":2560,"▁언제":2561,"▁덧":2562,"▁발견":2563,"▁법원":2564,"▁첨":2565,"▁값":2566,"▁보수":2567,"▁사태":2568,"▁]":2569,"▁청소년":2570,"▁인제":2571,"es":2572,"▁혹":2573,"▁조건":2574,"▁`":2575,"은행":2576,"▁찍":2577,"▁버스":2578,"▁덕":2579,"▁려고":2580,"▁더라도":2581,"▁=":2582,"운드":2583,"▁향후":2584,"▁임대":2585,"▁ᅮ":2586,"▁축제":2587,"▁가정":2588,"▁유통":2589,"▁그것":2590,"▁수상":2591,"▁방지":2592,"▁쉬":2593,"▁보였":2594,"▁ᄋ":2595,"▁인간":2596,"▁듣":2597,"▁음\n":2598,"▁코스":2599,"▁하락":2600,"▁취업":2601,"▁신규":2602,"▁더불":2603,"▁독일":2604,"▁쿠":2605,"어지":2606,"이션":2607,"▁어려운":2608,"▁법인":2609,"it":2610,"▁인도":2611,"▁삼성전자":2612,"▁사망":2613,"라이":2614,"▁변호":2615,"▁라이":2616,"▁전남":2617,"▁흔":2618,"▁혈":2619,"▁2017":2620,"▁써":2621,"버지":2622,"▁32":2623,"▁그동안":2624,"▁수원":2625,"▁개혁":2626,"▁창업":2627,"▁결혼":2628,"▁세상":2629,"▁보건":2630,"▁찬":2631,"▁인근":2632,"▁구체":2633,"리스":2634,"▁2018":2635,"▁해양":2636,"▁사전":2637,"▁[":2638,"▁촬":2639,"▁거쳐":2640,"▁중단":2641,"▁전쟁":2642,"▁원인":2643,"▁연합":2644,"▁잖아":2645,"▁깊":2646,"▁표시":2647,"▁확진":2648,"디오":2649,"▁졌":2650,"▁옥":2651,"▁움직":2652,"▁총리":2653,"▁청구":2654,"▁프랑":2655,"▁이르":2656,"▁도전":2657,"▁통과":2658,"▁타이":2659,"▁덧붙":2660,"▁맥":2661,"▁평화":2662,"▁회원":2663,"▁1000":2664,"▁...":2665,"▁싱":2666,"▁했으며":2667,"▁원장":2668,"▁지사":2669,"▁정확":2670,"▁주제":2671,"▁대화":2672,"▁경쟁력":2673,"티콘":2674,"▁콘텐츠":2675,"▁현상":2676,"▁촬영":2677,"▁박근":2678,"▁보장":2679,"▁이모티콘":2680,"▁특정":2681,"ion":2682,"▁마이":2683,"▁꼽":2684,"▁위반":2685,"▁론":2686,"▁확정":2687,"▁월드":2688,"▁향상":2689,"▁연장":2690,"▁요즘":2691,"▁칼":2692,"▁당국":2693,"▁체결":2694,"▁읽":2695,"▁라인":2696,"▁가스":2697,"스터":2698,"▁아들":2699,"▁낸":2700,"▁승리":2701,"et":2702,"▁수업":2703,"▁질문":2704,"▁늦":2705,"▁강원":2706,"▁진단":2707,"▁주인":2708,"▁주도":2709,"▁박근혜":2710,"▁얼굴":2711,"▁학년":2712,"▁꼭":2713,"▁법률":2714,"▁외교":2715,"▁기타":2716,"▁성적":2717,"▁꺼":2718,"▁300":2719,"▁젊":2720,"▁줬":2721,"▁용어":2722,"▁’(":2723,"▁그거":2724,"▁꽃":2725,"▁작년":2726,"▁링":2727,"▁고정":2728,"▁케이":2729,"▁기억":2730,"▁못한":2731,"▁탐":2732,"▁문제점":2733,"▁범죄":2734,"▁초등":2735,"▁머리":2736,"▁협상":2737,"▁빼":2738,"▁나온다":2739,"▁흡":2740,"▁남북":2741,"▁야구":2742,"▁유명":2743,"▁셔":2744,"▁근무":2745,"▁투입":2746,"▁골프":2747,"▁부모":2748,"▁생명":2749,"프트":2750,"▁ᄏᄏ\n":2751,"▁33":2752,"▁입주":2753,"스로":2754,"▁화장":2755,"▁ᅲ":2756,"없이":2757,"▁파악":2758,"럼프":2759,"▁이미지":2760,"▁덧붙였":2761,"▁가진":2762,"▁a":2763,"▁J":2764,"▁금지":2765,"BC":2766,"▁아\n":2767,"▁36":2768,"▁여름":2769,"▁복합":2770,"▁멀":2771,"▁맨":2772,"▁45":2773,"▁스마트폰":2774,"▁스러":2775,"▁인한":2776,"▁주로":2777,"▁등장":2778,"▁전해":2779,"▁시절":2780,"▁수술":2781,"▁딸":2782,"▁말씀":2783,"▁할인":2784,"▁스럽":2785,"▁프랑스":2786,"▁익":2787,"▁내놓":2788,"▁과제":2789,"▁지\n":2790,"▁금액":2791,"▁문재":2792,"▁5000":2793,"▁다르":2794,"▁인수":2795,"▁이끌":2796,"▁쇼핑":2797,"바일":2798,"▁%),":2799,"▁국토":2800,"▁토론":2801,"▁서울시":2802,"▁재단":2803,"▁불과":2804,"▁웨":2805,"▁트럼프":2806,"▁제어":2807,"▁모바일":2808,"▁앞두":2809,"ing":2810,"▁벗":2811,"도체":2812,"▁선물":2813,"▁등급":2814,"▁느낌":2815,"▁남성":2816,"▁회담":2817,"▁다이":2818,"▁구속":2819,"▁발언":2820,"▁비슷":2821,"▁스스로":2822,"▁점검":2823,"▁공유":2824,"▁나서":2825,"▁추천":2826,"▁거든요":2827,"▁비중":2828,"▁측면":2829,"▁괜":2830,"젝트":2831,"▁오른":2832,"▁믿":2833,"▁하이":2834,"▁배출":2835,"요일":2836,"▁네트":2837,"▁시도":2838,"▁욕":2839,"▁잘못":2840,"▁전용":2841,"▁부정":2842,"▁예요":2843,"▁걱":2844,"▁오히":2845,"▁상담":2846,"▁행동":2847,"▁봉사":2848,"▁영어":2849,"▁임금":2850,"▁오히려":2851,"▁열리":2852,"▁선언":2853,"▁그대로":2854,"▁전년":2855,"▁혜택":2856,"▁호텔":2857,"스코":2858,"▁연계":2859,"▁쯤":2860,"▁거기":2861,"▁소송":2862,"le":2863,"▁디지":2864,"▁불편":2865,"▁가량":2866,"▁여론":2867,"▁2007":2868,"▁육성":2869,"▁콜":2870,"▁g":2871,"▁러시아":2872,"▁뭔":2873,"▁독립":2874,"▁갈등":2875,"▁넘어":2876,"▁2020":2877,"▁b":2878,"▁인증":2879,"▁엘":2880,"▁기사":2881,"▁프로젝트":2882,"is":2883,"▁선생":2884,"▁올리":2885,"▁다니":2886,"▁해요":2887,"▁소통":2888,"▁허가":2889,"▁무슨":2890,"▁뜨":2891,"▁걱정":2892,"▁탑":2893,"▁어려움":2894,"▁동물":2895,"▁체제":2896,"▁채용":2897,"▁이달":2898,"▁빛":2899,"▁가져":2900,"▁디지털":2901,"▁스타일":2902,"▁정비":2903,"▁나와":2904,"▁KT":2905,"▁달성":2906,"▁공기":2907,"▁신문":2908,"▁의장":2909,"▁야\n":2910,"▁반도체":2911,"▁나이":2912,"어들":2913,"▁여전히":2914,"▁창출":2915,"▁총장":2916,"▁노인":2917,"▁나섰":2918,"▁미술":2919,"▁교육청":2920,"▁부품":2921,"▁곧":2922,"▁채널":2923,"▁변호사":2924,"▁플레이":2925,"▁정권":2926,"▁대체":2927,"▁뮤":2928,"▁신용":2929,"▁이것":2930,"의원":2931,"▁올랐":2932,"▁둔":2933,"▁끊":2934,"서관":2935,"벤트":2936,"▁시킨":2937,"▁제거":2938,"re":2939,"▁봄":2940,"▁냈":2941,"▁수용":2942,"▁n":2943,"▁고등":2944,"▁기다":2945,"▁지켜":2946,"▁이벤트":2947,"▁작용":2948,"▁나선":2949,"▁실제로":2950,"▁ᄏᄏᄏ\n":2951,"▁측정":2952,"▁흑":2953,"무리":2954,"▁바탕":2955,"▁만드":2956,"▁2019":2957,"페인":2958,"▁집행":2959,"ro":2960,"▁'\n":2961,"워크":2962,"▁’\n":2963,"▁셈":2964,"▁34":2965,"▁정의":2966,"▁넓":2967,"▁아주":2968,"▁재산":2969,"▁f":2970,"▁강력":2971,"▁아마":2972,"▁본인":2973,"▁칠":2974,"▁차별":2975,"▁판결":2976,"▁준다":2977,"▁셀":2978,"▁지자":2979,"▁묻":2980,"▁매년":2981,"▁아버지":2982,"▁만족":2983,"▁신뢰":2984,"▁무역":2985,"▁지수":2986,"▁장비":2987,"▁연금":2988,"▁김정":2989,"▁설정":2990,"▁컬":2991,"▁단순":2992,"▁융":2993,"▁아동":2994,"환경":2995,"▁부지":2996,"▁마무리":2997,"▁뇌":2998,"수록":2999,"▁90":3000,"▁범위":3001,"▁당선":3002,"▁피해자":3003,"▁회전":3004,"▁유리":3005,"▁지식":3006,"▁척":3007,"▁심각":3008,"▁땅":3009,"▁오래":3010,"▁구역":3011,"▁휴대":3012,"▁획":3013,"▁원내":3014,"▁그때":3015,"▁매장":3016,"▁계기":3017,"▁197":3018,"▁언급":3019,"▁빨리":3020,"▁겨울":3021,"▁의한":3022,"▁농업":3023,"▁이른":3024,"▁그게":3025,"▁총선":3026,"▁통화":3027,"▁예비":3028,"▁굉":3029,"▁재미":3030,"▁분리":3031,"▁자격":3032,"▁주차":3033,"▁강남":3034,"▁에요":3035,"▁지자체":3036,"▁곤":3037,"▁므로":3038,"▁득":3039,"▁기기":3040,"▁약속":3041,"▁수석":3042,"▁안타":3043,"▁옮":3044,"▁대중":3045,"▁네트워크":3046,"▁복수":3047,"▁겁":3048,"▁자세":3049,"▁굉장":3050,"▁해석":3051,"▁달라":3052,"▁졸업":3053,"▁신경":3054,"▁편의":3055,"▁엄청":3056,"▁의무":3057,"▁재료":3058,"▁뉴스":3059,"▁의지":3060,"▁부장":3061,"▁공모":3062,"▁언니":3063,"▁불안":3064,"▁국립":3065,"▁시각":3066,"▁아래":3067,"▁옆":3068,"▁옷":3069,"▁d":3070,"▁접근":3071,"▁◇":3072,"▁얼마나":3073,"▁마케":3074,"▁전반":3075,"▁뽑":3076,"▁메이":3077,"▁기여":3078,"▁전형":3079,"▁38":3080,"▁메시":3081,"▁확실":3082,"▁고요":3083,"▁모집":3084,"▁인권":3085,"▁교과":3086,"▁인물":3087,"▁딱":3088,"▁사업자":3089,"우스":3090,"▁벽":3091,"▁보상":3092,"▁래":3093,"▁집단":3094,"▁바이러스":3095,"▁이랑":3096,"am":3097,"▁아침":3098,"▁기구":3099,"페이지":3100,"▁요소":3101,"▁계열":3102,"▁홈페이지":3103,"▁학부":3104,"▁~~":3105,"▁교체":3106,"▁철도":3107,"▁마케팅":3108,"ol":3109,"▁쌓":3110,"▁그림":3111,"▁져":3112,"▁번호":3113,"▁부탁":3114,"▁실장":3115,"▁유기":3116,"▁협약":3117,"▁려면":3118,"가지":3119,"▁굉장히":3120,"▁통상":3121,"▁이곳":3122,"▁자녀":3123,"▁생태":3124,"▁́":3125,"om":3126,"▁오르":3127,"▁잃":3128,"▁야당":3129,"▁저장":3130,"▁쓸":3131,"▁전혀":3132,"▁인하":3133,"▁자본":3134,"▁그만":3135,"▁폼":3136,"▁다수":3137,"▁사상":3138,"▁에\n":3139,"▁국방":3140,"▁으면서":3141,"▁충남":3142,"▁내일":3143,"▁면적":3144,"▁역량":3145,"el":3146,"▁질환":3147,"▁빅":3148,"▁나갈":3149,"▁이어지":3150,"▁매일":3151,"▁어도":3152,"▁정리":3153,"▁그래도":3154,"▁완화":3155,"▁틀":3156,"화점":3157,"▁바라":3158,"▁보조":3159,"▁꾸준":3160,"아들":3161,"▁소식":3162,"플레이":3163,"▁엉":3164,"...":3165,"▁완성":3166,"▁37":3167,"▁시리":3168,"▁출발":3169,"▁초기":3170,"▁맞춰":3171,"▁디스":3172,"▁장소":3173,"▁별도":3174,"▁낼":3175,"▁프레":3176,"립니다":3177,"산물":3178,"▁심리":3179,"▁+":3180,"▁불리":3181,"▁주문":3182,"▁연구소":3183,"▁해소":3184,"▁시킬":3185,"▁인터뷰":3186,"▁대학교":3187,"▁순위":3188,"▁빠르":3189,"▁문재인":3190,"아가":3191,"50":3192,"▁태양":3193,"▁쏟":3194,"▁단속":3195,"▁방역":3196,"▁친환경":3197,"▁르":3198,"▁원칙":3199,"▁불구":3200,"▁42":3201,"▁비상":3202,"▁직장":3203,"▁챙":3204,"▁온도":3205,"터리":3206,"▁출전":3207,"▁됨":3208,"▁챔":3209,"▁텔":3210,"▁꼬":3211,"▁시켰":3212,"▁위하":3213,"▁순간":3214,"▁괜찮":3215,"▁아프":3216,"▁접촉":3217,"▁수단":3218,"▁맛있":3219,"▁햇":3220,"▁국회의원":3221,"▁종래":3222,"▁기계":3223,"자기":3224,"▁저녁":3225,"▁옛":3226,"▁취소":3227,"▁무료":3228,"▁오픈":3229,"다고":3230,"▁동일":3231,"▁뿌":3232,"▁투자자":3233,"▁대변":3234,"▁통일":3235,"▁신설":3236,"▁앱":3237,"▁제일":3238,"학생":3239,"▁사과":3240,"▁마스크":3241,"▁운용":3242,"▁추정":3243,"▁아름":3244,"▁주가":3245,"▁공단":3246,"▁응답":3247,"▁저희":3248,"▁부재":3249,"▁부상":3250,"▁그린":3251,"▁특수":3252,"▁줄이":3253,"▁미치":3254,"▁부부":3255,"▁조절":3256,"▁실패":3257,"▁품질":3258,"▁승인":3259,"▁스토":3260,"▁긍":3261,"▁구간":3262,"▁앤":3263,"▁시점":3264,"▁살펴":3265,"▁펼쳐":3266,"▁w":3267,"▁근거":3268,"▁거부":3269,"랍니다":3270,"▁최저":3271,"▁동의":3272,"▁짓":3273,"▁마치":3274,"▁요금":3275,"▁요인":3276,"▁커피":3277,"메라":3278,"▁허용":3279,"▁처분":3280,"▁으니":3281,"▁패션":3282,"▁세트":3283,"▁보고서":3284,"▁학원":3285,"▁대사":3286,"▁가수":3287,"▁중간":3288,"▁',":3289,"▁구비":3290,"▁배경":3291,"▁IT":3292,"니스":3293,"?\n":3294,"▁롭":3295,"▁접수":3296,"▁둘러":3297,"▁2006":3298,"▁자주":3299,"▁토지":3300,"▁단위":3301,"▁확장":3302,"▁플랫":3303,"▁죄":3304,"▁쌍":3305,"▁갤":3306,"▁발굴":3307,"▁시리즈":3308,"▁분명":3309,"▁주말":3310,"▁l":3311,"▁쓴":3312,"드시":3313,"▁사라":3314,"▁그러니까":3315,"▁소유":3316,"▁나\n":3317,"▁금속":3318,"▁컴퓨":3319,"▁헬":3320,"▁반드시":3321,"▁기부":3322,"▁출마":3323,"▁나타나":3324,"▁대법":3325,"▁전북":3326,"▁역대":3327,"▁근로자":3328,"▁연간":3329,"▁e":3330,"▁밝혀":3331,"▁41":3332,"▁브라":3333,"▁세포":3334,"▁주거":3335,"▁39":3336,"▁완전":3337,"▁휘":3338,"▁운전":3339,"▁원래":3340,"▁〈":3341,"▁뒷":3342,"▁메시지":3343,"▁혼자":3344,"▁텐":3345,"▁바이오":3346,"대표":3347,"▁선고":3348,"▁성능":3349,"▁교류":3350,"리카":3351,"▁나머":3352,"▁예측":3353,"▁사이트":3354,"▁유일":3355,"▁크기":3356,"▁작성":3357,"▁샤":3358,"▁겸":3359,"▁수립":3360,"▁나무":3361,"▁〉":3362,"▁는가":3363,"▁봐야":3364,"▁h":3365,"▁고속":3366,"▁굴":3367,"▁바랍니다":3368,"▁어머니":3369,"▁다며":3370,"▁표면":3371,"▁해\n":3372,"▁연출":3373,"▁드리":3374,"▁반발":3375,"▁백화점":3376,"▁더니":3377,"▁노동자":3378,"▁나머지":3379,"▁55":3380,"▁ᄒ":3381,"▁밸":3382,"▁똑":3383,"▁공약":3384,"▁소방":3385,"▁런":3386,"▁카메라":3387,"▁습니까":3388,"▁멤":3389,"▁안내":3390,"as":3391,"▁궁금":3392,"▁미세":3393,"공사":3394,"▁기판":3395,"▁굳":3396,"▁한계":3397,"▁양성":3398,"▁처벌":3399,"▁했으나":3400,"▁지키":3401,"프라":3402,"▁회견":3403,"▁의식":3404,"▁차단":3405,"▁48":3406,"▁애플":3407,"▁극복":3408,"▁군사":3409,"▁정규":3410,"▁43":3411,"▁자율":3412,"▁종목":3413,"▁전지":3414,"▁《":3415,"▁미리":3416,"▁■":3417,"▁3000":3418,"▁코리아":3419,"▁일으":3420,"▁벨":3421,"▁바다":3422,"▁ᄏᄏᄏᄏᄏ":3423,"▁52":3424,"▁ᄏ":3425,"▁감정":3426,"▁최선":3427,"▁이탈":3428,"▁ᅮᅮ":3429,"▁미디어":3430,"▁는\n":3431,"▁세월":3432,"▁항상":3433,"▁삭":3434,"어진":3435,"▁헌법":3436,"▁관광객":3437,"▁문학":3438,"▁》":3439,"▁촉구":3440,"어났":3441,"▁전면":3442,"▁알리":3443,"▁법안":3444,"▁일상":3445,"▁충격":3446,"▁개념":3447,"▁매력":3448,"▁카페":3449,"▁설비":3450,"▁흘":3451,"▁포기":3452,"▁유도":3453,"▁받아들":3454,"▁196":3455,"▁오염":3456,"▁동아":3457,"▁렌":3458,"▁수학":3459,"▁어제":3460,"▁보통":3461,"▁느끼":3462,"▁공천":3463,"▁는데요":3464,"ac":3465,"▁노선":3466,"▁한다면":3467,"▁상반기":3468,"▁아울":3469,"▁잖아요":3470,"▁늘어나":3471,"▁한나라":3472,"▁한나라당":3473,"▁디스플레이":3474,"▁성분":3475,"▁연락":3476,"▁소장":3477,"▁떨어지":3478,"▁취지":3479,"▁균형":3480,"▁절반":3481,"▁국무":3482,"▁현대차":3483,"▁주년":3484,"어도":3485,"▁조기":3486,"▁월드컵":3487,"▁빚":3488,"▁도착":3489,"심히":3490,"▁남편":3491,"▁걸쳐":3492,"▁맞춤":3493,"▁수수":3494,"회장":3495,"▁폴리":3496,"▁모양":3497,"▁객":3498,"란다":3499,"ul":3500,"▁전날":3501,"▁헐":3502,"▁베이":3503,"▁드립니다":3504,"▁싫":3505,"▁당연":3506,"▁화재":3507,"▁앨":3508,"▁거주":3509,"▁완료":3510,"▁보안":3511,"▁동기":3512,"▁채권":3513,"▁44":3514,"▁마리":3515,"▁공감":3516,"▁겟":3517,"▁짧":3518,"▁긴급":3519,"▁불가":3520,"▁원자":3521,"▁맺":3522,"스타":3523,"▁검색":3524,"▁국장":3525,"▁법무":3526,"▁인재":3527,"▁전하":3528,"▁부여":3529,"▁KB":3530,"▁베트":3531,"▁인공":3532,"▁실질":3533,"▁이명":3534,"▁상호":3535,"▁대하":3536,"▁생기":3537,"다\n":3538,"▁에스":3539,"▁블록":3540,"▁투어":3541,"▁텍":3542,"▁65":3543,"▁강한":3544,"▁인생":3545,"▁과장":3546,"▁생성":3547,"▁전원":3548,"▁하반기":3549,"데\n":3550,"▁자는":3551,"주시":3552,"ed":3553,"▁안보":3554,"▁긍정":3555,"▁원내대표":3556,"▁매각":3557,"▁관객":3558,"▁빠른":3559,"▁정기":3560,"▁프리미":3561,"▁구청":3562,"▁불러":3563,"▁센서":3564,"▁기소":3565,"▁실천":3566,"▁선진":3567,"▁지분":3568,"▁물량":3569,"▁한화":3570,"▁평소":3571,"▁량":3572,"▁통계":3573,"▁나요":3574,"▁구입":3575,"▁재난":3576,"▁건립":3577,"▁철거":3578,"반도":3579,"튜브":3580,"단지":3581,"▁수지":3582,"▁ᄋᄋ":3583,"▁결제":3584,"▁바뀌":3585,"▁엇":3586,"▁연대":3587,"▁KBS":3588,"▁인프라":3589,"▁AI":3590,"▁개편":3591,"▁장점":3592,"▁이재":3593,"▁충분히":3594,"▁컴퓨터":3595,"▁교회":3596,"▁갑자기":3597,"▁보증":3598,"▁지상":3599,"▁요리":3600,"▁투명":3601,"▁멋":3602,"▁철저":3603,"▁광역":3604,"▁춘":3605,"▁이내":3606,"▁51":3607,"▁고양":3608,"▁오랜":3609,"▁베트남":3610,"▁선박":3611,"▁돼야":3612,"▁포항":3613,"▁2005":3614,"▁임시":3615,"▁아빠":3616,"ED":3617,"▁쌀":3618,"▁스러운":3619,"▁훨":3620,"▁46":3621,"▁멤버":3622,"▁마찬":3623,"▁진정":3624,"▁된다는":3625,"▁떠나":3626,"▁직업":3627,"▁세기":3628,"▁출범":3629,"▁밑":3630,"▁대기":3631,"▁흐름":3632,"▁장면":3633,"▁텔레":3634,"▁개시":3635,"▁검증":3636,"▁앉":3637,"▁마찬가지":3638,"▁댓":3639,"▁이건":3640,"▁ᄏᄏᄏᄏ\n":3641,"▁적어도":3642,"▁본다":3643,"▁돕":3644,"▁000":3645,"▁개국":3646,"라스":3647,"▁표준":3648,"▁엑":3649,"▁부회장":3650,"▁재밌":3651,"▁관람":3652,"▁정하":3653,"▁MBC":3654,"▁연료":3655,"▁내지":3656,"▁들여":3657,"▁단일":3658,"▁힐":3659,"▁소프트":3660,"▁400":3661,"▁도서관":3662,"▁47":3663,"▁'(":3664,"▁주행":3665,"▁시티":3666,"▁누가":3667,"▁반복":3668,"▁절대":3669,"▁데뷔":3670,"▁분류":3671,"NS":3672,"▁부인":3673,"▁바꾸":3674,"▁쳐":3675,"▁뉴욕":3676,"▁일어나":3677,"▁그니까":3678,"▁한반도":3679,"▁폐지":3680,"▁잉":3681,"▁가공":3682,"▁캐릭":3683,"▁손실":3684,"▁블랙":3685,"▁파이":3686,"▁심의":3687,"▁개방":3688,"ou":3689,"▁무기":3690,"▁학부모":3691,"▁협의회":3692,"▁지시":3693,"▁괴":3694,"▁진입":3695,"▁49":3696,"▁강제":3697,"▁엔진":3698,"▁발명":3699,"▁민원":3700,"▁걷":3701,"▁실현":3702,"▁훨씬":3703,"▁귀여":3704,"▁ᄏᄏᄏᄏᄏᄏᄏᄏᄏᄏ":3705,"▁옹":3706,"▁덜":3707,"▁점수":3708,"▁집회":3709,"▁아내":3710,"▁감안":3711,"거운":3712,"▁아울러":3713,"▁아름다":3714,"▁수정":3715,"▁캐릭터":3716,"▁오빠":3717,"▁모아":3718,"▁부처":3719,"▁대변인":3720,"▁꾸준히":3721,"▁폭력":3722,"▁대우":3723,"니아":3724,"▁전부":3725,"▁세력":3726,"▁탓":3727,"리트":3728,"▁내리":3729,"▁사정":3730,"▁구나":3731,"he":3732,"▁에어":3733,"▁적절":3734,"▁가동":3735,"▁실험":3736,"사자":3737,"▁상장":3738,"▁천만":3739,"▁났":3740,"▁제재":3741,"▁유입":3742,"▁리더":3743,"▁투수":3744,"▁원전":3745,"▁자랑":3746,"▁버리":3747,"▁개정안":3748,"▁열심히":3749,"▁업종":3750,"▁활약":3751,"▁증거":3752,"▁모임":3753,"▁지점":3754,"▁소설":3755,"▁권력":3756,"▁털":3757,"▁배터리":3758,"▁자전":3759,"▁알려져":3760,"▁혁명":3761,"▁ᄏᄏᄏᄏᄏᄏᄏᄏᄏᄏᄏᄏᄏᄏᄏᄏ":3762,"il":3763,"▁필수":3764,"▁묘":3765,"▁만약":3766,"▁손해":3767,"▁바란다":3768,"▁단말":3769,"▁75":3770,"▁충전":3771,"▁진해":3772,"▁부르":3773,"▁수능":3774,"▁전극":3775,"▁클럽":3776,"▁올려":3777,"▁으려":3778,"▁노출":3779,"담회":3780,"▁강의":3781,"▁취임":3782,"▁짐":3783,"▁주인공":3784,"▁구단":3785,"▁스위":3786,"▁53":3787,"▁권리":3788,"▁김영":3789,"▁고위":3790,"▁발행":3791,"▁형사":3792,"▁부과":3793,"▁됩":3794,"▁ᄒᄒ\n":3795,"▁로운":3796,"▁칭":3797,"▁여당":3798,"피스":3799,"▁청장":3800,"▁공직":3801,"▁첨단":3802,"▁이뤄지":3803,"▁앙":3804,"▁ᅲᅲ\n":3805,"▁셋":3806,"▁슈퍼":3807,"▁현수":3808,"▁미사":3809,"▁신종":3810,"▁조례":3811,"▁부서":3812,"▁위협":3813,"▁운행":3814,"▁X":3815,"▁악화":3816,"▁으니까":3817,"▁명령":3818,"▁올렸":3819,"▁ᄀ":3820,"▁새롭":3821,"▁PC":3822,"▁전세":3823,"▁프레임":3824,"▁뭔가":3825,"▁조차":3826,"▁그랬":3827,"▁약간":3828,"▁신속":3829,"▁증상":3830,"이버":3831,"▁기재":3832,"▁폐기":3833,"▁롤":3834,"▁팀장":3835,"▁구동":3836,"ent":3837,"▁54":3838,"▁밝히":3839,"▁간담회":3840,"▁구분":3841,"▁kg":3842,"▁개막":3843,"▁경상":3844,"▁혹은":3845,"▁캠프":3846,"▁사실상":3847,"▁낭":3848,"▁종류":3849,"▁나올":3850,"▁부대":3851,"▁박사":3852,"▁패턴":3853,"▁로봇":3854,"▁당초":3855,"직원":3856,"▁고교":3857,"▁이명박":3858,"▁재생":3859,"▁%(":3860,"▁문자":3861,"▁빠져":3862,"▁이루어지":3863,"▁Y":3864,"▁150":3865,"▁스테":3866,"▁추세":3867,"▁59":3868,"▁세금":3869,"일보":3870,"▁시위":3871,"▁유동":3872,"▁주의":3873,"▁가을":3874,"▁게시":3875,"▁다리":3876,"▁건축물":3877,"▁포스코":3878,"▁석유":3879,"▁밴":3880,"▁부진":3881,"ation":3882,"▁유사":3883,"▁자전거":3884,"▁후원":3885,"▁복귀":3886,"▁벌이":3887,"▁고등학교":3888,"▁유가":3889,"▁조명":3890,"▁이행":3891,"▁비행":3892,"▁숲":3893,"▁연말":3894,"▁바닥":3895,"▁기울":3896,"▁이사장":3897,"▁실내":3898,"▁웹":3899,"▁현수막":3900,"▁56":3901,"▁진료":3902,"▁거듭":3903,"▁명예":3904,"▁농협":3905,"▁만난":3906,"▁나누":3907,"▁기분":3908,"▁갖춘":3909,"▁움직임":3910,"고기":3911,"▁가슴":3912,"▁핑":3913,"▁횡":3914,"▁서울대":3915,"▁패널":3916,"▁챔피":3917,"▁사유":3918,"▁홈런":3919,"▁게\n":3920,"▁오프":3921,"▁족":3922,"메달":3923,"▁페이스":3924,"회사":3925,"▁단독":3926,"▁조제":3927,"▁승부":3928,"▁취약":3929,"카오":3930,"▁의심":3931,"▁예고":3932,"▁개별":3933,"▁▷":3934,"▁다소":3935,"▁고급":3936,"▁계층":3937,"▁키우":3938,"▁계산":3939,"▁을지":3940,"▁섭":3941,"▁o":3942,"CT":3943,"▁동작":3944,"▁답변":3945,"▁예약":3946,"▁대안":3947,"▁CE":3948,"▁농가":3949,"▁부착":3950,"▁라운드":3951,"총리":3952,"물관":3953,"▁당장":3954,"▁이\n":3955,"▁돌파":3956,"▁구요":3957,"▁여건":3958,"▁순환":3959,"▁연습":3960,"▁활발":3961,"▁집계":3962,"▁SNS":3963,"▁조작":3964,"▁구현":3965,"▁문의":3966,"▁경선":3967,"▁나눠":3968,"▁직후":3969,"▁할머니":3970,"▁밝힌":3971,"▁팩":3972,"▁경력":3973,"▁인원":3974,"▁진보":3975,"▁할지":3976,"30":3977,"▁편성":3978,"▁널":3979,"▁섬유":3980,"▁미만":3981,"▁펜":3982,"▁갖추":3983,"▁댓글":3984,"▁모듈":3985,"▁후반":3986,"▁뮤지":3987,"▁창조":3988,"▁입력":3989,"▁여러분":3990,"▁서류":3991,"▁이래":3992,"▁탄소":3993,"▁축소":3994,"버스":3995,"▁두산":3996,"▁넥":3997,"▁가리":3998,"▁응원":3999,"▁도와":4000,"▁폰":4001,"▁연주":4002,"▁출력":4003,"▁화합":4004,"id":4005,"▁의하":4006,"세대":4007,"▁2004":4008,"▁가로":4009,"▁다운":4010,"▁경주":4011,"▁엠":4012,"▁임명":4013,"▁정해":4014,"▁사법":4015,"▁통제":4016,"▁대리":4017,"▁수신":4018,"ct":4019,"▁물리":4020,"TA":4021,"▁화면":4022,"▁그녀":4023,"▁한데":4024,"▁택시":4025,"▁앨범":4026,"▁핀":4027,"지\n":4028,"▁58":4029,"▁부위":4030,"▁정원":4031,"영상":4032,"▁커지":4033,"▁건조":4034,"▁문헌":4035,"▁신한":4036,"▁전공":4037,"▁성격":4038,"▁주일":4039,"▁이때":4040,"▁됩니다":4041,"▁박물관":4042,"▁된다고":4043,"▁무선":4044,"리어":4045,"▁주력":4046,"▁눈길":4047,"▁잇따":4048,"▁도심":4049,"▁수소":4050,"▁득점":4051,"▁84":4052,"▁충북":4053,"▁벤처":4054,"▁듯\n":4055,"▁니다":4056,"▁압박":4057,"다가":4058,"▁탁":4059,"▁즈":4060,"▁권한":4061,"▁57":4062,"▁즐길":4063,"▁천안":4064,"▁실력":4065,"▁면은":4066,"▁판사":4067,"▁삽":4068,"▁언어":4069,"▁멘":4070,"▁클래":4071,"▁64":4072,"나무":4073,"▁우주":4074,"른다":4075,"▁학과":4076,"▁임원":4077,"▁수비":4078,"▁저축":4079,"▁공인":4080,"▁그럴":4081,"▁강원도":4082,"가스":4083,"▁관측":4084,"▁72":4085,"▁식당":4086,"▁_":4087,"▁판정":4088,"▁화제":4089,"▁동반":4090,"▁취득":4091,"▁현금":4092,"▁와서":4093,"▁마트":4094,"▁트리":4095,"▁○":4096,"▁힘든":4097,"▁비대":4098,"▁상부":4099,"▁력":4100,"▁민족":4101,"▁해운":4102,"▁당부":4103,"▁매체":4104,"▁ᅲ\n":4105,"▁가까운":4106,"st":4107,"▁세종":4108,"티브":4109,"▁총회":4110,"▁정지":4111,"▁부채":4112,"▁완전히":4113,"▁따뜻":4114,"▁마저":4115,"▁기아":4116,"▁즐기":4117,"▁작동":4118,"▁초반":4119,"▁긴장":4120,"▁입학":4121,"▁도내":4122,"▁프리미엄":4123,"▁대구시":4124,"▁겁니다":4125,"▁홍콩":4126,"▁벗어나":4127,"▁타임":4128,"▁네네":4129,"▁제약":4130,"▁보관":4131,"▁동력":4132,"▁지휘":4133,"▁「":4134,"▁융합":4135,"▁」":4136,"▁현안":4137,"▁의도":4138,"▁모터":4139,"▁살아":4140,"▁교환":4141,"▁달하":4142,"▁연수":4143,"▁컬러":4144,"▁제정":4145,"▁깔":4146,"▁소화":4147,"▁포장":4148,"▁면접":4149,"▁중공":4150,"▁이란":4151,"▁질병":4152,"▁파트":4153,"▁비즈":4154,"▁군수":4155,"▁유출":4156,"▁전송":4157,"▁지배":4158,"▁파크":4159,"▁비난":4160,"▁직무":4161,"▁고통":4162,"▁컵":4163,"▁포럼":4164,"▁똑같":4165,"▁출입":4166,"▁알아":4167,"▁합격":4168,"▁고령":4169,"▁주관":4170,"▁매입":4171,"서트":4172,"▁비밀":4173,"▁성남":4174,"▁폭발":4175,"▁가르":4176,"항공":4177,"▁카카오":4178,"▁마시":4179,"▁선호":4180,"▁침체":4181,"▁썼":4182,"▁물류":4183,"▁62":4184,"▁합리":4185,"▁화장품":4186,"▁아닌가":4187,"▁대법원":4188,"▁상징":4189,"▁예전":4190,"▁흔들":4191,"▁곳곳":4192,"▁동원":4193,"▁시청자":4194,"▁눈물":4195,"▁이슈":4196,"▁늘어난":4197,"▁유형":4198,"??":4199,"▁위안":4200,"▁용역":4201,"▁가까이":4202,"▁복잡":4203,"▁잊":4204,"▁마감":4205,"▁지하철":4206,"카드":4207,"▁실정":4208,"▁압력":4209,"▁초과":4210,"란드":4211,"교육":4212,"▁기지":4213,"▁스트레스":4214,"▁가\n":4215,"▁동부":4216,"▁중학교":4217,"▁경고":4218,"▁용기":4219,"▁형식":4220,"▁치열":4221,"▁청약":4222,"▁적합":4223,"조합":4224,"▁여수":4225,"▁61":4226,"▁획득":4227,"▁그건":4228,"▁4000":4229,"▁훼":4230,"▁이용자":4231,"▁시내":4232,"▁모니":4233,"▁이외":4234,"▁85":4235,"▁개입":4236,"▁방사":4237,"▁상임":4238,"▁초청":4239,"웨어":4240,"▁아까":4241,"▁나중":4242,"▁수수료":4243,"▁돌아가":4244,"▁동영상":4245,"▁비리":4246,"▁침해":4247,"▁웃음":4248,"▁하늘":4249,"▁브리":4250,"▁태도":4251,"웨이":4252,"▁법정":4253,"▁그러면":4254,"▁급증":4255,"▁다행":4256,"▁마산":4257,"▁점유":4258,"▁66":4259,"▁대폭":4260,"▁120":4261,"▁실행":4262,"▁사퇴":4263,"▁덕분":4264,"어날":4265,"▁cm":4266,"▁통해서":4267,"간다":4268,"ch":4269,"▁펼치":4270,"▁이웃":4271,"▁유발":4272,"▁증시":4273,"▁99":4274,"▁대북":4275,"▁최대한":4276,"▁상위":4277,"▁경계":4278,"▁ᄏ\n":4279,"▁플러스":4280,"▁끌어":4281,"▁미사일":4282,"▁면\n":4283,"▁탕":4284,"▁다녀":4285,"▁킹":4286,"▁찌":4287,"▁녹색":4288,"▁상당히":4289,"▁무상":4290,"▁백신":4291,"▁가이드":4292,"▁소자":4293,"▁장착":4294,"▁시범":4295,"▁영양":4296,"▁이자":4297,"▁늘리":4298,"▁결승":4299,"▁벌써":4300,"▁뚜":4301,"▁회계":4302,"▁돼지":4303,"▁광장":4304,"▁줄어들":4305,"▁와이":4306,"ig":4307,"지사":4308,"▁기다리":4309,"▁뱅":4310,"▁비전":4311,"▁폐쇄":4312,"▁지주":4313,"▁선임":4314,"▁감시":4315,"▁내세":4316,"▁자극":4317,"▁지표":4318,"▁콘서트":4319,"▁서민":4320,"▁추석":4321,"▁경로":4322,"▁묵":4323,"▁상생":4324,"▁Q":4325,"▁시트":4326,"▁계열사":4327,"▁느껴":4328,"▁그걸":4329,"▁당신":4330,"▁음성":4331,"▁심판":4332,"▁강하":4333,"▁어요\n":4334,"▁유로":4335,"▁발사":4336,"▁현황":4337,"▁2002":4338,"▁종교":4339,"▁선보이":4340,"▁보완":4341,"▁마이크":4342,"▁함유":4343,"▁교육감":4344,"▁단기":4345,"▁제목":4346,"▁했었":4347,"▁살펴보":4348,"▁이탈리아":4349,"▁위주":4350,"▁별로":4351,"▁식사":4352,"▁정체":4353,"▁완벽":4354,"▁63":4355,"▁피고":4356,"▁모니터":4357,"▁접속":4358,"▁절감":4359,"▁따로":4360,"▁톤":4361,"▁맘":4362,"▁종료":4363,"▁키로":4364,"▁실시간":4365,"▁께서":4366,"▁상관":4367,"▁매매":4368,"▁새벽":4369,"▁스크":4370,"▁무리":4371,"▁향해":4372,"▁결론":4373,"▁탄생":4374,"▁대학생":4375,"iv":4376,"▁캠페인":4377,"▁유엔":4378,"▁뷰":4379,"▁본사":4380,"▁선도":4381,"▁국내외":4382,"▁짜리":4383,"▁호소":4384,"▁인정받":4385,"▁끝나":4386,"▁평생":4387,"▁사안":4388,"▁린":4389,"▁아도":4390,"▁진다":4391,"▁에이":4392,"▁검출":4393,"▁변동":4394,"▁키워":4395,"▁호주":4396,"▁일제":4397,"케이션":4398,"▁라면서":4399,"▁법무부":4400,"▁통하":4401,"▁호흡":4402,"▁급여":4403,"▁도\n":4404,"▁소형":4405,"▁촉진":4406,"▁끈":4407,"▁입법":4408,"▁모여":4409,"▁바꿔":4410,"▁편집":4411,"▁크리스":4412,"▁해제":4413,"and":4414,"▁테이":4415,"▁학기":4416,"▁194":4417,"이너":4418,"▁유튜브":4419,"▁KI":4420,"▁mm":4421,"▁조항":4422,"▁테크":4423,"▁날씨":4424,"▁타격":4425,"▁전투":4426,"▁고발":4427,"▁CJ":4428,"▁안녕":4429,"▁챔피언":4430,"▁아이디어":4431,"▁개설":4432,"▁일대":4433,"▁나타내":4434,"남도":4435,"▁한국인":4436,"▁협조":4437,"▁나눔":4438,"▁쟁":4439,"▁빵":4440,"▁발광":4441,"▁600":4442,"▁전개":4443,"▁유니":4444,"▁주차장":4445,"▁몰라":4446,"▁2003":4447,"▁빙":4448,"▁돌려":4449,"▁지연":4450,"▁상가":4451,"▁통보":4452,"▁보급":4453,"▁실무":4454,"▁띄":4455,"▁교육부":4456,"▁그치":4457,"▁부실":4458,"▁대단":4459,"레이드":4460,"▁징역":4461,"▁오리":4462,"▁혹시":4463,"▁주주":4464,"▁아름다운":4465,"▁요\n":4466,"▁광주시":4467,"▁매수":4468,"▁아쉬":4469,"▁동네":4470,"▁거론":4471,"▁수시":4472,"▁알려진":4473,"▁내렸":4474,"▁GS":4475,"▁좁":4476,"▁연예":4477,"▁저렴":4478,"▁수주":4479,"▁합병":4480,"▁노사":4481,"▁재개":4482,"▁일까":4483,"▁회로":4484,"▁가상":4485,"▁혼합":4486,"▁아트":4487,"▁살리":4488,"▁트렌":4489,"▁→":4490,"▁상업":4491,"▁적자":4492,"▁실업":4493,"▁부당":4494,"▁식물":4495,"▁스토리":4496,"▁가득":4497,"▁사무실":4498,"▁들어갔":4499,"▁임기":4500,"▁대상자":4501,"▁수집":4502,"▁진술":4503,"▁메모":4504,"▁아르":4505,"▁연령":4506,"▁형상":4507,"▁기금":4508,"▁연극":4509,"▁못해":4510,"un":4511,"▁오바":4512,"▁할까":4513,"▁현행":4514,"▁핸":4515,"▁줘야":4516,"▁6000":4517,"▁쓰레":4518,"▁주최":4519,"▁실수":4520,"▁필름":4521,"▁휴가":4522,"▁주간":4523,"▁희생":4524,"▁용인":4525,"소득":4526,"▁68":4527,"▁감지":4528,"▁공동체":4529,"▁상하":4530,"▁시공":4531,"리오":4532,"▁중공업":4533,"▁재무":4534,"▁물가":4535,"▁67":4536,"▁랭":4537,"▁용도":4538,"▁깜":4539,"러리":4540,"니어":4541,"▁생존":4542,"▁호남":4543,"▁개성":4544,"▁노무":4545,"▁이틀":4546,"▁농촌":4547,"▁전해졌":4548,"▁점점":4549,"▁징계":4550,"▁는다는":4551,"▁김종":4552,"▁쏘":4553,"▁비즈니스":4554,"▁쥐":4555,"▁어울":4556,"▁훼손":4557,"▁강사":4558,"▁넷":4559,"▁독자":4560,"▁품목":4561,"▁김해":4562,"▁생겼":4563,"▁미군":4564,"▁페이스북":4565,"다른":4566,"▁임직원":4567,"▁초대":4568,"▁가졌":4569,"▁화성":4570,"▁흡수":4571,"▁어려워":4572,"▁이승":4573,"▁쓰레기":4574,"▁지원금":4575,"▁네이버":4576,"▁뿌리":4577,"▁시선":4578,"▁머물":4579,"건설":4580,"▁신체":4581,"▁나아가":4582,"▁불만":4583,"▁성인":4584,"▁기후":4585,"▁동생":4586,"▁시인":4587,"▁CEO":4588,"▁8000":4589,"▁수영":4590,"▁션":4591,"▁뮤지컬":4592,"▁신세":4593,"우드":4594,"▁테마":4595,"▁의결":4596,"▁71":4597,"▁착용":4598,"▁맹":4599,"▁냐는":4600,"▁청문":4601,"▁철학":4602,"▁아예":4603,"▁개소":4604,"▁....":4605,"▁고기":4606,"▁민주주의":4607,"▁이론":4608,"▁준공":4609,"▁조언":4610,"▁95":4611,"▁단장":4612,"▁동료":4613,"▁00":4614,"▁스페인":4615,"▁양산":4616,"▁채택":4617,"▁로드":4618,"▁점심":4619,"▁배달":4620,"▁배제":4621,"▁ᄏᄏᄏᄏᄏ\n":4622,"▁협정":4623,"▁취재":4624,"▁증명":4625,"▁74":4626,"▁극장":4627,"▁하우스":4628,"▁충돌":4629,"준다":4630,"!\n":4631,"▁유치원":4632,"▁방해":4633,"▁공화":4634,"먼지":4635,"▁국방부":4636,"▁편리":4637,"▁되게":4638,"▁논문":4639,"▁경기장":4640,"▁풍부":4641,"▁보냈":4642,"▁걸리":4643,"▁계좌":4644,"▁미세먼지":4645,"▁화려":4646,"▁몽":4647,"▁갤럭":4648,"▁한정":4649,"▁대박":4650,"▁성명":4651,"▁v":4652,"▁선사":4653,"▁이정":4654,"▁상상":4655,"▁갤럭시":4656,"▁열린다":4657,"▁과연":4658,"▁일찍":4659,"▁케이블":4660,"▁생긴":4661,"▁경향":4662,"▁도민":4663,"▁축하":4664,"▁제주도":4665,"▁불가피":4666,"▁시정":4667,"▁그려":4668,"▁최우":4669,"▁아웃":4670,"▁문화재":4671,"철수":4672,"▁입찰":4673,"▁밴드":4674,"▁의창":4675,"비아":4676,"▁하부":4677,"▁수급":4678,"▁장학":4679,"▁아이템":4680,"ter":4681,"▁공시":4682,"▁충청":4683,"▁재판부":4684,"▁195":4685,"▁칸":4686,"▁박람":4687,"▁차관":4688,"▁김성":4689,"▁공학":4690,"▁복원":4691,"▁평창":4692,"▁지진":4693,"▁대만":4694,"▁타자":4695,"CC":4696,"▁저하":4697,"▁파일":4698,"▁데이":4699,"▁진실":4700,"▁더라고":4701,"▁최적":4702,"▁담보":4703,"▁사업비":4704,"▁토대":4705,"▁사기":4706,"▁춤":4707,"▁들어오":4708,"산업":4709,"▁니까\n":4710,"▁당하":4711,"▁떡":4712,"▁양국":4713,"▁점차":4714,"▁손상":4715,"▁이른바":4716,"▁상공":4717,"▁청사":4718,"▁전주":4719,"▁누적":4720,"▁운전자":4721,"▁선출":4722,"▁컨설":4723,"▁스케":4724,"▁추구":4725,"▁노후":4726,"▁메뉴":4727,"od":4728,"▁천연":4729,"▁텔레콤":4730,"▁과목":4731,"▁물건":4732,"▁주기":4733,"▁출근":4734,"▁억제":4735,"▁떨어진":4736,"▁필터":4737,"▁조합원":4738,"▁큐":4739,"▁명확":4740,"▁지출":4741,"ot":4742,"▁부산시":4743,"▁조달":4744,"▁논리":4745,"▁회수":4746,"천시":4747,"▁방어":4748,"▁스피":4749,"▁코드":4750,"▁소음":4751,"▁FTA":4752,"▁노트":4753,"▁77":4754,"▁기상":4755,"▁총괄":4756,"▁확충":4757,"▁자\n":4758,"▁간단":4759,"▁유아":4760,"▁정착":4761,"▁전압":4762,"▁출판":4763,"▁고향":4764,"▁저항":4765,"▁해졌":4766,"▁김태":4767,"▁서구":4768,"▁시사":4769,"뮤니":4770,"▁구글":4771,"▁LED":4772,"▁콩":4773,"▁FC":4774,"▁놀이":4775,"▁바른":4776,"▁듀":4777,"▁산화":4778,"▁지도자":4779,"▁커뮤니":4780,"▁생물":4781,"▁냄":4782,"▁수리":4783,"▁7000":4784,"사고":4785,"▁줄어":4786,"▁명품":4787,"▁혐오":4788,"▁아우":4789,"▁파견":4790,"▁진해구":4791,"▁페이":4792,"▁떨어졌":4793,"▁그만큼":4794,"▁산업단지":4795,"리드":4796,"▁세우":4797,"▁ᄏᄏᄏᄏᄏᄏᄏ":4798,"▁추출":4799,"▁수많":4800,"▁스프":4801,"▁자문":4802,"▁맞추":4803,"us":4804,"▁브라질":4805,"▁남부":4806,"▁비정":4807,"▁발전소":4808,"▁69":4809,"▁네요\n":4810,"▁닭":4811,"▁주체":4812,"▁웨이":4813,"▁합성":4814,"▁원고":4815,"▁오바마":4816,"im":4817,"▁발달":4818,"▁모드":4819,"▁대행":4820,"▁재배":4821,"▁고도":4822,"▁보존":4823,"▁대처":4824,"▁아닐":4825,"▁교과서":4826,"▁76":4827,"▁이기":4828,"▁중대":4829,"도로":4830,"▁건가":4831,"▁윈":4832,"▁태양광":4833,"▁선두":4834,"▁델":4835,"▁입지":4836,"▁진흥":4837,"▁라디오":4838,"CD":4839,"▁실리":4840,"▁화물":4841,"▁모으":4842,"▁대결":4843,"ra":4844,"▁연맹":4845,"▁찾아가":4846,"▁요건":4847,"▁듯이":4848,"▁73":4849,"▁드러났":4850,"▁파업":4851,"▁감동":4852,"▁임상":4853,"▁투쟁":4854,"▁체육관":4855,"▁경찰청":4856,"▁안철수":4857,"em":4858,"▁발휘":4859,"▁구미":4860,"▁영장":4861,"▁중구":4862,"▁수십":4863,"나다":4864,"▁쏟아":4865,"▁뛰어":4866,"▁해상":4867,"▁세부":4868,"▁가계":4869,"▁해명":4870,"▁분쟁":4871,"▁스타트":4872,"▁발급":4873,"▁무시":4874,"서\n":4875,"▁비디오":4876,"▁in":4877,"▁국당":4878,"▁당했":4879,"▁파워":4880,"▁800":4881,"▁거치":4882,"▁개통":4883,"▁재건":4884,"▁유닛":4885,"▁이라":4886,"▁죽음":4887,"루션":4888,"▁저자":4889,"▁In":4890,"▁특화":4891,"▁부사":4892,"▁배상":4893,"▁성폭":4894,"▁클라":4895,"▁공통":4896,"▁직전":4897,"▁근본":4898,"▁탑재":4899,"▁급격":4900,"▁대장":4901,"▁구상":4902,"스티":4903,"▁환율":4904,"▁창의":4905,"▁건데":4906,"▁변수":4907,"▁남녀":4908,"▁박람회":4909,"▁거짓":4910,"▁맥주":4911,"▁찬성":4912,"▁의존":4913,"▁잠시":4914,"▁테스트":4915,"▁개봉":4916,"▁의정":4917,"▁김정은":4918,"▁디바":4919,"▁경찰서":4920,"ww":4921,"▁미니":4922,"▁SBS":4923,"▁꿀":4924,"▁박스":4925,"▁그쳤":4926,"▁탱":4927,"▁상처":4928,"▁공고":4929,"PG":4930,"▁적발":4931,"▁성형":4932,"▁무게":4933,"관리":4934,"^^":4935,"▁나노":4936,"▁상무":4937,"▁퇴직":4938,"▁영입":4939,"▁www":4940,"▁표정":4941,"▁성향":4942,"▁교실":4943,"▁소요":4944,"▁단말기":4945,"▁인접":4946,"회의":4947,"▁야권":4948,"▁소녀":4949,"▁for":4950,"▁트위":4951,"▁강도":4952,"▁김치":4953,"▁톡":4954,"▁동남":4955,"▁여유":4956,"um":4957,"▁담당자":4958,"▁뛰어난":4959,"▁엑스":4960,"▁미안":4961,"▁진로":4962,"▁88":4963,"▁의문":4964,"▁수치":4965,"▁종시":4966,"▁옮겨":4967,"▁과도":4968,"▁국정원":4969,"▁무려":4970,"▁모색":4971,"▁올린":4972,"▁78":4973,"▁발매":4974,"▁삽입":4975,"▁오피스":4976,"▁유해":4977,"▁다섯":4978,"▁단백":4979,"▁바람직":4980,"▁항목":4981,"▁재미있":4982,"▁비례":4983,"▁물품":4984,"▁싸움":4985,"▁쾌":4986,"▁이중":4987,"▁지침":4988,"▁보낸":4989,"▁작전":4990,"▁금메달":4991,"▁산림":4992,"▁소외":4993,"▁캐나다":4994,"▁떠오":4995,"힌다":4996,"▁파괴":4997,"▁참고":4998,"▁권고":4999,"▁...\n":5000,"▁초점":5001,"▁블루":5002,"▁매출액":5003,"▁대학원":5004,"▁단어":5005,"▁82":5006,"▁종이":5007,"▁붕":5008,"▁노무현":5009,"▁출산":5010,"▁단점":5011,"▁기대감":5012,"▁선행":5013,"▁구제":5014,"▁달려":5015,"레인":5016,"▁놀라":5017,"▁선배":5018,"▁의창구":5019,"▁산하":5020,"산시":5021,"드러":5022,"ST":5023,"▁타이어":5024,"▁떼":5025,"▁이어졌":5026,"▁저지":5027,"▁허위":5028,"▁토론회":5029,"▁시급":5030,"문화":5031,"▁패키":5032,"▁지도부":5033,"▁배당":5034,"규직":5035,"▁압축":5036,"▁IP":5037,"▁부작":5038,"▁격리":5039,"▁연휴":5040,"▁파리":5041,"▁세워":5042,"▁중량":5043,"▁이루어":5044,"▁면역":5045,"▁비정규직":5046,"▁참가자":5047,"▁으므로":5048,"▁은퇴":5049,"▁자고":5050,"▁간부":5051,"란히":5052,"친다":5053,"▁만났":5054,"▁빠지":5055,"▁규칙":5056,"▁패키지":5057,"▁고소":5058,"▁격차":5059,"▁정식":5060,"▁심장":5061,"▁문서":5062,"▁은\n":5063,"▁컨설팅":5064,"▁2001":5065,"▁이닝":5066,"▁합동":5067,"▁움직이":5068,"▁정치인":5069,"▁끝난":5070,"▁700":5071,"▁옵":5072,"▁나설":5073,"▁110":5074,"▁경비":5075,"▁연관":5076,"▁허리":5077,"▁정수":5078,"▁로써":5079,"▁열정":5080,"▁잠재":5081,"▁용품":5082,"▁혼란":5083,"▁사단":5084,"▁조립":5085,"▁플랜":5086,"▁입시":5087,"▁메이저":5088,"▁단백질":5089,"▁가속":5090,"▁록":5091,"▁세요\n":5092,"▁정밀":5093,"▁바르":5094,"▁지명":5095,"ut":5096,"▁동해":5097,"▁트위터":5098,"▁디바이스":5099,"▁예능":5100,"▁원료":5101,"▁꼼":5102,"ur":5103,"▁소프트웨어":5104,"▁전파":5105,"▁참조":5106,"▁코치":5107,"▁주자":5108,"▁PD":5109,"▁조성물":5110,"▁ᄒ\n":5111,"▁가입자":5112,"바로":5113,"▁가맹":5114,"▁관점":5115,"ay":5116,"▁납부":5117,"▁가전":5118,"세요":5119,"▁웅웅":5120,"▁살인":5121,"▁입자":5122,"▁환경부":5123,"지능":5124,"▁널리":5125,"▁올라가":5126,"▁면세":5127,"▁아프리카":5128,"▁그리스":5129,"▁인공지능":5130,"▁보육":5131,"▁떠올":5132,"디션":5133,"▁전담":5134,"▁서버":5135,"▁솔루션":5136,"▁체크":5137,"▁제조업":5138,"▁인천시":5139,"▁공헌":5140,"그룹":5141,"▁돋":5142,"▁도약":5143,"▁하고":5144,"▁스카":5145,"▁조심":5146,"▁프로세":5147,"▁일원":5148,"권자":5149,"▁박지":5150,"▁떨어져":5151,"▁통증":5152,"▁여의":5153,"▁81":5154,"▁자살":5155,"▁만남":5156,"▁소수":5157,"▁어떠":5158,"▁단순히":5159,"▁화합물":5160,"ame":5161,"▁팽":5162,"▁동구":5163,"▁of":5164,"산화":5165,"▁외환":5166,"로그":5167,"▁상인":5168,"▁고생":5169,"▁물러":5170,"▁트렌드":5171,"으면":5172,"▁입증":5173,"▁당일":5174,"▁실태":5175,"▁보험료":5176,"▁농구":5177,"▁위상":5178,"▁유전자":5179,"▁메모리":5180,"▁가시":5181,"▁연봉":5182,"▁대강":5183,"▁비서":5184,"▁보일":5185,"▁전시회":5186,"▁결의":5187,"▁닫":5188,"▁기아차":5189,"▁가해":5190,"▁1990":5191,"▁이마트":5192,"▁커버":5193,"▁랩":5194,"▁농산물":5195,"로드":5196,"시장":5197,"▁간다":5198,"▁였으며":5199,"▁점포":5200,"▁삭제":5201,"▁이어질":5202,"▁서명":5203,"▁지지율":5204,"▁kr":5205,"▁일시":5206,"▁메르":5207,"▁서부":5208,"▁전당":5209,"▁감염증":5210,"로스":5211,"▁청문회":5212,"▁기원":5213,"▁KIA":5214,"▁명칭":5215,"▁위탁":5216,"▁게이트":5217,"▁제고":5218,"▁공포":5219,"총장":5220,"▁담긴":5221,"▁!!!":5222,"▁어깨":5223,"▁평택":5224,"▁EU":5225,"▁구하":5226,"▁추억":5227,"▁박정":5228,"▁\"(":5229,"▁피아":5230,"▁급식":5231,"▁솔직":5232,"▁높였":5233,"▁고시":5234,"마자":5235,"▁당연히":5236,"▁매주":5237,"▁해수":5238,"▁대거":5239,"▁행보":5240,"▁냐고":5241,"▁과세":5242,"▁사령":5243,"▁공제":5244,"▁내수":5245,"▁신세계":5246,"▁부가":5247,"▁98":5248,"▁강점":5249,"▁영화제":5250,"▁시원":5251,"▁마크":5252,"▁지대":5253,"▁일각":5254,"증권":5255,"▁분산":5256,"▁앗":5257,"▁깊이":5258,"▁회관":5259,"▁와인":5260,"▁시상":5261,"▁열렸":5262,"▁폭행":5263,"▁케이스":5264,"▁미술관":5265,"▁ᅲᅲᅲᅲ":5266,"▁철강":5267,"▁담배":5268,"▁79":5269,"▁여서":5270,"▁픽":5271,"▁테러":5272,"▁타당":5273,"▁진화":5274,"▁의학":5275,"▁어린이집":5276,"▁겹":5277,"▁86":5278,"▁채무":5279,"▁상승세":5280,"▁증진":5281,"▁워크":5282,"▁신입":5283,"▁저거":5284,"▁냉각":5285,"▁자꾸":5286,"▁강연":5287,"▁샘":5288,"▁ᄏᄏᄏᄏᄏᄏᄏᄏᄏᄏᄏᄏᄏᄏᄏᄏᄏᄏᄏᄏ":5289,"▁설득":5290,"▁냐\n":5291,"▁귀엽":5292,"▁유력":5293,"os":5294,"▁협업":5295,"▁선보였":5296,"▁진심":5297,"▁텐데":5298,"▁앞둔":5299,"▁파트너":5300,"▁셔서":5301,"▁독서":5302,"▁가게":5303,"▁바라보":5304,"▁9000":5305,"▁터치":5306,"▁포스트":5307,"▁편안":5308,"▁보조금":5309,"▁신분":5310,"▁착수":5311,"▁펴":5312,"▁선보인다":5313,"▁밸브":5314,"▁당사자":5315,"▁랜드":5316,"▁보전":5317,"▁앞장":5318,"▁학회":5319,"퍼스":5320,"▁근처":5321,"▁합류":5322,"▁태풍":5323,"▁몰랐":5324,"▁대가":5325,"▁엔터":5326,"▁중동":5327,"▁폐기물":5328,"▁높여":5329,"▁이온":5330,"▁됐으며":5331,"단체":5332,"▁소중":5333,"미널":5334,"▁지부":5335,"조건":5336,"▁중점":5337,"▁일자":5338,"▁동참":5339,"▁증대":5340,"▁읍":5341,"▁용량":5342,"ce":5343,"▁취하":5344,"▁해진":5345,"▁상환":5346,"▁명단":5347,"▁심지":5348,"▁규명":5349,"거래":5350,"▁선진국":5351,"▁]\n":5352,"▁상금":5353,"▁한지":5354,"▁고마":5355,"ad":5356,"▁어르":5357,"▁군요":5358,"▁~~~":5359,"▁런던":5360,"▁휴대폰":5361,"▁마켓":5362,"▁톱":5363,"▁사업장":5364,"▁근육":5365,"▁아냐":5366,"▁풀이":5367,"산구":5368,"▁퇴근":5369,"▁흥미":5370,"▁87":5371,"▁뜨거운":5372,"▁멀티":5373,"▁아님":5374,"▁이스":5375,"▁의뢰":5376,"▁내린":5377,"▁길이":5378,"▁적응":5379,"▁관세":5380,"▁추적":5381,"▁케어":5382,"▁모았":5383,"▁평등":5384,"▁냄새":5385,"▁흘러":5386,"져야":5387,"▁모자":5388,"▁출석":5389,"▁중도":5390,"▁북부":5391,"▁인문":5392,"▁보강":5393,"▁아무리":5394,"▁둘째":5395,"▁원자력":5396,"▁사무소":5397,"▁의약":5398,"▁분명히":5399,"▁수직":5400,"▁내내":5401,"ag":5402,"▁만날":5403,"▁코스피":5404,"▁지요":5405,"▁룸":5406,"▁베스트":5407,"▁공략":5408,"▁주파":5409,"▁유행":5410,"▁비싸":5411,"▁92":5412,"난다":5413,"▁배려":5414,"▁감성":5415,"▁수당":5416,"▁치킨":5417,"▁일방":5418,"▁든지":5419,"▁츠":5420,"▁터미널":5421,"▁가요":5422,"▁여\n":5423,"▁브리핑":5424,"▁피하":5425,"▁라서":5426,"▁02":5427,"▁아시":5428,"▁초래":5429,"▁촌":5430,"▁북미":5431,"▁각국":5432,"▁피고인":5433,"▁부사장":5434,"▁영남":5435,"▁스파":5436,"▁맞이":5437,"▁누군":5438,"▁혀":5439,"▁어르신":5440,"▁음료":5441,"▁진영":5442,"▁원하":5443,"▁탄핵":5444,"▁192":5445,"▁무서":5446,"▁신기":5447,"▁구조물":5448,"▁설문":5449,"▁매달":5450,"▁프린":5451,"▁운송":5452,"▁김현":5453,"▁닥":5454,"▁부작용":5455,"▁소스":5456,"▁이걸":5457,"op":5458,"▁그간":5459,"TE":5460,"▁달한다":5461,"▁돌입":5462,"수수":5463,"▁거대":5464,"▁전기차":5465,"▁벌어":5466,"▁스크린":5467,"▁둘러싼":5468,"▁화장실":5469,"▁열차":5470,"▁학자":5471,"▁호기":5472,"▁창작":5473,"▁인민":5474,"▁쇄":5475,"▁연방":5476,"▁용지":5477,"NA":5478,"▁ᅳ":5479,"▁학술":5480,"▁생겨":5481,"▁챙겨":5482,"▁마친":5483,"ow":5484,"▁이주":5485,"센트":5486,"▁명회":5487,"▁91":5488,"트리":5489,"▁트랜":5490,"▁거두":5491,"▁클래식":5492,"▁치러":5493,"▁귀여워":5494,"▁심지어":5495,"▁83":5496,"▁거점":5497,"▁젤":5498,"▁고유":5499,"▁재정부":5500,"▁턱":5501,"▁충족":5502,"▁건수":5503,"▁휴식":5504,"▁드릴":5505,"▁들어간":5506,"▁지내":5507,"▁2021":5508,"▁신축":5509,"▁구도":5510,"▁차기":5511,"▁원활":5512,"▁자마자":5513,"▁벌금":5514,"▁즉시":5515,"▁감각":5516,"▁배송":5517,"▁수분":5518,"리케이션":5519,"▁음반":5520,"▁무조건":5521,"▁구청장":5522,"▁안심":5523,"▁잇따라":5524,"▁멸":5525,"▁교통부":5526,"▁캠퍼스":5527,"▁포트":5528,"▁각자":5529,"▁액정":5530,"oc":5531,"▁베이스":5532,"▁원정":5533,"▁96":5534,"▁화상":5535,"▁완공":5536,"▁94":5537,"▁적정":5538,"▁게다가":5539,"▁이종":5540,"--":5541,"▁변환":5542,"▁윤리":5543,"▁진주":5544,"▁드러나":5545,"▁발효":5546,"▁강릉":5547,"▁신선":5548,"의자":5549,"▁com":5550,"▁탄력":5551,"▁지리":5552,"스티벌":5553,"▁어우":5554,"▁줄여":5555,"▁기조":5556,"▁페스티벌":5557,"려야":5558,"▁항만":5559,"▁차세대":5560,"▁97":5561,"▁입원":5562,"▁구성원":5563,"▁이뤄졌":5564,"▁비서관":5565,"▁진학":5566,"▁연설":5567,"▁숙박":5568,"▁좌우":5569,"▁끼리":5570,"▁타워":5571,"▁된다면":5572,"▁사드":5573,"▁한층":5574,"▁관절":5575,"▁김포":5576,"가락":5577,"▁중계":5578,"▁곽":5579,"▁주석":5580,"▁변신":5581,"▁안양":5582,"▁예금":5583,"▁i":5584,"▁집권":5585,"▁편의점":5586,"▁들어서":5587,"▁분노":5588,"▁신인":5589,"▁역전":5590,"▁못한다":5591,"FA":5592,"▁진상":5593,"▁양식":5594,"▁ᄏᄏᄏᄏᄏᄏ\n":5595,"▁증권사":5596,"▁고리":5597,"▁소위":5598,"▁스티":5599,"▁당한":5600,"▁아이폰":5601,"▁우리나라":5602,"▁130":5603,"▁타운":5604,"▁차질":5605,"▁해고":5606,"▁착공":5607,"▁건의":5608,"▁메인":5609,"▁리조":5610,"▁참사":5611,"▁위축":5612,"▁봐도":5613,"▁아카":5614,"이브":5615,"▁감축":5616,"▁끄":5617,"▁모니터링":5618,"▁기에":5619,"▁89":5620,"▁예선":5621,"▁소년":5622,"▁고문":5623,"생활":5624,"▁해군":5625,"▁전제":5626,"▁응급":5627,"▁수렴":5628,"▁반박":5629,"▁판매량":5630,"▁전후":5631,"▁진동":5632,"▁인용":5633,"▁상용":5634,"▁치매":5635,"▁차장":5636,"▁매치":5637,"▁분할":5638,"▁유연":5639,"▁조각":5640,"▁재건축":5641,"▁심화":5642,"▁필리":5643,"▁사이버":5644,"▁던지":5645,"▁락":5646,"▁끝내":5647,"▁벨트":5648,"▁입구":5649,"▁타입":5650,"▁250":5651,"▁저런":5652,"▁조용":5653,"▁주파수":5654,"▁한도":5655,"▁세탁":5656,"▁푸드":5657,"▁입국":5658,"▁공익":5659,"▁아베":5660,"▁저기":5661,"▁지위":5662,"▁원주":5663,"르트":5664,"▁승진":5665,"▁지인":5666,"▁갈수록":5667,"▁자식":5668,"▁이송":5669,"▁다루":5670,"▁약물":5671,"▁국세":5672,"▁관찰":5673,"▁냉장":5674,"▁하위":5675,"▁범행":5676,"▁팅":5677,"▁금호":5678,"▁name":5679,"▁체포":5680,"▁극대":5681,"▁립":5682,"▁생일":5683,"▁NH":5684,"구역":5685,"▁매니":5686,"▁즉각":5687,"▁철회":5688,"▁지검":5689,"포르":5690,"▁후속":5691,"▁나선다":5692,"▁사원":5693,"▁이민":5694,"▁쇼핑몰":5695,"▁바퀴":5696,"▁조리":5697,"▁마쳤":5698,"▁^^":5699,"▁벌어지":5700,"▁스타트업":5701,"▁갖춰":5702,"▁뱅크":5703,"ir":5704,"▁다이어":5705,"▁이성":5706,"▁건전":5707,"▁항공기":5708,"▁김동":5709,"▁독특":5710,"▁유권자":5711,"▁체력":5712,"▁드림":5713,"▁지향":5714,"▁실리콘":5715,"▁걸로":5716,"▁추경":5717,"▁정서":5718,"▁만화":5719,"하우":5720,"▁신라":5721,"▁국비":5722,"▁단축":5723,"▁그래요":5724,"▁도청":5725,"▁일종":5726,"▁축산":5727,"▁명절":5728,"▁헤드":5729,"▁없애":5730,"▁청주":5731,"▁걸려":5732,"▁태국":5733,"▁개헌":5734,"▁경상남도":5735,"▁x":5736,"▁먼지":5737,"▁덩":5738,"▁여파":5739,"▁저소득":5740,"▁농도":5741,"▁리조트":5742,"외선":5743,"▁마당":5744,"▁아기":5745,"▁대금":5746,"▁는다고":5747,"▁장사":5748,"▁자라":5749,"NG":5750,"▁기술력":5751,"▁반사":5752,"▁미친":5753,"▁춘천":5754,"▁하우":5755,"▁기름":5756,"▁몰려":5757,"▁191":5758,"▁양측":5759,"▁IC":5760,"▁NC":5761,"▁1980":5762,"▁좋아":5763,"▁장난":5764,"▁유학":5765,"▁애니":5766,"▁유산":5767,"▁01":5768,"▁연합회":5769,"▁쇠":5770,"▁선거구":5771,"▁재원":5772,"▁렌즈":5773,"현진":5774,"▁줄어든":5775,"▁193":5776,"▁간호":5777,"▁곧바로":5778,"▁세웠":5779,"▁노하우":5780,"▁상당수":5781,"▁못할":5782,"▁특검":5783,"▁요양":5784,"▁플라스":5785,"▁김대":5786,"▁농민":5787,"▁수산":5788,"▁끌어올":5789,"▁딩":5790,"▁편지":5791,"▁벼":5792,"가포르":5793,"▁과일":5794,"▁베이징":5795,"▁한미":5796,"▁몬":5797,"에도":5798,"▁동양":5799,"▁뮤직":5800,"▁건너":5801,"▁싱가포르":5802,"▁신임":5803,"▁소환":5804,"▁비트":5805,"▁부총리":5806,"▁왜냐":5807,"▁소셜":5808,"▁이수":5809,"▁거래소":5810,"▁리더십":5811,"▁취급":5812,"▁Z":5813,"▁방치":5814,"▁여객":5815,"▁무용":5816,"▁민감":5817,"▁토크":5818,"사업":5819,"▁운항":5820,"▁ᅮᅮ\n":5821,"▁청정":5822,"▁간격":5823,"▁후배":5824,"▁벌였":5825,"▁기법":5826,"▁발주":5827,"▁단체장":5828,"▁대해선":5829,"▁전방":5830,"ess":5831,"▁원유":5832,"▁마주":5833,"워서":5834,"▁장르":5835,"▁김재":5836,"▁여권":5837,"▁납품":5838,"▁한번":5839,"▁93":5840,"▁정규직":5841,"▁섭취":5842,"▁스튜":5843,"▁라\n":5844,"▁여의도":5845,"▁입사":5846,"▁링크":5847,"▁면세점":5848,"▁김경":5849,"▁천억":5850,"▁라이프":5851,"▁지법":5852,"▁구독":5853,"▁부자":5854,"▁민생":5855,"▁골프장":5856,"▁조국":5857,"까요":5858,"▁기온":5859,"▁깜짝":5860,"▁옛날":5861,"▁로\n":5862,"▁헬스":5863,"▁순수":5864,"▁두께":5865,"▁연예인":5866,"▁원리":5867,"▁대량":5868,"▁영향력":5869,"구요":5870,"▁실용":5871,"ᄀᄏ":5872,"▁향한":5873,"▁스키":5874,"▁코팅":5875,"▁양상":5876,"▁MB":5877,"▁신발":5878,"OC":5879,"▁터널":5880,"▁동맹":5881,"▁일으키":5882,"라\n":5883,"▁신중":5884,"▁행정부":5885,"▁릴":5886,"▁지닌":5887,"▁레드":5888,"▁빠진":5889,"▁스페":5890,"▁주위":5891,"▁습관":5892,"▁내달":5893,"▁전류":5894,"▁부각":5895,"▁공보":5896,"▁고서":5897,"▁연평":5898,"마스":5899,"고리":5900,"▁공산":5901,"▁플래":5902,"▁St":5903,"▁실종":5904,"▁수백":5905,"▁어려울":5906,"▁탈락":5907,"▁03":5908,"▁상품권":5909,"▁코너":5910,"▁김진":5911,"▁보행":5912,"▁핸드":5913,"▁작곡":5914,"▁치료제":5915,"▁선제":5916,"▁변형":5917,"▁아하":5918,"▁서식":5919,"▁드러내":5920,"▁전역":5921,"▁라이브":5922,"▁현역":5923,"▁버렸":5924,"▁풍경":5925,"▁최다":5926,"▁극단":5927,"▁시킨다":5928,"▁LH":5929,"▁흐르":5930,"▁복구":5931,"▁달했":5932,"▁치르":5933,"▁면제":5934,"▁가방":5935,"▁무너":5936,"▁빌딩":5937,"▁포스":5938,"▁고전":5939,"▁에서부터":5940,"운동":5941,"▁수험":5942,"▁던데":5943,"르크":5944,"▁플라":5945,"▁관할":5946,"▁신장":5947,"디아":5948,"▁최신":5949,"▁미칠":5950,"리스트":5951,"▁마라":5952,"▁리스트":5953,"▁죄송":5954,"DP":5955,"▁일환":5956,"▁철저히":5957,"▁1999":5958,"▁램":5959,"▁간판":5960,"▁1998":5961,"▁ᄏᄏᄏᄏᄏᄏᄏᄏᄏᄏᄏᄏᄏᄏ":5962,"▁조화":5963,"▁서초":5964,"▁꾼":5965,"▁장학금":5966,"▁어른":5967,"▁아시안":5968,"▁둥":5969,"▁승객":5970,"▁아아":5971,"▁호응":5972,"▁무한":5973,"▁은데\n":5974,"▁김상":5975,"▁의류":5976,"▁잠깐":5977,"▁야간":5978,"▁180":5979,"▁중고":5980,"▁출장":5981,"▁시중":5982,"▁형제":5983,"▁새해":5984,"▁클라우드":5985,"▁r":5986,"▁들려":5987,"▁존중":5988,"▁고지":5989,"▁사로":5990,"말로":5991,"포구":5992,"▁남기":5993,"▁경사":5994,"▁그라":5995,"▁al":5996,"▁덴":5997,"▁방학":5998,"▁내다":5999,"▁생애":6000,"릭스":6001,"핵화":6002,"ity":6003,"▁도지사":6004,"▁끊임":6005,"네시아":6006,"▁비핵화":6007,"▁가열":6008,"▁의약품":6009,"▁낮추":6010,"▁주재":6011,"▁택배":6012,"닉스":6013,"▁자아":6014,"▁우울":6015,"▁더라고요":6016,"▁나갔":6017,"▁배정":6018,"미나":6019,"▁당원":6020,"▁간편":6021,"▁더블":6022,"다리":6023,"▁아쉽":6024,"▁집안":6025,"▁사우":6026,"▁순천":6027,"▁커뮤니티":6028,"베이":6029,"▁간접":6030,"너스":6031,"▁뒤집":6032,"▁군대":6033,"▁교원":6034,"▁목사":6035,"▁거\n":6036,"▁패배":6037,"▁혈액":6038,"▁IS":6039,"▁사무총장":6040,"▁국무총리":6041,"▁리포":6042,"▁금감":6043,"▁인데\n":6044,"▁실점":6045,"▁받아들이":6046,"▁드러냈":6047,"▁고장":6048,"▁편하":6049,"▁정성":6050,"▁자회사":6051,"▁본체":6052,"▁인쇄":6053,"▁느라":6054,"▁보좌":6055,"리지":6056,"▁엘리":6057,"▁부적":6058,"▁최소한":6059,"▁딜":6060,"▁통행":6061,"▁골목":6062,"▁유효":6063,"▁타이틀":6064,"▁포털":6065,"▁커플":6066,"▁부천":6067,"▁통장":6068,"▁190":6069,"▁한진":6070,"▁건설사":6071,"▁소감":6072,"▁비타":6073,"▁관람객":6074,"▁개척":6075,"▁서해":6076,"▁GM":6077,"▁플라스틱":6078,"▁행진":6079,"▁오해":6080,"▁중견":6081,"▁자국":6082,"▁ᄒᄒᄒ":6083,"▁투기":6084,"▁ᅲᅲᅲ":6085,"▁그럼에도":6086,"▁맞서":6087,"▁이른다":6088,"▁트랙":6089,"아버지":6090,"▁공정위":6091,"▁불거":6092,"▁야외":6093,"▁찰":6094,"▁교장":6095,"▁나쁜":6096,"▁이루어진":6097,"▁갤러리":6098,"▁당내":6099,"▁강행":6100,"▁유용":6101,"▁객관":6102,"▁주사":6103,"▁사립":6104,"▁앞세":6105,"▁form":6106,"▁사망자":6107,"▁접종":6108,"▁엄청난":6109,"▁오토":6110,"▁로스":6111,"▁공직자":6112,"▁추모":6113,"▁인류":6114,"▁돼요":6115,"▁아무런":6116,"▁오프라인":6117,"▁넘치":6118,"제품":6119,"▁겨냥":6120,"게요":6121,"▁구리":6122,"크리트":6123,"▁동계":6124,"▁전무":6125,"▁선전":6126,"▁파티":6127,"▁분당":6128,"▁05":6129,"▁유전":6130,"▁가맹점":6131,"나마":6132,"▁경매":6133,"▁화이트":6134,"▁서브":6135,"▁연소":6136,"▁인도네시아":6137,"▁요원":6138,"▁공주":6139,"▁강경":6140,"▁콘크리트":6141,"▁최악":6142,"낸다":6143,"▁도발":6144,"▁처장":6145,"▁무산":6146,"▁연패":6147,"▁붕괴":6148,"▁병행":6149,"▁이혼":6150,"▁압도":6151,"▁만기":6152,"▁저렇":6153,"▁누군가":6154,"▁산책":6155,"▁용이":6156,"▁하이브":6157,"▁버전":6158,"▁고개":6159,"▁군인":6160,"▁장식":6161,"▁협동":6162,"스탄":6163,"▁계절":6164,"▁자발":6165,"▁소상":6166,"▁오일":6167,"▁화폐":6168,"이즈":6169,"▁싱글":6170,"ip":6171,"▁송도":6172,"▁고양이":6173,"▁늘어났":6174,"▁한강":6175,"▁1997":6176,"▁단부":6177,"▁자제":6178,"▁중개":6179,"▁공중":6180,"▁수성":6181,"▁평양":6182,"▁헤어":6183,"▁동아리":6184,"▁위생":6185,"▁소지":6186,"▁회동":6187,"▁탱크":6188,"▁왜곡":6189,"▁US":6190,"▁우유":6191,"▁대주":6192,"▁젠":6193,"▁배기":6194,"▁수면":6195,"▁룩":6196,"▁유족":6197,"▁면허":6198,"80":6199,"▁빠졌":6200,"▁양자":6201,"▁걸어":6202,"▁당분":6203,"▁정확히":6204,"▁국어":6205,"▁닷":6206,"▁불량":6207,"▁질서":6208,"▁인연":6209,"▁힐링":6210,"▁재활":6211,"▁오피스텔":6212,"▁틱":6213,"ula":6214,"▁산단":6215,"▁명시":6216,"▁류현진":6217,"▁사로잡":6218,"▁대외":6219,"▁1500":6220,"▁슨":6221,"▁교통사고":6222,"▁북구":6223,"▁청원":6224,"▁전라":6225,"바이":6226,"▁고가":6227,"▁내놨":6228,"▁대목":6229,"▁돌리":6230,"▁구멍":6231,"스턴":6232,"▁드린다":6233,"▁음주":6234,"▁믹":6235,"▁하이브리드":6236,"▁코트":6237,"▁크루":6238,"▁위성":6239,"▁몰아":6240,"▁박수":6241,"▁근대":6242,"▁심하":6243,"▁본선":6244,"▁주류":6245,"▁FA":6246,"시오":6247,"▁중반":6248,"▁하천":6249,"스토":6250,"▁스위스":6251,"▁될지":6252,"▁동향":6253,"▁즐거":6254,"▁마사":6255,"싱턴":6256,"뜨리":6257,"▁늘어날":6258,"▁첨가":6259,"▁거뒀":6260,"▁ᄏᄏᄏᄏᄏᄏᄏᄏᄏ":6261,"▁산소":6262,"▁담겨":6263,"▁분해":6264,"▁조만":6265,"▁시술":6266,"▁테이블":6267,"▁비하":6268,"▁미쳤":6269,"▁킬":6270,"▁꼽힌다":6271,"▁900":6272,"▁경관":6273,"런스":6274,"바지":6275,"▁힌":6276,"▁들이":6277,"▁프라":6278,"▁일치":6279,"▁지역구":6280,"▁모은":6281,"ap":6282,"▁학력":6283,"▁두려":6284,"▁탈출":6285,"▁부활":6286,"▁감면":6287,"▁필리핀":6288,"▁개장":6289,"....":6290,"▁금감원":6291,"▁강세":6292,"▁리스":6293,"▁흥원":6294,"▁도서":6295,"▁페이지":6296,"▁재능":6297,"▁가중":6298,"메이션":6299,"▁미소":6300,"▁원격":6301,"▁안동":6302,"▁돼서":6303,"리티":6304,"▁수록":6305,"▁육아":6306,"▁크림":6307,"컨대":6308,"▁걸음":6309,"▁가질":6310,"▁농장":6311,"▁지나치":6312,"▁반려":6313,"▁한때":6314,"▁도구":6315,"▁FI":6316,"▁퓨":6317,"▁시코":6318,"▁사물":6319,"▁교섭":6320,"▁공기업":6321,"og":6322,"▁티켓":6323,"▁김용":6324,"▁최상":6325,"▁외면":6326,"▁특별법":6327,"▁사후":6328,"▁재벌":6329,"▁리스크":6330,"▁외교부":6331,"▁봐\n":6332,"▁대답":6333,"▁드론":6334,"▁조속":6335,"▁빌려":6336,"▁번지":6337,"▁분자":6338,"▁김기":6339,"▁남양":6340,"▁돌아오":6341,"▁법령":6342,"▁언더":6343,"▁촉매":6344,"▁상향":6345,"▁formula":6346,"▁짝":6347,"▁애초":6348,"▁남겨":6349,"▁시계":6350,"▁과감":6351,"▁굳이":6352,"▁오른쪽":6353,"▁흥행":6354,"▁자영":6355,"▁시달":6356,"▁가사":6357,"▁해안":6358,"▁탑승":6359,"▁지난주":6360,"▁조만간":6361,"▁시세":6362,"▁예산안":6363,"▁비타민":6364,"화문":6365,"▁레이저":6366,"▁챙기":6367,"▁소문":6368,"▁특유":6369,"▁들\n":6370,"▁쉬운":6371,"다니":6372,"▁목숨":6373,"▁살아가":6374,"▁치유":6375,"▁140":6376,"미터":6377,"▁현직":6378,"▁산정":6379,"▁워싱턴":6380,"▁비싼":6381,"▁적립":6382,"▁시행령":6383,"▁임신":6384,"▁히트":6385,"▁색상":6386,"▁트레이":6387,"▁펼쳤":6388,"▁원가":6389,"▁심해":6390,"▁리얼":6391,"▁전선":6392,"▁연동":6393,"▁무관":6394,"▁고사":6395,"▁총재":6396,"▁중순":6397,"▁금강":6398,"▁표명":6399,"▁당분간":6400,"▁혈관":6401,"PS":6402,"▁돋보":6403,"▁허브":6404,"▁발의":6405,"▁사내":6406,"▁패스":6407,"▁교차":6408,"▁으시":6409,"▁접착":6410,"▁사라지":6411,"▁스코":6412,"▁출원":6413,"▁급속":6414,"▁돌출":6415,"구나":6416,"▁서\n":6417,"▁죠\n":6418,"세포":6419,"▁귀국":6420,"▁환영":6421,"▁쌍용":6422,"▁ICT":6423,"▁코스닥":6424,"▁내정":6425,"▁격려":6426,"▁눈치":6427,"▁주한":6428,"▁결코":6429,"▁스프링":6430,"▁~~\n":6431,"▁주부":6432,"▁세일":6433,"▁자사":6434,"▁MO":6435,"아지":6436,"▁선별":6437,"▁지켜보":6438,"▁급등":6439,"▁오랫":6440,"▁정작":6441,"▁황금":6442,"▁오가":6443,"▁2022":6444,"▁종사자":6445,"이익":6446,"▁고무":6447,"▁김연":6448,"▁노동부":6449,"▁확률":6450,"▁뇌물":6451,"▁토요일":6452,"▁이뤄진":6453,"▁에겐":6454,"▁도어":6455,"▁조세":6456,"▁항소":6457,"▁특위":6458,"▁민심":6459,"▁당선인":6460,"▁목포":6461,"끄러":6462,"▁넘겨":6463,"▁출자":6464,"▁관여":6465,"평양":6466,"▁아스":6467,"▁동북":6468,"▁첫째":6469,"▁쟁점":6470,"▁활력":6471,"데미":6472,"▁오케":6473,"▁예컨대":6474,"북도":6475,"▁걸렸":6476,"▁임\n":6477,"페라":6478,"▁일관":6479,"▁막대":6480,"▁자영업":6481,"▁살려":6482,"▁승강":6483,"▁상영":6484,"▁교정":6485,"▁각오":6486,"다수":6487,"▁비행기":6488,"▁이영":6489,"▁든다":6490,"▁유체":6491,"▁멀리":6492,"▁연승":6493,"▁남구":6494,"▁다이어트":6495,"▁부양":6496,"▁육상":6497,"▁국면":6498,"▁창립":6499,"▁사각":6500,"▁지만\n":6501,"▁손님":6502,"▁수명":6503,"▁음식점":6504,"▁아카데미":6505,"▁생계":6506,"ell":6507,"▁ᄏᄏᄏᄏᄏᄏᄏ\n":6508,"ab":6509,"▁사연":6510,"▁한글":6511,"▁아이돌":6512,"▁사용자":6513,"▁인체":6514,"▁퍼센트":6515,"▁김민":6516,"ᅮᅮ":6517,"▁원심":6518,"▁몰리":6519,"▁시너지":6520,"▁그날":6521,"▁늘려":6522,"▁스튜디오":6523,"▁엄격":6524,"▁번역":6525,"▁증정":6526,"▁마스터":6527,"▁대대":6528,"▁재해":6529,"▁밀려":6530,"▁유망":6531,"▁보인":6532,"▁IM":6533,"DI":6534,"▁하우징":6535,"▁AP":6536,"▁꼽히":6537,"▁절실":6538,"▁IB":6539,"▁스님":6540,"▁으로\n":6541,"이팅":6542,"머스":6543,"CTV":6544,"▁가깝":6545,"▁누르":6546,"▁광명":6547,"▁컨트":6548,"▁전액":6549,"▁낙동":6550,"▁하수":6551,"ine":6552,"▁분포":6553,"▁메이크":6554,"▁등판":6555,"▁책임자":6556,"▁흔히":6557,"▁주입":6558,"▁SM":6559,"▁냉장고":6560,"▁일반인":6561,"▁콘트":6562,"성장":6563,"▁플로":6564,"▁추락":6565,"▁익숙":6566,"▁순서":6567,"▁단원":6568,"▁높일":6569,"▁콜라":6570,"▁힘입":6571,"▁CCTV":6572,"▁and":6573,"▁매립":6574,"▁오랫동안":6575,"▁동남아":6576,"▁공방":6577,"▁인턴":6578,"▁림":6579,"▁양극":6580,"테이너":6581,"▁누나":6582,"▁변하":6583,"▁자신감":6584,"▁무죄":6585,"▁기어":6586,"▁육군":6587,"▁체인":6588,"▁세미나":6589,"▁반성":6590,"▁공소":6591,"▁위안부":6592,"▁관행":6593,"▁측근":6594,"▁리모":6595,"▁한류":6596,"▁제국":6597,"▁강좌":6598,"대문":6599,"▁상실":6600,"▁항공사":6601,"▁응용":6602,"▁기독":6603,"▁경영자":6604,"▁어울리":6605,"▁슬로":6606,"▁부스":6607,"▁노동조합":6608,"▁파장":6609,"▁나타냈":6610,"▁함\n":6611,"▁랭킹":6612,"▁종로":6613,"▁색깔":6614,"로운":6615,"▁당뇨":6616,"▁오랜만":6617,"▁매트":6618,"▁불교":6619,"▁워낙":6620,"▁종전":6621,"▁영광":6622,"▁파라":6623,"▁앞선":6624,"▁사찰":6625,"▁수질":6626,"40":6627,"▁명의":6628,"▁대립":6629,"▁사인":6630,"▁et":6631,"▁떠오르":6632,"▁저감":6633,"▁을까요":6634,"▁운명":6635,"▁꼼꼼":6636,"▁신화":6637,"▁그나마":6638,"▁아라":6639,"시설":6640,"레이션":6641,"▁수위":6642,"▁the":6643,"▁여지":6644,"▁롱":6645,"▁??":6646,"▁세무":6647,"▁뷰티":6648,"으니":6649,"▁도덕":6650,"▁월급":6651,"▁한전":6652,"▁군민":6653,"▁업자":6654,"▁해질":6655,"▁SU":6656,"▁중기":6657,"▁수송":6658,"▁에어컨":6659,"▁의정부":6660,"▁도모":6661,"▁세제":6662,"▁당해":6663,"▁한마":6664,"▁접목":6665,"▁상주":6666,"까\n":6667,"▁선수단":6668,"▁켜":6669,"▁손잡":6670,"▁특례":6671,"머리":6672,"▁넘어가":6673,"▁시립":6674,"▁재학":6675,"▁노총":6676,"▁배수":6677,"th":6678,"▁재고":6679,"▁신부":6680,"▁아픈":6681,"▁일어난":6682,"으로":6683,"▁애플리케이션":6684,"▁답답":6685,"▁올바":6686,"▁독도":6687,"▁포르":6688,"시간":6689,"▁아끼":6690,"▁오페라":6691,"▁해체":6692,"▁거짓말":6693,"▁하드":6694,"▁항의":6695,"▁광학":6696,"▁들어갈":6697,"▁수평":6698,"▁일체":6699,"▁청산":6700,"▁공세":6701,"다면":6702,"받침":6703,"▁시상식":6704,"▁을\n":6705,"▁입점":6706,"▁쿠폰":6707,"▁내비":6708,"▁편입":6709,"▁아나":6710,"▁제작진":6711,"▁스웨":6712,"▁홀로":6713,"▁가끔":6714,"▁반전":6715,"▁감상":6716,"▁시나":6717,"▁랜":6718,"▁위로":6719,"▁용산":6720,"▁관광지":6721,"▁안타까":6722,"▁연애":6723,"▁티비":6724,"▁프라이":6725,"▁코어":6726,"▁방위":6727,"60":6728,"▁컨테이너":6729,"ive":6730,"▁>(":6731,"▁노리":6732,"▁맨날":6733,"▁고수":6734,"▁터키":6735,"▁나름":6736,"▁등록금":6737,"▁st":6738,"if":6739,"▁아요\n":6740,"▁BM":6741,"▁학년도":6742,"▁정의당":6743,"▁이태":6744,"▁관장":6745,"▁이끄":6746,"▁무인":6747,"▁도중":6748,"▁한가":6749,"▁관내":6750,"▁집값":6751,"▁보여준다":6752,"▁정한":6753,"▁디자이너":6754,"직자":6755,"덜란드":6756,"▁지목":6757,"마크":6758,"▁기도":6759,"▁부패":6760,"▁확실히":6761,"▁대법관":6762,"▁원천":6763,"▁네덜란드":6764,"교통":6765,"▁방출":6766,"센터":6767,"데이":6768,"▁세운":6769,"▁101":6770,"▁산출":6771,"▁심한":6772,"▁과태":6773,"▁그런가":6774,"▁LTE":6775,"▁과태료":6776,"▁튼":6777,"▁임대료":6778,"▁넥센":6779,"▁멘토":6780,"▁상권":6781,"▁오브":6782,"▁중독":6783,"▁도티":6784,"▁이메":6785,"▁재직":6786,"PGA":6787,"▁개그":6788,"▁에게서":6789,"▁아니면":6790,"▁알아보":6791,"▁본질":6792,"▁Ch":6793,"▁안건":6794,"▁학업":6795,"▁녀":6796,"▁공지":6797,"▁골드":6798,"▁조지":6799,"▁개관":6800,"▁TF":6801,"▁실린":6802,"▁제발":6803,"연히":6804,"▁당첨":6805,"▁였으나":6806,"▁버린":6807,"▁이뤄질":6808,"▁CO":6809,"▁성폭력":6810,"▁오\n":6811,"▁낙동강":6812,"▁1995":6813,"나이":6814,"▁광양":6815,"▁에다":6816,"▁선거법":6817,"▁십니까":6818,"▁료":6819,"▁포토":6820,"▁전도":6821,"▁거친":6822,"▁다중":6823,"▁상한":6824,"▁안경":6825,"▁꺼내":6826,"▁주연":6827,"▁증인":6828,"▁받아들여":6829,"▁발목":6830,"▁오키":6831,"▁순이익":6832,"▁정무":6833,"은이":6834,"▁이메일":6835,"▁문구":6836,"▁실망":6837,"▁붙여":6838,"위원":6839,"▁인테":6840,"▁줄기":6841,"테크":6842,"▁뒷받침":6843,"▁플레이트":6844,"▁클린":6845,"▁임의":6846,"▁애기":6847,"▁오류":6848,"▁정세":6849,"▁메이크업":6850,"▁생산량":6851,"수산":6852,"▁잠실":6853,"먼트":6854,"트로":6855,"▁로마":6856,"유산":6857,"▁수강":6858,"▁농어":6859,"▁아메":6860,"▁되돌":6861,"▁중국인":6862,"▁도출":6863,"▁정면":6864,"▁앞장서":6865,"▁흑자":6866,"▁시설물":6867,"▁승점":6868,"▁애니메이션":6869,"▁여주":6870,"▁시가":6871,"▁싸우":6872,"▁쓰이":6873,"▁MC":6874,"▁내장":6875,"▁인성":6876,"온다":6877,"▁대한항공":6878,"▁살해":6879,"▁줄일":6880,"▁꿈꾸":6881,"▁주유":6882,"복지":6883,"▁종종":6884,"▁학위":6885,"▁모른다":6886,"연합":6887,"소년":6888,"▁1970":6889,"▁레벨":6890,"▁마침":6891,"▁사격":6892,"▁패러":6893,"▁동서":6894,"여\n":6895,"▁도달":6896,"▁어지":6897,"▁위법":6898,"▁렀":6899,"들이":6900,"▁한우":6901,"▁지낸":6902,"▁최순":6903,"▁농림":6904,"널드":6905,"▁일요일":6906,"▁목록":6907,"FC":6908,"▁분담":6909,"▁할아버지":6910,"▁공조":6911,"▁사이즈":6912,"▁피곤":6913,"▁이겨":6914,"▁대다수":6915,"▁관통":6916,"▁아쉬움":6917,"▁백악":6918,"▁전월":6919,"▁며칠":6920,"▁이사회":6921,"▁치아":6922,"▁OE":6923,"▁답했":6924,"▁수원시":6925,"▁지능":6926,"▁구호":6927,"▁이슬":6928,"▁해서\n":6929,"▁결심":6930,"▁채소":6931,"▁이적":6932,"▁대주주":6933,"▁광화문":6934,"▁미관":6935,"▁증언":6936,"▁아미":6937,"▁으러":6938,"▁먹거리":6939,"▁어머":6940,"▁브레이":6941,"▁합니다\n":6942,"래도":6943,"렉스":6944,"▁인치":6945,"▁호수":6946,"70":6947,"▁채워":6948,"▁검진":6949,"▁응시":6950,"▁예외":6951,"▁관하":6952,"▁tv":6953,"▁넘기":6954,"▁컨트롤":6955,"▁가짜":6956,"ate":6957,"▁보물":6958,"▁여겨":6959,"여금":6960,"▁친화":6961,"수수색":6962,"▁제휴":6963,"▁표지":6964,"▁감사원":6965,"▁압수수색":6966,"▁일선":6967,"▁전교":6968,"▁타점":6969,"▁재발":6970,"▁가벼":6971,"▁자격증":6972,"▁추첨":6973,"▁가려":6974,"▁피로":6975,"루미":6976,"▁석탄":6977,"▁기울이":6978,"▁대역":6979,"▁봐요":6980,"▁대통령령":6981,"▁한국어":6982,"▁이념":6983,"▁김수":6984,"발전":6985,"▁온실":6986,"▁기각":6987,"▁강남구":6988,"라이트":6989,"▁중부":6990,"▁오버":6991,"▁인테리어":6992,"▁고성":6993,"▁남겼":6994,"▁분사":6995,"▁쳤":6996,"▁??\n":6997,"▁119":6998,"▁실효":6999,"▁솔직히":7000,"▁속하":7001,"파크":7002,"▁살짝":7003,"▁부근":7004,"▁이젠":7005,"▁는다면":7006,"▁무효":7007,"▁소독":7008,"▁니\n":7009,"▁김지":7010,"▁오늘날":7011,"▁성실":7012,"▁메르스":7013,"▁한창":7014,"▁마르":7015,"▁견해":7016,"▁고대":7017,"▁160":7018,"▁충실":7019,"▁액션":7020,"▁내외":7021,"▁노동당":7022,"▁퀴":7023,"▁콤":7024,"▁밀착":7025,"▁만성":7026,"▁트로":7027,"▁기독교":7028,"▁아세":7029,"▁합쳐":7030,"▁면담":7031,"▁연세대":7032,"▁레저":7033,"▁당\n":7034,"▁고르":7035,"▁에서\n":7036,"▁소득세":7037,"▁곤란":7038,"▁강요":7039,"▁달콤":7040,"▁연다":7041,"▁예쁘":7042,"▁국산":7043,"▁신재":7044,"▁견제":7045,"용차":7046,"▁박원":7047,"▁고려대":7048,"▁월세":7049,"ers":7050,"▁건지":7051,"▁복무":7052,"▁들어와":7053,"▁법조":7054,"▁둘러싸":7055,"▁ᄒᄒᄒᄒ":7056,"TX":7057,"▁논쟁":7058,"▁지니":7059,"▁웃기":7060,"▁손가락":7061,"▁역임":7062,"▁관중":7063,"▁이룬":7064,"▁계단":7065,"▁고조":7066,"▁사거리":7067,"▁실습":7068,"▁총력":7069,"▁물어":7070,"▁장악":7071,"시스":7072,"▁뒤늦":7073,"▁뉴딜":7074,"▁김광":7075,"▁과잉":7076,"▁동화":7077,"▁튜브":7078,"!!!!":7079,"▁전단지":7080,"▁드려":7081,"▁보건소":7082,"▁부를":7083,"▁우즈":7084,"▁당당":7085,"▁보편":7086,"▁권역":7087,"▁전수":7088,"▁열기":7089,"▁co":7090,"▁적당":7091,"▁공업":7092,"▁야기":7093,"▁지냈":7094,"▁특이":7095,"▁거절":7096,"▁정화":7097,"▁고분":7098,"▁첫날":7099,"▁컨텐츠":7100,"멘트":7101,"▁추산":7102,"▁나간":7103,"▁선보인":7104,"▁저소득층":7105,"▁자면":7106,"▁문건":7107,"▁로맨":7108,"▁II":7109,"버그":7110,"▁매월":7111,"▁차트":7112,"▁데려":7113,"▁감자":7114,"▁끊임없이":7115,"▁소모":7116,"▁닝":7117,"▁윤석":7118,"▁장례":7119,"▁전이":7120,"20":7121,"▁럭":7122,"해서":7123,"▁re":7124,"▁수여":7125,"▁놨":7126,"▁피스":7127,"▁삭감":7128,"▁고추":7129,"▁백악관":7130,"▁싼":7131,"▁배포":7132,"▁보복":7133,"▁수상자":7134,"▁연인":7135,"▁전사":7136,"▁안성":7137,"▁인데요":7138,"▁령":7139,"▁반환":7140,"▁축적":7141,"▁CD":7142,"▁어우러":7143,"▁디스크":7144,"▁해법":7145,"▁이스라":7146,"▁화소":7147,"▁기한":7148,"▁창고":7149,"▁응\n":7150,"igh":7151,"▁흔적":7152,"▁1996":7153,"▁수천":7154,"▁들어선":7155,"시마":7156,"▁불안감":7157,"▁본회의":7158,"▁피의자":7159,"▁탄성":7160,"▁직장인":7161,"▁다채":7162,"▁솔로":7163,"▁공영":7164,"▁불황":7165,"▁발간":7166,"▁전직":7167,"▁향하":7168,"▁ET":7169,"러스터":7170,"▁등산":7171,"▁몇몇":7172,"▁두기":7173,"▁스카이":7174,"▁비록":7175,"▁야생":7176,"▁내역":7177,"▁ᄏᄏᄏᄏᄏᄏᄏᄏᄏᄏᄏᄏᄏᄏᄏᄏᄏᄏᄏᄏᄏᄏᄏᄏ":7178,"▁상대방":7179,"▁이스라엘":7180,"▁스웨덴":7181,"▁게재":7182,"▁상자":7183,"▁액체":7184,"▁시신":7185,"▁고인":7186,"▁만만":7187,"▁임무":7188,"▁더욱이":7189,"▁계정":7190,"▁대국":7191,"▁무더":7192,"▁걸린":7193,"ia":7194,"▁감염병":7195,"▁중합":7196,"▁쿨":7197,"▁송신":7198,"스트라":7199,"▁장성":7200,"▁특혜":7201,"est":7202,"▁상세":7203,"▁..\"":7204,"▁웃겨":7205,"▁필드":7206,"▁아크":7207,"▁파이프":7208,"▁가하":7209,"▁염증":7210,"▁GDP":7211,"▁버튼":7212,"▁한마디":7213,"▁맞대":7214,"▁클러스터":7215,"▁ᅮ\n":7216,"▁감찰":7217,"▁인건":7218,"공항":7219,"▁성산구":7220,"▁스토어":7221,"▁파주":7222,"▁일어났":7223,"▁어든":7224,"▁모범":7225,"▁아티":7226,"▁행태":7227,"▁커졌":7228,"▁옮기":7229,"▁공화국":7230,"▁급격히":7231,"▁생길":7232,"개발":7233,"▁연도":7234,"▁수거":7235,"워드":7236,"▁The":7237,"▁손흥":7238,"▁전술":7239,"▁비닐":7240,"▁들어왔":7241,"▁전설":7242,"▁재계":7243,"▁다름":7244,"▁통로":7245,"ist":7246,"▁양도":7247,"▁밀양":7248,"▁중재":7249,"▁크리스마스":7250,"▁냥":7251,"▁손흥민":7252,"art":7253,"▁그램":7254,"▁해진다":7255,"▁만족도":7256,"▁칭찬":7257,"▁독점":7258,"셔널":7259,"▁토록":7260,"▁처방":7261,"▁산학":7262,"▁등기":7263,"▁뛰어나":7264,"▁어찌":7265,"▁소정":7266,"▁어부":7267,"▁경화":7268,"▁정황":7269,"▁저작":7270,"▁안산":7271,"▁해운대":7272,"▁국악":7273,"▁각도":7274,"▁전동":7275,"▁접근성":7276,"~~":7277,"▁국적":7278,"▁내주":7279,"▁횡령":7280,"▁바디":7281,"▁부러":7282,"▁입체":7283,"SI":7284,"▁송파":7285,"▁동현":7286,"▁인건비":7287,"지스터":7288,"▁매니저":7289,"▁나란히":7290,"그레이드":7291,"▁시나리오":7292,"ov":7293,"▁업그레이드":7294,"▁한쪽":7295,"▁장군":7296,"▁식별":7297,"▁매도":7298,"▁미흡":7299,"▁1994":7300,"▁경찰관":7301,"▁이병":7302,"▁국세청":7303,"▁이뤄지지":7304,"▁증세":7305,"오프":7306,"▁주방":7307,"▁기둥":7308,"▁광부":7309,"▁포착":7310,"▁상식":7311,"하면":7312,"▁유료":7313,"지니어":7314,"LED":7315,"나\n":7316,"▁공백":7317,"▁ᄏᄏᄏᄏᄏᄏᄏᄏ\n":7318,"매김":7319,"▁자리매김":7320,"차피":7321,"▁십시오":7322,"▁명소":7323,"90":7324,"▁네티":7325,"▁남아":7326,"▁정유":7327,"▁거제":7328,"▁해요\n":7329,"▁엇갈":7330,"보드":7331,"▁상속":7332,"▁미용":7333,"▁버려":7334,"▁수차":7335,"▁쾌적":7336,"▁태평양":7337,"무성":7338,"▁이노":7339,"▁서양":7340,"▁학대":7341,"▁털어":7342,"▁사모":7343,"▁통신사":7344,"▁골든":7345,"▁찾아보":7346,"▁엽":7347,"▁밀도":7348,"▁Re":7349,"피아":7350,"▁바지":7351,"▁경유":7352,"▁습니다\n":7353,"▁금요일":7354,"▁SUV":7355,"▁출간":7356,"▁탄탄":7357,"▁장수":7358,"▁제보":7359,"▁신동":7360,"▁걸림":7361,"▁프로세스":7362,"▁확신":7363,"▁\"...":7364,"▁라이트":7365,"라리":7366,"▁라니":7367,"▁수확":7368,"▁이력":7369,"▁네티즌":7370,"▁사료":7371,"▁남쪽":7372,"▁응답자":7373,"▁당선자":7374,"▁특구":7375,"▁폭탄":7376,"▁분열":7377,"▁중복":7378,"▁어차피":7379,"▁유승":7380,"평가":7381,"▁밀어":7382,"▁KBO":7383,"▁영웅":7384,"▁마약":7385,"▁둔화":7386,"▁진지":7387,"▁냐면":7388,"▁외모":7389,"▁출구":7390,"▁ᄋᄋ\n":7391,"▁언제나":7392,"▁아산":7393,"급식":7394,"▁이어진":7395,"저스":7396,"▁협동조합":7397,"▁협박":7398,"▁밀집":7399,"테르":7400,"▁너무나":7401,"▁선보일":7402,"▁카운":7403,"▁인디":7404,"▁김병":7405,"▁클래스":7406,"▁대중교통":7407,"▁올바른":7408,"▁업소":7409,"▁자존":7410,"▁증폭":7411,"▁자외선":7412,"▁타율":7413,"▁고스":7414,"▁나타난":7415,"▁권위":7416,"용\n":7417,"▁감기":7418,"ob":7419,"▁장려":7420,"▁무상급식":7421,"▁ᄀ씨":7422,"▁운반":7423,"▁결혼식":7424,"▁여섯":7425,"▁턴":7426,"▁난다":7427,"봐야":7428,"번에":7429,"▁KTX":7430,"▁수습":7431,"▁학문":7432,"▁준수":7433,"▁정전":7434,"▁틴":7435,"▁;;":7436,"oT":7437,"▁보증금":7438,"▁태극":7439,"학자":7440,"▁억울":7441,"▁방영":7442,"▁대\n":7443,"▁열풍":7444,"▁ᅳᅳ":7445,"▁명성":7446,"▁체감":7447,"▁이쁘":7448,"▁채우":7449,"▁민정":7450,"▁튜":7451,"▁신상":7452,"up":7453,"▁후기":7454,"▁부드러":7455,"▁하도":7456,"▁배구":7457,"▁생생":7458,"▁접하":7459,"▁!!\n":7460,"▁무사":7461,"▁약자":7462,"▁기증":7463,"▁단행":7464,"▁의자":7465,"▁무장":7466,"▁평범":7467,"▁아무래도":7468,"▁공연장":7469,"▁즐겁":7470,"▁신탁":7471,"▁출생":7472,"▁견인":7473,"▁최강":7474,"▁길래":7475,"▁구장":7476,"▁의료진":7477,"▁스틸":7478,"▁돌아왔":7479,"▁그저":7480,"▁금품":7481,"▁다큐":7482,"▁스킨":7483,"이크":7484,"천군":7485,"운전":7486,"▁해설":7487,"▁논술":7488,"▁스위치":7489,"▁조종":7490,"▁조율":7491,"▁열악":7492,"▁중립":7493,"▁깔끔":7494,"▁막판":7495,"먼스":7496,"▁수목":7497,"▁농사":7498,"▁운동장":7499,"▁생리":7500,"▁배고":7501,"▁재현":7502,"▁조회":7503,"▁박영":7504,"▁외국어":7505,"▁LA":7506,"▁인형":7507,"▁이대":7508,"▁장기간":7509,"▁트레":7510,"▁국민은행":7511,"▁잉글":7512,"▁얼음":7513,"▁테일":7514,"▁스쿨":7515,"▁고백":7516,"▁프랜":7517,"▁!!":7518,"▁강동":7519,"▁헌재":7520,"▁개구":7521,"로이드":7522,"▁소매":7523,"▁볼트":7524,"▁붙잡":7525,"▁벌어졌":7526,"▁수년":7527,"▁경보":7528,"▁전철":7529,"▁녹음":7530,"▁최우선":7531,"▁마라톤":7532,"▁블로그":7533,"▁벌어진":7534,"SC":7535,"▁도널드":7536,"▁명분":7537,"▁마찰":7538,"▁해피":7539,"▁타임스":7540,"▁트럭":7541,"▁경위":7542,"▁아니하":7543,"▁상수":7544,"▁LNG":7545,"ang":7546,"▁어려웠":7547,"전지":7548,"▁음원":7549,"▁프로모":7550,"▁피자":7551,"▁에코":7552,"▁아가":7553,"▁워터":7554,"▁어때":7555,"▁성사":7556,"▁용접":7557,"▁롤러":7558,"▁패드":7559,"▁이례":7560,"▁홍준":7561,"▁OECD":7562,"▁버거":7563,"▁보좌관":7564,"▁원\n":7565,"▁원단":7566,"▁정통":7567,"▁황제":7568,"▁핑크":7569,"▁양쪽":7570,"▁승용차":7571,"▁모이":7572,"▁낭비":7573,"▁엑스포":7574,"▁영구":7575,"▁중지":7576,"▁정국":7577,"▁PE":7578,"▁초등학생":7579,"▁IoT":7580,"▁04":7581,"▁빨간":7582,"▁이럴":7583,"▁우대":7584,"▁공작":7585,"▁비치":7586,"▁일산":7587,"▁탐구":7588,"▁별다른":7589,"▁에이스":7590,"▁골라":7591,"▁되찾":7592,"▁남용":7593,"▁헤헤":7594,"▁태어나":7595,"▁안방":7596,"▁고구":7597,"▁수시로":7598,"▁임용":7599,"져서":7600,"▁책정":7601,"▁타인":7602,"파이":7603,"ub":7604,"▁광역시":7605,"▁혈압":7606,"▁여고":7607,"▁피아노":7608,"▁파손":7609,"▁오를":7610,"▁신청서":7611,"▁계시":7612,"▁집합":7613,"▁날개":7614,"▁청춘":7615,"▁박차":7616,"▁06":7617,"포먼스":7618,"▁유적":7619,"▁안타깝":7620,"▁응응":7621,"▁공군":7622,"▁상고":7623,"▁퍼포먼스":7624,"▁밸리":7625,"▁소유자":7626,"징금":7627,"▁다룬":7628,"고속":7629,"▁분배":7630,"▁이분":7631,"▁도대":7632,"▁러브":7633,"▁한국은행":7634,"▁모래":7635,"▁DM":7636,"▁성장세":7637,"▁김대중":7638,"▁대두":7639,"▁그곳":7640,"▁치과":7641,"▁맞춘":7642,"임금":7643,"▁제로":7644,"▁스리":7645,"▁2030":7646,"▁뒀":7647,"▁이득":7648,"▁더라\n":7649,"▁112":7650,"▁대륙":7651,"▁어서\n":7652,"▁수색":7653,"▁침대":7654,"▁HD":7655,"▁멋진":7656,"▁자부":7657,"ect":7658,"▁스터":7659,"▁니깐":7660,"▁통산":7661,"▁뛰어넘":7662,"▁모형":7663,"▁발레":7664,"▁명백":7665,"▁국경":7666,"▁신한은행":7667,"▁하향":7668,"▁여사":7669,"▁소극":7670,"▁돌아온":7671,"▁다짐":7672,"▁유예":7673,"▁플랜트":7674,"▁홍준표":7675,"▁지역민":7676,"▁발열":7677,"▁써야":7678,"▁구만":7679,"▁통영":7680,"▁상시":7681,"▁카톡":7682,"▁휴양":7683,"▁빼앗":7684,"테나":7685,"▁크루즈":7686,"▁연내":7687,"아내":7688,"▁온실가스":7689,"경북":7690,"스키":7691,"▁탁월":7692,"지대":7693,"▁특강":7694,"▁이지":7695,"▁진짜\n":7696,"▁사이클":7697,"▁청취":7698,"▁도박":7699,"▁외곽":7700,"▁올레":7701,"▁임차":7702,"▁BMW":7703,"▁키워드":7704,"▁리드":7705,"▁소금":7706,"▁부하":7707,"다보":7708,"▁잠정":7709,"▁내려가":7710,"▁자재":7711,"저히":7712,"▁순차":7713,"▁MOU":7714,"▁미생":7715,"▁위해선":7716,"▁수차례":7717,"▁나쁘":7718,"▁의상":7719,"▁치즈":7720,"all":7721,"▁합작":7722,"▁광복":7723,"▁연상":7724,"▁비결":7725,"▁소집":7726,"▁해임":7727,"일랜드":7728,"▁남동":7729,"▁스페셜":7730,"▁중\n":7731,"▁출동":7732,"▁지나가":7733,"▁책임지":7734,"▁내각":7735,"▁관료":7736,"▁매진":7737,"본부":7738,"▁회의실":7739,"▁균형발전":7740,"▁이따":7741,"▁계란":7742,"▁젊은이":7743,"▁착한":7744,"▁로비":7745,"▁상단":7746,"TS":7747,"▁메달":7748,"주얼":7749,"▁LCD":7750,"▁알루미":7751,"▁교황":7752,"▁무력":7753,"▁쓰러":7754,"▁동행":7755,"▁자이":7756,"▁안드":7757,"▁붙이":7758,"▁외식":7759,"▁열릴":7760,"▁돌봄":7761,"▁욕심":7762,"오드":7763,"▁절단":7764,"▁상정":7765,"▁따지":7766,"▁풍력":7767,"▁의해서":7768,"영향":7769,"▁기업인":7770,"▁아닌데":7771,"▁레이스":7772,"▁흡연":7773,"▁챔버":7774,"▁대검":7775,"▁VR":7776,"▁수혜":7777,"▁민선":7778,"▁문장":7779,"▁평면":7780,"비전":7781,"▁어릴":7782,"▁박성":7783,"▁보건복지":7784,"▁결성":7785,"▁프로모션":7786,"▁세입":7787,"▁주름":7788,"▁포괄":7789,"▁우위":7790,"▁남긴":7791,"▁맞물":7792,"▁액세":7793,"▁탈당":7794,"▁한양":7795,"▁코미":7796,"▁이슬람":7797,"▁CN":7798,"▁스피드":7799,"▁베어":7800,"▁트랜지스터":7801,"▁아니다":7802,"▁공모전":7803,"▁넘어섰":7804,"▁정시":7805,"▁유인":7806,"RA":7807,"▁겨우":7808,"▁플레이오프":7809,"▁독재":7810,"▁쇄신":7811,"▁한방":7812,"▁표기":7813,"▁취향":7814,"▁수령":7815,"▁드렸":7816,"▁위장":7817,"MA":7818,"▁가난":7819,"▁단가":7820,"▁데리":7821,"▁떠났":7822,"▁경영진":7823,"▁영원":7824,"▁유성":7825,"위원회":7826,"▁역학":7827,"▁확립":7828,"▁방탄":7829,"▁택지":7830,"▁출국":7831,"▁과시":7832,"▁공판":7833,"▁CC":7834,"ore":7835,"▁Al":7836,"▁무섭":7837,"▁짜증":7838,"처럼":7839,"▁상이":7840,"▁유래":7841,"▁박주":7842,"▁푸른":7843,"▁보드":7844,"▁기성":7845,"▁북측":7846,"▁살균":7847,"▁방사선":7848,"센티브":7849,"토리":7850,"▁인센티브":7851,"▁\",":7852,"▁주유소":7853,"금리":7854,"▁유관":7855,"▁모의":7856,"▁흔들리":7857,"▁어떨":7858,"▁대지":7859,"▁병역":7860,"▁SS":7861,"OS":7862,"▁.?\n":7863,"▁험":7864,"▁잖아\n":7865,"▁북쪽":7866,"▁흥국":7867,"▁국채":7868,"▁밀리":7869,"▁태어난":7870,"▁요금제":7871,"▁아리":7872,"아리":7873,"▁마땅":7874,"▁전격":7875,"▁애정":7876,"▁좌석":7877,"▁금방":7878,"▁가르치":7879,"▁레일":7880,"TV":7881,"▁주전":7882,"▁거세":7883,"▁어업":7884,"▁성취":7885,"▁보여준":7886,"▁옵션":7887,"▁엔지니어":7888,"▁크다":7889,"▁이산화":7890,"▁한다\n":7891,"▁영리":7892,"▁왜냐하면":7893,"▁적층":7894,"▁미분":7895,"▁통일부":7896,"▁저렇게":7897,"원장":7898,"▁저번":7899,"▁서면":7900,"▁공문":7901,"▁긴밀":7902,"▁터지":7903,"▁등지":7904,"▁토로":7905,"▁즐거움":7906,"▁철수":7907,"▁부도":7908,"▁이듬":7909,"▁간사":7910,"▁발병":7911,"▁농어촌":7912,"▁창단":7913,"드라":7914,"▁기쁘":7915,"▁명문":7916,"▁끈다":7917,"▁검정":7918,"▁오스트":7919,"▁환원":7920,"든지":7921,"IC":7922,"▁급락":7923,"▁성폭행":7924,"▁날짜":7925,"▁감수":7926,"▁음식물":7927,"▁고스란히":7928,"▁아이스":7929,"▁보낼":7930,"▁즐겨":7931,"▁메일":7932,"▁참석자":7933,"▁기장":7934,"페이스":7935,"▁102":7936,"▁급감":7937,"자치":7938,"▁신혼":7939,"▁풍성":7940,"주군":7941,"▁결함":7942,"▁114":7943,"▁벤치":7944,"ak":7945,"▁처지":7946,"▁과열":7947,"▁고온":7948,"▁전단":7949,"10":7950,"▁교부":7951,"▁고양시":7952,"▁하이닉스":7953,"▁랄":7954,"▁기숙":7955,"▁좋아하":7956,"▁브레이크":7957,"▁배분":7958,"▁원대":7959,"▁빨라":7960,"▁조아":7961,"▁입단":7962,"▁제이":7963,"▁연비":7964,"▁청탁":7965,"▁후쿠":7966,"▁사면":7967,"▁유세":7968,"▁즐거운":7969,"▁직면":7970,"▁내다봤":7971,"▁최저임금":7972,"어넣":7973,"▁미드":7974,"▁떠난":7975,"▁아티스트":7976,"▁KA":7977,"▁와이어":7978,"▁밝혀졌":7979,"▁대원":7980,"▁보건복지부":7981,"▁두드러":7982,"▁지체":7983,"▁시비":7984,"▁질의":7985,"▁불렀":7986,"▁감독원":7987,"▁전신":7988,"▁이듬해":7989,"▁광범":7990,"▁알파":7991,"▁내년도":7992,"▁군산":7993,"▁리서":7994,"▁징수":7995,"▁SP":7996,"▁커질":7997,"▁클로":7998,"▁대체로":7999,"▁나아":8000,"▁연산":8001,"▁요새":8002,"▁놓치":8003,"ri":8004,"▁ᄏᄏᄏᄏᄏᄏᄏᄏᄏᄏᄏ":8005,"▁그랜드":8006,"▁170":8007,"▁경과":8008,"▁바닷":8009,"pl":8010,"▁매물":8011,"▁거둔":8012,"▁ha":8013,"▁도우":8014,"▁당황":8015,"▁울산시":8016,"규모":8017,"▁회피":8018,"▁맥락":8019,"▁앞세워":8020,"▁gt":8021,"▁기\n":8022,"▁내보":8023,"ard":8024,"▁면서도":8025,"▁파격":8026,"▁킨":8027,"▁자립":8028,"욕장":8029,"▁웅\n":8030,"▁때\n":8031,"▁고마워":8032,"▁합계":8033,"▁어선":8034,"▁회생":8035,"▁멍":8036,"가\n":8037,"▁호평":8038,"▁달라지":8039,"▁세련":8040,"▁환승":8041,"▁조류":8042,"범죄":8043,"▁다각":8044,"DA":8045,"▁1992":8046,"▁지불":8047,"▁아무것":8048,"▁숙소":8049,"▁바위":8050,"▁동결":8051,"▁절연":8052,"▁배관":8053,"▁어두":8054,"▁척추":8055,"▁냉동":8056,"IP":8057,"▁잉글랜드":8058,"▁채취":8059,"▁아나운":8060,"▁상사":8061,"▁포도":8062,"▁바꿀":8063,"▁표창":8064,"▁유공":8065,"▁흡입":8066,"▁비자":8067,"▁'...":8068,"▁헬기":8069,"▁공구":8070,"관위":8071,"▁서열":8072,"▁입주자":8073,"RL":8074,"▁리서치":8075,"▁재선":8076,"▁무단":8077,"▁노트북":8078,"▁월요일":8079,"▁원형":8080,"▁전임":8081,"▁부합":8082,"▁해경":8083,"본다":8084,"▁시켜야":8085,"배우":8086,"티나":8087,"▁모금":8088,"▁화력":8089,"▁박막":8090,"▁효소":8091,"▁유가족":8092,"▁꼬리":8093,"▁진행할":8094,"▁ᄏᄏᄏᄏᄏᄏᄏᄏᄏ\n":8095,"▁SC":8096,"▁진전":8097,"▁디젤":8098,"▁셋째":8099,"▁체류":8100,"연구":8101,"▁명목":8102,"▁지상파":8103,"▁양보":8104,"▁추격":8105,"▁350":8106,"▁클리":8107,"▁으신":8108,"▁끔":8109,"▁AR":8110,"▁그분":8111,"▁방금":8112,"▁펼쳐진다":8113,"▁몸체":8114,"▁못지":8115,"▁뛰어들":8116,"▁태어났":8117,"▁y":8118,"▁크로스":8119,"EC":8120,"▁광범위":8121,"▁다를":8122,"▁산화물":8123,"ure":8124,"▁빈곤":8125,"놀이":8126,"▁몽골":8127,"▁인명":8128,"▁방문객":8129,"▁갈라":8130,"▁횡단":8131,"▁공감대":8132,"▁정류":8133,"▁고집":8134,"▁히히":8135,"▁기다려":8136,"▁도로변":8137,"▁동북아":8138,"▁아닐까":8139,"▁도대체":8140,"▁프랜차":8141,"▁출제":8142,"▁코일":8143,"▁말레이":8144,"ec":8145,"▁신천":8146,"▁존경":8147,"ran":8148,"▁중화":8149,"▁따져":8150,"▁가축":8151,"▁프랜차이즈":8152,"▁나와서":8153,"오스":8154,"▁를\n":8155,"▁상원":8156,"▁김장":8157,"로지":8158,"▁안테나":8159,"▁제철":8160,"▁넘어서":8161,"▁폭염":8162,"▁연이":8163,"▁생체":8164,"ᄀᄀ":8165,"▁더라구요":8166,"▁인삼":8167,"▁자매":8168,"▁라인업":8169,"▁함량":8170,"▁박원순":8171,"퍼런스":8172,"▁시흥":8173,"야\n":8174,"▁기하":8175,"라도":8176,"▁주무":8177,"▁전산":8178,"▁통지":8179,"▁DNA":8180,"▁갑작":8181,"▁가산":8182,"▁미뤄":8183,"서구":8184,"▁정해진":8185,"SA":8186,"▁호르":8187,"▁염두":8188,"수기":8189,"▁소규모":8190,"▁189":8191,"▁아나운서":8192,"▁변호인":8193,"▁성남시":8194,"▁조선일보":8195,"플러스":8196,"▁시일":8197,"▁인자":8198,"▁미터":8199,"▁목격":8200,"꺼번에":8201,"▁한꺼번에":8202,"▁소원":8203,"▁배열":8204,"▁평일":8205,"▁소주":8206,"▁올릴":8207,"▁구경":8208,"▁저널":8209,"▁코딩":8210,"▁체중":8211,"▁접합":8212,"▁돼\n":8213,"▁발령":8214,"▁유의":8215,"▁먹이":8216,"▁살아남":8217,"경기":8218,"▁박정희":8219,"타운":8220,"▁지문":8221,"▁진도":8222,"▁드래":8223,"▁원화":8224,"▁벌인":8225,"▁단자":8226,"▁형편":8227,"▁구제역":8228,"▁프란":8229,"▁증가세":8230,"▁신약":8231,"▁버티":8232,"물산":8233,"덩이":8234,"▁합창":8235,"▁우와":8236,"▁대세":8237,"▁숨진":8238,"▁휴게":8239,"▁획기":8240,"▁모씨":8241,"▁스러워":8242,"▁미지":8243,"▁간호사":8244,"▁장벽":8245,"▁탐방":8246,"▁다가오":8247,"▁1960":8248,"▁봐서":8249,"▁1993":8250,"av":8251,"행위":8252,"구\n":8253,"▁전염":8254,"▁력사":8255,"▁사교육":8256,"아웃":8257,"▁기상청":8258,"ᅲᅲᅲᅲ":8259,"▁보험금":8260,"▁vs":8261,"▁수납":8262,"▁득표":8263,"▁김선":8264,"▁양육":8265,"▁삼성물산":8266,"▁마이너스":8267,"▁여름철":8268,"▁당기":8269,"▁도망":8270,"▁낙찰":8271,"▁포지":8272,"▁◆\n":8273,"▁백만":8274,"▁중시":8275,"드리":8276,"▁저해":8277,"에스":8278,"▁코미디":8279,"▁법제":8280,"▁가해자":8281,"▁천재":8282,"▁이어진다":8283,"▁유죄":8284,"▁역세":8285,"▁평론":8286,"▁걸릴":8287,"TI":8288,"▁소폭":8289,"▁재판소":8290,"▁상임위":8291,"▁or":8292,"블릿":8293,"▁프리미어":8294,"▁유독":8295,"▁세균":8296,"▁겁나":8297,"▁암호":8298,"▁건국":8299,"자원":8300,"▁닉":8301,"▁고속도로":8302,"▁1988":8303,"▁발판":8304,"▁미생물":8305,"▁그래야":8306,"▁일본인":8307,"▁교도":8308,"▁통계청":8309,"LS":8310,"▁영세":8311,"긴다":8312,"▁선착":8313,"▁lt":8314,"이\n":8315,"▁진공":8316,"▁홈플러스":8317,"려고":8318,"▁청렴":8319,"▁1200":8320,"▁전적":8321,"대\n":8322,"▁드디어":8323,"▁밀접":8324,"▁성추":8325,"▁바꾼":8326,"▁여신":8327,"박스":8328,"▁봉사자":8329,"▁증여":8330,"▁직선":8331,"▁상표":8332,"▁방송사":8333,"▁식량":8334,"▁영동":8335,"▁앞당":8336,"▁수요자":8337,"서리":8338,"▁산지":8339,"▁비대위":8340,"▁시공사":8341,"▁구\n":8342,"▁발라":8343,"▁이목":8344,"▁재질":8345,"▁지혜":8346,"▁는디":8347,"▁제동":8348,"▁환상":8349,"▁김승":8350,"▁수장":8351,"▁OLED":8352,"▁간섭":8353,"▁바쁜":8354,"영화":8355,"▁연평균":8356,"▁와중":8357,"▁오케스트라":8358,"▁크로":8359,"▁뜨겁":8360,"▁레인":8361,"▁발탁":8362,"▁의제":8363,"▁할당":8364,"▁볼거리":8365,"TO":8366,"▁가압":8367,"▁자진":8368,"▁여전":8369,"▁선포":8370,"▁사흘":8371,"▁악취":8372,"▁바이든":8373,"▁우편":8374,"▁성추행":8375,"▁대사관":8376,"▁절약":8377,"▁내걸":8378,"▁제자":8379,"▁떨어질":8380,"▁약화":8381,"▁관리자":8382,"▁으려고":8383,"▁입맛":8384,"코올":8385,"▁대구경북":8386,"▁톡톡":8387,"▁대피":8388,"▁싸이":8389,"▁유감":8390,"ew":8391,"▁방통":8392,"▁자책":8393,"▁신차":8394,"▁마운드":8395,"▁권익":8396,"▁김정일":8397,"▁알렸":8398,"▁유물":8399,"▁고속도":8400,"▁마늘":8401,"▁사라졌":8402,"▁계약서":8403,"▁태블릿":8404,"▁롯데마트":8405,"▁베르":8406,"▁위대":8407,"▁테크노":8408,"ill":8409,"▁누리꾼":8410,"▁꼬집":8411,"▁지났":8412,"▁난방":8413,"▁SW":8414,"▁교대":8415,"▁학계":8416,"▁방한":8417,"▁마일":8418,"▁산불":8419,"▁신년":8420,"관계":8421,"▁말레이시아":8422,"▁누릴":8423,"▁검거":8424,"▁실린더":8425,"▁개최\n":8426,"▁버디":8427,"▁1991":8428,"▁에프":8429,"▁여보":8430,"▁영토":8431,"▁무렵":8432,"▁안다":8433,"▁홍성":8434,"▁부평":8435,"▁서기":8436,"▁105":8437,"▁님\n":8438,"▁귀여운":8439,"▁들어온":8440,"▁특별히":8441,"▁대입":8442,"▁휘발":8443,"▁원작":8444,"ack":8445,"▁맛집":8446,"▁브로":8447,"▁안착":8448,"▁참모":8449,"▁수산물":8450,"▁난민":8451,"▁불신":8452,"▁총수":8453,"원구":8454,"▁캐스":8455,"▁''":8456,"▁해산":8457,"▁죽이":8458,"▁외치":8459,"▁정산":8460,"▁111":8461,"▁가만":8462,"▁태권":8463,"▁아일랜드":8464,"▁지형":8465,"▁귀찮":8466,"트라":8467,"▁욕구":8468,"▁우회":8469,"▁최우수":8470,"▁지붕":8471,"▁떨어진다":8472,"▁입주민":8473,"▁Pro":8474,"▁위임":8475,"▁강정":8476,"▁배후":8477,"▁심정":8478,"▁기적":8479,"바닥":8480,"▁샘플":8481,"허가":8482,"▁독립운동":8483,"▁육박":8484,"▁프레스":8485,"▁일괄":8486,"소시":8487,"▁세정":8488,"▁배럴":8489,"▁우정":8490,"▁르노":8491,"▁예술가":8492,"▁캠핑":8493,"▁근접":8494,"▁신생":8495,"▁부리":8496,"▁게시판":8497,"▁연일":8498,"▁카이":8499,"▁문화유산":8500,"▁분과":8501,"▁하트":8502,"▁노르":8503,"▁FIFA":8504,"▁올라오":8505,"▁타선":8506,"밀리":8507,"틸렌":8508,"▁소홀":8509,"▁외측":8510,"▁분량":8511,"키스탄":8512,"▁2500":8513,"▁계곡":8514,"▁ES":8515,"▁체납":8516,"▁정례":8517,"▁열려":8518,"▁IMF":8519,"▁조약":8520,"▁언론사":8521,"▁내세우":8522,"▁공법":8523,"▁약정":8524,"▁아저":8525,"▁증설":8526,"▁윈도":8527,"▁용액":8528,"ice":8529,"▁군부":8530,"▁영등":8531,"▁강렬":8532,"▁가릭":8533,"▁창구":8534,"▁궁금증":8535,"▁근절":8536,"▁창문":8537,"▁일으킨":8538,"매매":8539,"▁배우자":8540,"▁련":8541,"▁해지":8542,"▁시골":8543,"▁카르":8544,"▁보훈":8545,"▁양호":8546,"▁직권":8547,"▁면서\n":8548,"▁될까":8549,"RI":8550,"▁해킹":8551,"▁박종":8552,"▁이인":8553,"▁토양":8554,"▁모인":8555,"▁???":8556,"▁해방":8557,"▁극심":8558,"▁동성":8559,"▁로켓":8560,"▁탐색":8561,"▁템":8562,"피탈":8563,"▁구나\n":8564,"▁부럽":8565,"▁느냐는":8566,"▁탈퇴":8567,"▁주고":8568,"▁풀리":8569,"▁UN":8570,"데이트":8571,"▁노화":8572,"▁오사":8573,"소시엄":8574,"▁묘사":8575,"▁마인":8576,"▁특집":8577,"▁중심지":8578,"▁컨소시엄":8579,"호텔":8580,"▁줘서":8581,"▁양념":8582,"MC":8583,"▁감당":8584,"▁낸다":8585,"▁시달리":8586,"▁대치":8587,"▁바쁘":8588,"▁권유":8589,"▁벌여":8590,"▁해야지":8591,"▁^^\n":8592,"▁알코올":8593,"▁잠수":8594,"▁폭스":8595,"▁내신":8596,"▁하원":8597,"▁나빠":8598,"▁효력":8599,"▁희생자":8600,"▁항체":8601,"▁아저씨":8602,"▁달래":8603,"▁침몰":8604,"▁치환":8605,"소연":8606,"▁각광":8607,"▁발송":8608,"▁그래픽":8609,"니스트":8610,"▁업데이트":8611,"▁EP":8612,"▁이어져":8613,"▁드라이브":8614,"▁적시":8615,"▁동호":8616,"▁청구인":8617,"▁예쁜":8618,"▁증후":8619,"▁사이드":8620,"▁내측":8621,"▁기차":8622,"▁성범죄":8623,"▁컨디션":8624,"▁러닝":8625,"▁약국":8626,"▁파산":8627,"▁웨이퍼":8628,"▁괴롭":8629,"랑이":8630,"▁다이오드":8631,"iz":8632,"▁의대":8633,"▁종일":8634,"▁드레스":8635,"▁URL":8636,"▁남한":8637,"▁다행히":8638,"▁효능":8639,"▁보충":8640,"▁어치":8641,"▁가져가":8642,"▁차라리":8643,"▁김연아":8644,"▁그야":8645,"▁자세히":8646,"▁\"'":8647,"▁서장":8648,"▁난리":8649,"act":8650,"▁삼진":8651,"▁김주":8652,"▁입소":8653,"소드":8654,"▁회원국":8655,"▁가벼운":8656,"▁둘레":8657,"▁확고":8658,"▁출하":8659,"▁관건":8660,"▁흘리":8661,"▁폭넓":8662,"▁나요\n":8663,"▁차선":8664,"▁이라크":8665,"▁쏟아지":8666,"EA":8667,"▁공격수":8668,"▁농성":8669,"▁온천":8670,"▁사양":8671,"▁페어":8672,"▁게이":8673,"▁원조":8674,"바이트":8675,"▁관심사":8676,"▁이용객":8677,"▁CP":8678,"▁결단":8679,"▁내릴":8680,"려서":8681,"▁법인세":8682,"▁수칙":8683,"ph":8684,"▁발현":8685,"▁장인":8686,"▁겨울철":8687,"▁아니까":8688,"▁텍스":8689,"▁침묵":8690,"▁펼쳐지":8691,"▁행사장":8692,"ant":8693,"▁노벨":8694,"▁크리":8695,"▁악기":8696,"▁1987":8697,"▁매개":8698,"▁마비":8699,"▁빠져나":8700,"▁마자":8701,"▁감싸":8702,"▁리포니아":8703,"▁세라":8704,"▁창업자":8705,"▁증후군":8706,"▁알고리":8707,"▁복용":8708,"▁성숙":8709,"▁그루":8710,"▁공론":8711,"▁단식":8712,"▁과학자":8713,"▁Con":8714,"▁시속":8715,"▁애요":8716,"▁의왕":8717,"▁과다":8718,"▁소멸":8719,"크스":8720,"▁일일":8721,"▁람":8722,"▁대수":8723,"▁정답":8724,"▁박찬":8725,"▁치명":8726,"▁주어":8727,"▁220":8728,"▁천천":8729,"바람":8730,"▁하단":8731,"▁인문학":8732,"어버":8733,"▁PO":8734,"▁일가":8735,"▁흐리":8736,"▁취해":8737,"▁지원자":8738,"▁미스터":8739,"▁교재":8740,"▁이윤":8741,"▁텔레비전":8742,"▁멋있":8743,"▁유니폼":8744,"▁각별":8745,"▁배운":8746,"▁시내버스":8747,"▁과징금":8748,"▁예매":8749,"실험":8750,"협회":8751,"▁그야말로":8752,"▁레스토":8753,"▁사각지대":8754,"▁레스토랑":8755,"▁원금":8756,"▁금연":8757,"▁잡지":8758,"88":8759,"▁만점":8760,"▁성립":8761,"▁일기":8762,"타인":8763,"공정":8764,"▁하락세":8765,"▁속속":8766,"▁강판":8767,"제철":8768,"▁한두":8769,"▁들리":8770,"▁왕복":8771,"▁주역":8772,"▁박상":8773,"▁등교":8774,"▁그까":8775,"▁입건":8776,"▁그해":8777,"▁행장":8778,"▁총액":8779,"▁라고\n":8780,"▁폭로":8781,"▁범인":8782,"▁유포":8783,"▁천천히":8784,"▁균일":8785,"▁긴장감":8786,"▁녹화":8787,"▁섰":8788,"▁모시":8789,"▁이경":8790,"▁표적":8791,"겨진":8792,"▁중소형":8793,"▁사자":8794,"▁구름":8795,"▁이견":8796,"ID":8797,"▁이를":8798,"하나":8799,"▁던졌":8800,"▁단단":8801,"▁오디오":8802,"▁도시락":8803,"▁알고리즘":8804,"요타":8805,"▁한겨":8806,"▁언스":8807,"▁결승전":8808,"▁으려는":8809,"▁아랍":8810,"▁이재명":8811,"▁최경":8812,"ort":8813,"▁간식":8814,"▁객실":8815,"▁노란":8816,"▁셔야":8817,"▁까다":8818,"풀이":8819,"▁가이드라인":8820,"▁골자":8821,"▁한참":8822,"▁시당":8823,"▁손쉽":8824,"▁주고받":8825,"▁워킹":8826,"▁전교조":8827,"광역":8828,"▁해결책":8829,"▁호르몬":8830,"폴리오":8831,"▁던데\n":8832,"▁광원":8833,"▁AS":8834,"▁기량":8835,"▁포트폴리오":8836,"▁바이어":8837,"▁제네":8838,"▁시책":8839,"▁분말":8840,"▁달아":8841,"▁KO":8842,"▁시그":8843,"▁성질":8844,"▁끊이":8845,"yst":8846,"▁다스":8847,"▁국외":8848,"our":8849,"ide":8850,"▁갑니다":8851,"▁선관위":8852,"▁머무":8853,"마토":8854,"ight":8855,"▁노드":8856,"▁품종":8857,"벤션":8858,"IST":8859,"▁추후":8860,"▁시리아":8861,"▁타수":8862,"태프":8863,"퇴근":8864,"▁염색":8865,"▁걸친":8866,"▁식민":8867,"▁기운":8868,"▁취미":8869,"▁연안":8870,"▁ᄏᄏᄏᄏᄏᄏᄏᄏᄏᄏ\n":8871,"▁명동":8872,"에이":8873,"▁관제":8874,"라이언":8875,"▁우세":8876,"▁정동":8877,"▁기념식":8878,"▁자치구":8879,"▁봇":8880,"▁실증":8881,"▁두루":8882,"▁09":8883,"GA":8884,"▁머니":8885,"▁접어들":8886,"▁제치":8887,"ff":8888,"▁으론":8889,"▁중증":8890,"▁새끼":8891,"▁불참":8892,"▁악재":8893,"▁계승":8894,"▁메디":8895,"버트":8896,"yl":8897,"▁to":8898,"ee":8899,"▁지지자":8900,"법인":8901,"▁트래":8902,"▁이원":8903,"▁103":8904,"▁후회":8905,"▁연초":8906,"▁tvN":8907,"▁결산":8908,"AC":8909,"▁경연":8910,"▁모양새":8911,"▁자존심":8912,"▁보정":8913,"다란":8914,"다임":8915,"▁패러다임":8916,"▁경제학":8917,"▁정제":8918,"▁서점":8919,"▁화보":8920,"▁컨벤션":8921,"▁불펜":8922,"▁해수욕장":8923,"▁헌신":8924,"▁김무성":8925,"▁미션":8926,"▁활기":8927,"▁외관":8928,"▁기지국":8929,"▁공립":8930,"▁호흡기":8931,"▁사운드":8932,"▁국감":8933,"▁장마":8934,"▁이진":8935,"▁이리":8936,"▁대여":8937,"▁글자":8938,"비드":8939,"▁잠재력":8940,"▁에피":8941,"▁맡기":8942,"▁든든":8943,"▁놀랐":8944,"▁화이팅":8945,"▁때리":8946,"----":8947,"▁몰래":8948,"▁단면":8949,"둘러":8950,"▁부담금":8951,"타르":8952,"▁양해":8953,"▁만료":8954,"유예":8955,"바다":8956,"▁만\n":8957,"▁모른":8958,"▁반기":8959,"▁다면서":8960,"▁부드러운":8961,"▁유대":8962,"▁부추":8963,"▁신도":8964,"▁메가":8965,"▁캐스팅":8966,"▁인종":8967,"▁약세":8968,"▁교직원":8969,"▁푸르":8970,"부르크":8971,"병원":8972,"▁물체":8973,"▁초음":8974,"▁실전":8975,"▁과실":8976,"▁연루":8977,"▁노즐":8978,"▁체육회":8979,"▁연구자":8980,"▁한겨레":8981,"▁외출":8982,"ment":8983,"▁1989":8984,"▁웨어":8985,"▁과천":8986,"▁어떡":8987,"▁08":8988,"▁군\n":8989,"▁유공자":8990,"▁승계":8991,"▁일일이":8992,"▁.?":8993,"▁미루":8994,"▁센트":8995,"셔츠":8996,"▁계신":8997,"▁상해":8998,"▁건설업":8999,"▁엉\n":9000,"스\n":9001,"▁회의소":9002,"▁일간":9003,"▁실체":9004,"▁휴직":9005,"▁미분양":9006,"▁단절":9007,"▁소련":9008,"▁실사":9009,"▁일지":9010,"▁키즈":9011,"▁영재":9012,"▁똑같이":9013,"저우":9014,"▁네이":9015,"▁핵실험":9016,"▁과반":9017,"▁날아":9018,"▁베를":9019,"▁조짐":9020,"▁선원":9021,"▁개폐":9022,"▁문경":9023,"▁내면":9024,"▁꾸며":9025,"안군":9026,"▁소방서":9027,"▁시멘트":9028,"▁챔피언십":9029,"끄럽":9030,"아아":9031,"▁데\n":9032,"처리":9033,"▁정교":9034,"▁항암":9035,"▁일어날":9036,"▁벤츠":9037,"▁갑작스":9038,"▁조속히":9039,"▁ETF":9040,"▁폐업":9041,"▁차종":9042,"▁증액":9043,"걸리":9044,"▁고분자":9045,"▁갈아":9046,"▁구로":9047,"▁커뮤니케이션":9048,"▁외주":9049,"▁강성":9050,"▁잇달":9051,"수산부":9052,"▁화두":9053,"ib":9054,"▁중형":9055,"▁박지성":9056,"▁기숙사":9057,"▁볼넷":9058,"▁얼른":9059,"▁UE":9060,"▁이식":9061,"▁전시관":9062,"▁계수":9063,"▁마디":9064,"▁도장":9065,"▁차익":9066,"ong":9067,"▁김희":9068,"▁눈앞":9069,"▁예의":9070,"▁들어간다":9071,"▁과자":9072,"기구":9073,"▁오디션":9074,"▁활발히":9075,"▁부의":9076,"▁장병":9077,"▁강구":9078,"▁유승민":9079,"▁아르티나":9080,"집트":9081,"▁김형":9082,"▁이순":9083,"▁양평":9084,"▁친절":9085,"▁상습":9086,"▁다지":9087,"ev":9088,"▁이집트":9089,"▁서초구":9090,"▁터뜨":9091,"▁자택":9092,"▁요법":9093,"▁신흥":9094,"▁미팅":9095,"▁강수":9096,"▁레이트":9097,"▁실물":9098,"▁믿음":9099,"▁봉쇄":9100,"▁탐사":9101,"▁가까워":9102,"▁빛나":9103,"▁MS":9104,"▁농축":9105,"▁모빌":9106,"▁개원":9107,"▁시동":9108,"▁인가요":9109,"▁막걸리":9110,"▁발길":9111,"▁성매매":9112,"▁병사":9113,"전력":9114,"▁104":9115,"▁소액":9116,"▁아름답":9117,"▁할리":9118,"▁공로":9119,"▁경인":9120,"▁공예":9121,"▁진압":9122,"▁고등학생":9123,"▁나눈":9124,"ial":9125,"▁펼칠":9126,"▁배추":9127,"생명":9128,"▁법관":9129,"▁잘라":9130,"99":9131,"▁대략":9132,"▁공존":9133,"▁불공정":9134,"▁MV":9135,"▁어떨까":9136,"▁싱크":9137,"▁해양수산부":9138,"▁기체":9139,"one":9140,"▁본래":9141,"▁풀어":9142,"▁으셨":9143,"가운":9144,"▁슬라이":9145,"▁토끼":9146,"▁역설":9147,"두리":9148,"▁평론가":9149,"▁일제히":9150,"신문":9151,"▁뭐\n":9152,"▁판교":9153,"▁우린":9154,"▁아마존":9155,"음\n":9156,"▁포상":9157,"▁송금":9158,"▁심상":9159,"▁탈모":9160,"▁인가\n":9161,"▁합격자":9162,"▁》(":9163,"▁스타일링":9164,"둥이":9165,"▁방과":9166,"▁고의":9167,"▁선점":9168,"▁와\n":9169,"르기":9170,"▁세수":9171,"▁감추":9172,"▁모를":9173,"▁편한":9174,"▁그라운드":9175,"▁온다":9176,"▁학급":9177,"▁연체":9178,"▁우산":9179,"▁양심":9180,"▁패스트":9181,"블리":9182,"▁언젠":9183,"가루":9184,"▁시야":9185,"▁리버":9186,"ᄀᄏᄀᄏ":9187,"▁JT":9188,"▁CI":9189,"▁통치":9190,"▁’...":9191,"▁브라운":9192,"▁고고":9193,"▁전락":9194,"▁파고":9195,"▁시집":9196,"▁신천지":9197,"▁사직":9198,"베이터":9199,"▁이석":9200,"▁위조":9201,"▁규격":9202,"▁박진":9203,"▁CG":9204,"▁퇴진":9205,"▁소니":9206,"사스":9207,"▁잔류":9208,"걸이":9209,"▁교역":9210,"▁환급":9211,"▁다저스":9212,"▁구별":9213,"▁이뤄지고":9214,"철도":9215,"▁세액":9216,"▁도당":9217,"▁국고":9218,"▁안전사고":9219,"▁민중":9220,"▁리엄":9221,"고사":9222,"▁후방":9223,"▁더러":9224,"▁상의":9225,"▁별명":9226,"▁가평":9227,"▁닥터":9228,"▁간주":9229,"▁오지":9230,"▁용\n":9231,"▁인조":9232,"▁도포":9233,"▁주축":9234,"▁조합장":9235,"▁화해":9236,"▁미국인":9237,"▁210":9238,"나항공":9239,"기금":9240,"▁닷컴":9241,"▁다이아":9242,"▁동아일보":9243,"공단":9244,"▁사회단체":9245,"▁이준":9246,"▁세이":9247,"▁호재":9248,"연대":9249,"▁아시아나항공":9250,"▁함양":9251,"▁@":9252,"▁홍수":9253,"▁농지":9254,"▁드러난":9255,"▁사령관":9256,"▁실명":9257,"▁민속":9258,"▁작물":9259,"▁독려":9260,"현실":9261,"▁유방":9262,"워하":9263,"▁경품":9264,"▁나타날":9265,"▁경량":9266,"▁배워":9267,"▁메틸":9268,"▁수고":9269,"▁약한":9270,"▁지장":9271,"▁레지":9272,"유럽":9273,"▁구두":9274,"▁휴일":9275,"▁김준":9276,"▁첩":9277,"▁시진":9278,"▁알레":9279,"ical":9280,"▁산업은행":9281,"▁작곡가":9282,"자유":9283,"▁군포":9284,"▁컬렉":9285,"▁출퇴근":9286,"▁해변":9287,"체인":9288,"질랜드":9289,"▁피할":9290,"▁이뤄지는":9291,"▁허락":9292,"▁후보자":9293,"▁360":9294,"▁대교":9295,"도어":9296,"▁정문":9297,"▁닐":9298,"▁머물렀":9299,"▁승격":9300,"▁효성":9301,"▁STX":9302,"ER":9303,"▁동국":9304,"▁이화":9305,"▁매번":9306,"▁숙제":9307,"▁선대":9308,"▁별개":9309,"▁파생":9310,"▁산재":9311,"▁가진다":9312,"▁신사":9313,"▁약품":9314,"▁뉴질랜드":9315,"▁동쪽":9316,"▁페르":9317,"▁초음파":9318,"▁이격":9319,"▁우울증":9320,"▁텍사스":9321,"▁폴란드":9322,"▁우한":9323,"▁반경":9324,"높이":9325,"▁퀴즈":9326,"▁강해":9327,"▁강변":9328,"▁드물":9329,"▁김일":9330,"무기":9331,"▁매칭":9332,"페이":9333,"ue":9334,"▁블라":9335,"▁염려":9336,"▁고품":9337,"몬드":9338,"▁동문":9339,"▁우아":9340,"▁하도급":9341,"▁렉":9342,"▁동아시아":9343,"▁관계없이":9344,"▁장미":9345,"▁이색":9346,"네\n":9347,"▁닛":9348,"▁07":9349,"일리":9350,"▁초고":9351,"▁어나":9352,"▁나타난다":9353,"▁연료전지":9354,"▁사냥":9355,"▁카카오톡":9356,"일으":9357,"▁사설":9358,"▁불러일으":9359,"▁기호":9360,"▁인터페이스":9361,"▁아미노":9362,"▁조현":9363,"▁지질":9364,"매도":9365,"수지":9366,"▁반납":9367,"▁캐리어":9368,"▁돋보이":9369,"▁마산합":9370,"▁대개":9371,"▁대조":9372,"▁체질":9373,"▁해라":9374,"▁조형":9375,"▁인지도":9376,"▁달라진":9377,"시경":9378,"▁부른":9379,"▁보단":9380,"▁목욕":9381,"▁적성":9382,"▁때로":9383,"▁터져":9384,"▁교량":9385,"레이터":9386,"▁백지":9387,"▁피트":9388,"▁파문":9389,"▁중학생":9390,"그러":9391,"▁양파":9392,"▁수비수":9393,"아이":9394,"▁서서":9395,"▁퍼지":9396,"▁수료":9397,"▁시군":9398,"출산":9399,"▁문명":9400,"▁믹스":9401,"▁재편":9402,"▁음악회":9403,"▁변속":9404,"▁정했":9405,"▁코레":9406,"▁내정자":9407,"드럽":9408,"▁유상":9409,"기지":9410,"▁티셔츠":9411,"▁대본":9412,"▁떠올랐":9413,"훈련":9414,"▁전진":9415,"▁국책":9416,"▁오세":9417,"▁탐지":9418,"▁추신":9419,"▁당뇨병":9420,"▁코오":9421,"▁시한":9422,"▁황교":9423,"▁출판사":9424,"▁축사":9425,"MS":9426,"▁나사":9427,"tt":9428,"ast":9429,"▁입금":9430,"▁더군":9431,"▁못지않":9432,"oun":9433,"▁은행장":9434,"그래":9435,"▁반해":9436,"▁장터":9437,"▁침투":9438,"▁치안":9439,"▁강진":9440,"▁레버":9441,"▁부드럽":9442,"▁하남":9443,"▁유무":9444,"▁달랐":9445,"▁추측":9446,"▁상관없이":9447,"▁향기":9448,"▁DC":9449,"▁커다란":9450,"▁단편":9451,"▁적금":9452,"관광":9453,"▁나주":9454,"▁대항":9455,"▁배양":9456,"▁응모":9457,"▁파란":9458,"▁뷔":9459,"▁국지":9460,"▁수처":9461,"▁일명":9462,"▁KCC":9463,"▁실감":9464,"▁그렇지만":9465,"▁아름다움":9466,"▁세로":9467,"▁장시간":9468,"▁지방세":9469,"▁여인":9470,"▁해역":9471,"▁Th":9472,"▁함수":9473,"▁PB":9474,"▁침수":9475,"▁보행자":9476,"▁제조사":9477,"▁전문점":9478,"▁기업체":9479,"▁An":9480,"▁액수":9481,"▁놓여":9482,"▁설탕":9483,"▁팔리":9484,"▁스피커":9485,"▁박병":9486,"데스":9487,"싸움":9488,"▁한숨":9489,"▁머신":9490,"▁표결":9491,"▁취업자":9492,"▁도면":9493,"▁당진":9494,"▁무너지":9495,"▁니트":9496,"▁코오롱":9497,"▁지회":9498,"▁하여금":9499,"▁걸맞":9500,"▁주식회사":9501,"▁비추":9502,"▁항소심":9503,"▁추신수":9504,"▁딸기":9505,"광역시":9506,"▁베를린":9507,"▁막내":9508,"▁옥상":9509,"▁115":9510,"▁엄중":9511,"▁등재":9512,"▁줄줄":9513,"▁백제":9514,"▁타결":9515,"▁수동":9516,"▁패밀리":9517,"▁유재":9518,"▁가파":9519,"▁세탁기":9520,"여행":9521,"▁낮춰":9522,"▁서쪽":9523,"▁꾸려":9524,"▁울릉":9525,"11":9526,"▁데이트":9527,"▁점령":9528,"▁홍삼":9529,"▁시진핑":9530,"▁방수":9531,"든가":9532,"▁으려면":9533,"소년단":9534,"▁꼼꼼히":9535,"잖아":9536,"▁이루어져":9537,"▁125":9538,"▁고래":9539,"▁강호":9540,"▁아르바이트":9541,"▁에요\n":9542,"▁투여":9543,"▁108":9544,"▁불출":9545,"▁외신":9546,"▁중진":9547,"▁조별":9548,"▁직구":9549,"▁창당":9550,"▁소아":9551,"▁공청":9552,"▁종로구":9553,"▁천문":9554,"▁우호":9555,"▁대리점":9556,"▁MW":9557,"▁각지":9558,"▁투과":9559,"▁불꽃":9560,"AR":9561,"▁황교안":9562,"▁선착순":9563,"임스":9564,"▁합법":9565,"▁동점":9566,"▁블록체인":9567,"▁여대":9568,"스카":9569,"▁비극":9570,"▁Sh":9571,"▁조업":9572,"▁물고기":9573,"▁아웃도어":9574,"▁오사카":9575,"▁고체":9576,"▁한은":9577,"성기":9578,"▁Com":9579,"▁홀딩":9580,"▁정관":9581,"▁성동":9582,"▁중산":9583,"▁고부":9584,"▁신나":9585,"▁플랫폼":9586,"▁조원":9587,"이자":9588,"▁침입":9589,"▁포부":9590,"▁동포":9591,"HO":9592,"베이션":9593,"▁대면":9594,"▁판로":9595,"▁사용량":9596,"▁프로세서":9597,"▁문항":9598,"▁통신망":9599,"▁잇따르":9600,"▁방탄소년단":9601,"▁마산합포구":9602,"미애":9603,"▁남해":9604,"▁EBS":9605,"▁유선":9606,"▁빈번":9607,"oo":9608,"▁증발":9609,"▁기울여":9610,"▁는구나":9611,"▁원자재":9612,"▁잔액":9613,"▁애국":9614,"▁커넥":9615,"▁동선":9616,"▁충당":9617,"▁넘겼":9618,"lect":9619,"리즘":9620,"▁익스":9621,"▁쇼트":9622,"▁앤드":9623,"▁새우":9624,"44":9625,"▁일부러":9626,"▁부의장":9627,"▁안쪽":9628,"▁논평":9629,"▁기피":9630,"▁이치":9631,"▁이노베이션":9632,"▁환기":9633,"▁형평":9634,"▁교감":9635,"ase":9636,"▁삼각":9637,"▁En":9638,"▁기념관":9639,"▁ch":9640,"▁똑똑":9641,"▁1950":9642,"▁아메리카":9643,"▁유네":9644,"▁깨달":9645,"▁취재진":9646,"▁컴백":9647,"▁타이밍":9648,"▁테니스":9649,"▁준다는":9650,"77":9651,"▁초콜":9652,"▁살림":9653,"▁명확히":9654,"▁치른":9655,"▁생선":9656,"▁조망":9657,"▁케이크":9658,"▁전일":9659,"▁책상":9660,"▁적법":9661,"▁106":9662,"▁소나무":9663,"▁전경":9664,"▁화학식":9665,"▁첨부":9666,"▁아하\n":9667,"▁LI":9668,"▁연고":9669,"시다":9670,"테랑":9671,"▁산다":9672,"▁색다른":9673,"평균":9674,"▁재즈":9675,"▁달라졌":9676,"▁박계":9677,"▁포지션":9678,"▁원산":9679,"▁한자":9680,"▁야지":9681,"▁유럽연합":9682,"▁내륙":9683,"▁베네":9684,"▁좌절":9685,"▁결과물":9686,"엑스":9687,"▁예수":9688,"▁흑인":9689,"▁위촉":9690,"▁불어넣":9691,"▁한동안":9692,"ens":9693,"▁유네스코":9694,"▁반찬":9695,"▁슬라":9696,"▁조경":9697,"▁습지":9698,"진보":9699,"▁정년":9700,"▁물러나":9701,"▁드럼":9702,"국수":9703,"▁수호":9704,"▁예배":9705,"▁누워":9706,"적으로":9707,"▁금형":9708,"▁귀농":9709,"▁포스터":9710,"▁중앙은행":9711,"▁장거리":9712,"▁은지":9713,"▁재차":9714,"▁면밀":9715,"▁민사":9716,"▁저조":9717,"▁아사":9718,"▁클릭":9719,"▁팽창":9720,"▁인과":9721,"▁알킬":9722,"▁해져":9723,"▁여왕":9724,"▁선명":9725,"▁엘리베이터":9726,"▁보이스":9727,"감치":9728,"찌감치":9729,"▁추위":9730,"멘터리":9731,"▁이재용":9732,"▁건가요":9733,"거나":9734,"▁로맨스":9735,"▁동상":9736,"ult":9737,"▁동대문":9738,"▁ᄏᄏᄏᄏᄏᄏᄏᄏᄏᄏᄏ\n":9739,"▁주먹":9740,"▁마이클":9741,"▁전봇":9742,"▁야구장":9743,"▁온갖":9744,"▁시드":9745,"▁까지\n":9746,"▁고령화":9747,"▁경호":9748,"▁강점기":9749,"면적":9750,"▁전봇대":9751,"어로":9752,"▁낙하":9753,"▁배웠":9754,"▁한눈":9755,"▁목재":9756,"▁비스":9757,"▁배울":9758,"코드":9759,"▁참전":9760,"▁걸림돌":9761,"▁추출물":9762,"▁그레이":9763,"▁우드":9764,"▁부호":9765,"▁의석":9766,"▁키트":9767,"▁후루":9768,"▁240":9769,"▁다큐멘터리":9770,"▁관해":9771,"▁JTBC":9772,"▁재심":9773,"▁경신":9774,"▁양질":9775,"▁자부심":9776,"▁떠올리":9777,"▁AC":9778,"▁균열":9779,"고속도로":9780,"▁박태":9781,"▁이강":9782,"▁맞대결":9783,"▁방전":9784,"▁모닝":9785,"▁호조":9786,"▁샤워":9787,"▁손꼽":9788,"▁ᆞ군":9789,"▁미스":9790,"▁클린턴":9791,"▁오직":9792,"▁개수":9793,"▁궁극":9794,"▁면모":9795,"▁하청":9796,"▁마그":9797,"▁제임스":9798,"▁잔디":9799,"스크림":9800,"▁경부":9801,"▁관리법":9802,"▁보호법":9803,"▁영주":9804,"▁DJ":9805,"▁인출":9806,"▁플레이어":9807,"▁측은":9808,"▁합산":9809,"▁점프":9810,"▁이케":9811,"▁공무":9812,"▁녹지":9813,"▁아이스크림":9814,"▁힘내":9815,"우리":9816,"▁트라":9817,"ace":9818,"▁신성":9819,"▁중년":9820,"▁좌파":9821,"▁정류장":9822,"▁부임":9823,"▁불린다":9824,"▁지켰":9825,"▁파우":9826,"▁분비":9827,"▁당사":9828,"재단":9829,"▁편견":9830,"▁부적절":9831,"▁소각":9832,"▁포수":9833,"▁유보":9834,"▁230":9835,"▁하하":9836,"▁국물":9837,"▁아세안":9838,"▁출시\n":9839,"▁병력":9840,"▁국제공항":9841,"▁모발":9842,"안전":9843,"▁파급":9844,"▁장단":9845,"▁레전":9846,"▁가라":9847,"35":9848,"▁펜스":9849,"▁정우":9850,"▁세입자":9851,"▁서서히":9852,"▁농단":9853,"▁강력히":9854,"▁표본":9855,"▁BI":9856,"▁일으켰":9857,"▁니스":9858,"▁베테랑":9859,"▁테마파크":9860,"▁무서운":9861,"▁저출산":9862,"▁히어로":9863,"▁기부금":9864,"▁단서":9865,"▁찾아오":9866,"▁대책위":9867,"▁단호":9868,"▁삼성그룹":9869,"▁입니까":9870,"▁매운":9871,"▁신원":9872,"▁끌어올리":9873,"▁신조":9874,"▁강자":9875,"▁마니":9876,"▁한식":9877,"▁놀이터":9878,"▁도매":9879,"▁종사":9880,"▁성별":9881,"▁대충":9882,"▁사들":9883,"▁레이더":9884,"▁이현":9885,"▁몰입":9886,"▁닌":9887,"▁의외":9888,"▁수요일":9889,"▁ᅲᅲᅲ\n":9890,"▁가루":9891,"▁춰":9892,"▁달렸":9893,"▁눈빛":9894,"▁퇴출":9895,"▁넓히":9896,"▁공대":9897,"▁사령부":9898,"▁글씨":9899,"▁에다가":9900,"▁\")":9901,"▁볼까":9902,"▁예년":9903,"▁던져":9904,"▁산악":9905,"▁학점":9906,"▁됐으나":9907,"▁이만":9908,"▁실버":9909,"▁박지원":9910,"▁을수록":9911,"▁후임":9912,"▁보람":9913,"▁하동":9914,"▁지경":9915,"▁돌아와":9916,"▁떡이":9917,"▁따라가":9918,"디움":9919,"▁포르투":9920,"▁보석":9921,"ain":9922,"▁가락":9923,"▁사형":9924,"▁찬반":9925,"▁다닐":9926,"▁미네":9927,"▁휴업":9928,"▁밍":9929,"▁워치":9930,"▁속초":9931,"▁타석":9932,"▁처한":9933,"▁부위원장":9934,"▁대용":9935,"▁스톱":9936,"▁브루":9937,"▁으세요":9938,"▁입대":9939,"▁놀라운":9940,"셀로나":9941,"▁금강산":9942,"▁450":9943,"BA":9944,"ᄏᄏ\n":9945,"▁에버":9946,"▁사라진":9947,"▁레전드":9948,"▁바르셀로나":9949,"▁가죽":9950,"▁파운드":9951,"▁그러므로":9952,"▁동탄":9953,"추어":9954,"▁오름":9955,"▁회화":9956,"▁스케줄":9957,"▁레알":9958,"▁잔치":9959,"▁사외":9960,"▁메리":9961,"▁무거운":9962,"▁곤충":9963,"▁원피스":9964,"▁차분":9965,"▁열매":9966,"▁돌아보":9967,"▁1986":9968,"▁ᄒᄒᄒ\n":9969,"▁드라이버":9970,"운용":9971,"뉴얼":9972,"▁일련":9973,"▁는다\n":9974,"▁신용카드":9975,"▁퍼시":9976,"▁슬로건":9977,"▁교양":9978,"▁제작사":9979,"프리카":9980,"▁서정":9981,"키퍼":9982,"▁오이":9983,"▁어리":9984,"▁지갑":9985,"▁마드":9986,"▁학사":9987,"진보당":9988,"▁TE":9989,"▁가세":9990,"▁구석":9991,"걸음":9992,"▁규탄":9993,"치기":9994,"▁약해":9995,"▁121":9996,"age":9997,"▁골키퍼":9998,"▁늘렸":9999,"▁증착":10000,"▁정몽":10001,"▁입양":10002,"▁보류":10003,"▁대권":10004,"▁능동":10005,"▁사명":10006,"스레":10007,"▁대림":10008,"▁공청회":10009,"▁납치":10010,"▁안드로이드":10011,"ence":10012,"▁수법":10013,"▁최장":10014,"▁이창":10015,"▁정선":10016,"ass":10017,"▁경희":10018,"▁무척":10019,"▁충주":10020,"▁으니까\n":10021,"▁질소":10022,"▁거품":10023,"▁보컬":10024,"▁사옥":10025,"▁천장":10026,"▁역동":10027,"▁임진":10028,"릿수":10029,"▁환불":10030,"당\n":10031,"자유구역":10032,"▁강아지":10033,"▁석사":10034,"▁이어서":10035,"▁독감":10036,"▁슈팅":10037,"공원":10038,"▁영혼":10039,"▁체전":10040,"▁수반":10041,"▁컬렉션":10042,"▁수영장":10043,"▁피드":10044,"▁보스":10045,"▁일찌감치":10046,"▁픽셀":10047,"▁통합진보당":10048,"▁대전시":10049,"▁해선":10050,"▁경제자유구역":10051,"▁con":10052,"▁pro":10053,"▁우체":10054,"▁공룡":10055,"▁아닌지":10056,"▁열전":10057,"▁민자":10058,"22":10059,"▁스트라이":10060,"▁다운로드":10061,"▁기술원":10062,"▁NA":10063,"▁미마":10064,"▁인플":10065,"▁부시장":10066,"▁송전":10067,"▁납세":10068,"▁추미애":10069,"▁김천":10070,"▁박용":10071,"▁메타":10072,"▁고압":10073,"▁두려움":10074,"방송":10075,"▁설사":10076,"▁구해":10077,"▁수량":10078,"▁져야":10079,"▁목요일":10080,"날레":10081,"총액":10082,"▁곡선":10083,"▁당국자":10084,"▁고심":10085,"▁아마추어":10086,"▁부른다":10087,"▁정정":10088,"▁찾아볼":10089,"▁무지":10090,"▁집중력":10091,"▁남다른":10092,"▁시가총액":10093,"▁루수":10094,"느리":10095,"▁후반기":10096,"▁알바":10097,"66":10098,"▁188":10099,"▁집행유예":10100,"▁보일러":10101,"▁자본주의":10102,"▁램프":10103,"75":10104,"▁날리":10105,"▁보리":10106,"지오":10107,"▁센스":10108,"▁계획서":10109,"▁막상":10110,"셀러":10111,"▁.....":10112,"▁정점":10113,"▁CS":10114,"▁구인":10115,"외과":10116,"▁겹치":10117,"▁123":10118,"▁원동":10119,"어리":10120,"▁유나이":10121,"▁일수록":10122,"▁mg":10123,"▁시국":10124,"▁북면":10125,"▁게스트":10126,"▁퇴임":10127,"▁간절":10128,"▁피크":10129,"▁왕국":10130,"▁매뉴얼":10131,"▁투구":10132,"▁유나이티":10133,"▁전복":10134,"▁수출입":10135,"▁서원":10136,"▁개조":10137,"균관":10138,"▁였을":10139,"▁음향":10140,"조사":10141,"▁CBS":10142,"금자리":10143,"▁미달":10144,"▁세율":10145,"▁도마":10146,"▁시크":10147,"▁개체":10148,"▁내게":10149,"▁종양":10150,"▁리바":10151,"▁거래량":10152,"▁무형":10153,"▁몸매":10154,"▁군데":10155,"월드":10156,"▁양주":10157,"▁보금자리":10158,"▁예보":10159,"▁2025":10160,"▁치우":10161,"▁남양주":10162,"▁물려":10163,"▁서둘러":10164,"▁키스":10165,"린다는":10166,"▁여가":10167,"▁정형":10168,"▁만일":10169,"▁박재":10170,"▁성당":10171,"▁재수":10172,"▁틸":10173,"▁속한":10174,"▁성균관":10175,"▁지각":10176,"▁개량":10177,"▁수자원":10178,"▁호기심":10179,"▁원안":10180,"ᅲ\n":10181,"니즘":10182,"▁증자":10183,"▁기인":10184,"▁펼친다":10185,"▁경전":10186,"▁DB":10187,"병대":10188,"▁존재감":10189,"▁까닭":10190,"▁하중":10191,"▁작업자":10192,"▁유저":10193,"end":10194,"▁셔츠":10195,"▁모빌리티":10196,"▁은데요":10197,"▁가즈":10198,"▁수중":10199,"▁되살":10200,"▁눈높이":10201,"예술":10202,"▁구형":10203,"▁박인":10204,"▁살피":10205,"▁PM":10206,"버터":10207,"▁ᆞ중":10208,"▁끌려":10209,"▁세이브":10210,"▁라스":10211,"ᄏᄏᄏ":10212,"▁초콜릿":10213,"▁넘어선":10214,"▁모노":10215,"삼성":10216,"리안":10217,"▁사업단":10218,"▁오리온":10219,"▁서비스업":10220,"▁열람":10221,"▁약식":10222,"▁재임":10223,"▁차체":10224,"▁약점":10225,"▁성주":10226,"▁아이디":10227,"▁커머스":10228,"▁핀테크":10229,"▁세단":10230,"퍼니":10231,"▁개요":10232,"▁개막전":10233,"▁카지":10234,"▁팽팽":10235,"▁LPGA":10236,"▁..'":10237,"ttp":10238,"화물":10239,"▁뭔지":10240,"▁갈비":10241,"▁핸드폰":10242,"▁음주운전":10243,"▁개개":10244,"▁본점":10245,"▁자산운용":10246,"▁주저":10247,"▁집행부":10248,"금속":10249,"▁조카":10250,"▁홀딩스":10251,"▁덴마크":10252,"▁도정":10253,"▁납입":10254,"▁판타":10255,"▁악영향":10256,"▁퍼시픽":10257,"▁하계":10258,"▁하영":10259,"▁잡히":10260,"▁http":10261,"▁우연히":10262,"곡동":10263,"▁지면":10264,"▁중고차":10265,"야마":10266,"▁복사":10267,"▁여과":10268,"▁미미":10269,"▁연쇄":10270,"▁샤프트":10271,"▁탄압":10272,"▁베이비":10273,"▁민관":10274,"▁로고":10275,"▁스승":10276,"▁초록":10277,"▁한복":10278,"▁야드":10279,"▁정진":10280,"▁대우건설":10281,"▁줄였":10282,"▁언젠가":10283,"▁줄어드":10284,"▁MVP":10285,"▁승차":10286,"▁선교":10287,"사이":10288,"▁GB":10289,"▁한국전력":10290,"▁섬세":10291,"▁장애인":10292,"▁LS":10293,"십자":10294,"▁〉\n":10295,"ud":10296,"▁이끈":10297,"▁여력":10298,"▁대국민":10299,"▁발전기":10300,"▁릴레이":10301,"▁입니다\n":10302,"▁각계":10303,"▁go":10304,"▁입술":10305,"▁폐렴":10306,"▁Ar":10307,"▁찾아내":10308,"▁SOC":10309,"▁구사":10310,"▁왜냐면":10311,"▁국수":10312,"▁조문":10313,"▁에피소드":10314,"▁억지":10315,"▁조처":10316,"▁SD":10317,"uc":10318,"업자":10319,"▁김창":10320,"▁힘쓰":10321,"▁드레":10322,"▁뜨거":10323,"▁마인드":10324,"▁지지층":10325,"▁네이트":10326,"기에":10327,"▁CF":10328,"나타":10329,"▁아쉬운":10330,"▁김종인":10331,"▁')":10332,"▁최후":10333,"▁이해관계":10334,"▁토마토":10335,"▁UA":10336,"▁늘릴":10337,"▁유혹":10338,"▁케미":10339,"▁배선":10340,"ge":10341,"▁정보원":10342,"▁하이드":10343,"▁국군":10344,"▁구원":10345,"처분":10346,"▁거실":10347,"▁정립":10348,"▁들어올":10349,"▁유한":10350,"▁고쳐":10351,"▁AT":10352,"▁113":10353,"▁세라믹":10354,"▁컴퍼니":10355,"베이스":10356,"▁개인전":10357,"▁본관":10358,"▁연임":10359,"▁행렬":10360,"▁타이거":10361,"▁입수":10362,"▁호랑이":10363,"▁일본군":10364,"▁해치":10365,"▁달린":10366,"▁김명":10367,"▁유압":10368,"▁리듬":10369,"▁임대차":10370,"▁키운":10371,"▁둘러보":10372,"신저":10373,"▁이광":10374,"▁보름":10375,"▁반갑":10376,"▁봉투":10377,"▁개발자":10378,"▁심심":10379,"▁고구마":10380,"▁포켓":10381,"▁신학":10382,"▁질주":10383,"커스":10384,"▁형광":10385,"▁회복세":10386,"▁무주":10387,"▁후유":10388,"▁후원금":10389,"▁외화":10390,"▁린지":10391,"▁칼럼":10392,"▁송파구":10393,"▁블로":10394,"▁ID":10395,"▁고액":10396,"▁이길":10397,"▁루디":10398,"▁돌기":10399,"듭니다":10400,"▁계급":10401,"orm":10402,"▁히로":10403,"▁끼워":10404,"▁타협":10405,"▁무제":10406,"▁거울":10407,"▁만주":10408,"▁텐트":10409,"▁개학":10410,"▁담겼":10411,"▁회사채":10412,"▁가져오":10413,"▁테이프":10414,"▁아마도":10415,"▁해온":10416,"▁줄게":10417,"▁SA":10418,"클럽":10419,"▁요약":10420,"▁느다":10421,"▁제의":10422,"슬러":10423,"구니":10424,"▁광산":10425,"▁트레이드":10426,"▁마침내":10427,"▁직경":10428,"▁편광":10429,"▁특사":10430,"▁폐수":10431,"▁접촉자":10432,"▁한중":10433,"▁당과":10434,"▁넓혀":10435,"▁빌리":10436,"▁기생":10437,"▁교복":10438,"▁패딩":10439,"▁>\n":10440,"▁부유":10441,"▁결실":10442,"▁저질":10443,"▁줘\n":10444,"▁소신":10445,"대교":10446,"▁박탈":10447,"▁카라":10448,"▁올라왔":10449,"▁하드웨어":10450,"▁자릿수":10451,"▁계통":10452,"▁마사지":10453,"▁오만":10454,"▁주상":10455,"▁보상금":10456,"▁유흥":10457,"▁향수":10458,"▁오스트리아":10459,"▁공산당":10460,"▁스런":10461,"▁지우":10462,"▁담합":10463,"▁라임":10464,"▁장례식":10465,"▁회식":10466,"▁내세운":10467,"▁강전":10468,"▁성금":10469,"▁욕망":10470,"▁면역력":10471,"▁Un":10472,"▁거듭나":10473,"▁분권":10474,"▁수제":10475,"▁계파":10476,"▁영화관":10477,"▁화웨이":10478,"▁당근":10479,"▁중합체":10480,"▁추진\n":10481,"▁이스트":10482,"리\n":10483,"징어":10484,"▁호스":10485,"▁접한":10486,"▁가만히":10487,"▁납득":10488,"동원":10489,"▁도요타":10490,"▁화질":10491,"▁환수":10492,"▁웨딩":10493,"▁122":10494,"▁보고회":10495,"투스":10496,"거래위":10497,"▁내려오":10498,"▁공정거래위":10499,"▁터빈":10500,"▁재판관":10501,"슬라":10502,"생산":10503,"▁옮겼":10504,"북자":10505,"▁추이":10506,"▁보태":10507,"▁김한":10508,"▁심포":10509,"▁기리":10510,"▁금고":10511,"▁상면":10512,"▁흡착":10513,"▁바보":10514,"▁한라":10515,"▁1985":10516,"▁괜히":10517,"에이터":10518,"▁철근":10519,"▁태극기":10520,"▁단정":10521,"▁줄줄이":10522,"필더":10523,"▁특급":10524,"▁미드필더":10525,"▁법칙":10526,"ly":10527,"네스":10528,"▁겐":10529,"45":10530,"72":10531,"▁개그맨":10532,"▁증강":10533,"▁교도소":10534,"▁소식통":10535,"▁스타디움":10536,"▁이낙":10537,"▁쌓여":10538,"▁살포":10539,"▁권장":10540,"▁숨지":10541,"▁가드":10542,"▁원소":10543,"▁;\n":10544,"▁유쾌":10545,"▁관리비":10546,"▁합치":10547,"▁부시":10548,"▁심층":10549,"▁라구":10550,"▁-(":10551,"▁승마":10552,"▁이시":10553,"▁강국":10554,"▁김혜":10555,"▁르노삼성":10556,"▁직결":10557,"33":10558,"▁Cl":10559,"▁관악":10560,"▁이루어진다":10561,"▁윤석열":10562,"▁까진":10563,"▁아모":10564,"▁핵무기":10565,"▁판문":10566,"▁건데\n":10567,"▁수련":10568,"▁신비":10569,"▁기다렸":10570,"Hz":10571,"▁경감":10572,"기술":10573,"▁사회주의":10574,"▁전두":10575,"▁필라":10576,"▁좀처럼":10577,"▁판례":10578,"▁여행사":10579,"▁파도":10580,"▁연차":10581,"▁용융":10582,"▁항구":10583,"▁유류":10584,"내리":10585,"▁증기":10586,"▁증명서":10587,"▁으라":10588,"▁더구나":10589,"▁외상":10590,"▁내세워":10591,"▁우크":10592,"▁맞붙":10593,"▁사생활":10594,"▁그만두":10595,"▁오렌":10596,"▁채팅":10597,"▁변함":10598,"LL":10599,"▁부풀":10600,"▁다고\n":10601,"▁복제":10602,"란트":10603,"ie":10604,"상부":10605,"▁연면적":10606,"▁이낙연":10607,"▁109":10608,"▁포르투갈":10609,"▁스트리":10610,"바라":10611,"▁여수시":10612,"▁검사장":10613,"패드":10614,"▁트랜스":10615,"▁다가\n":10616,"▁용서":10617,"▁시카":10618,"▁빼놓":10619,"▁세션":10620,"ss":10621,"▁김문":10622,"근무":10623,"테이션":10624,"▁두부":10625,"▁유진":10626,"▁리뷰":10627,"프리":10628,"▁본보":10629,"▁토종":10630,"▁저지른":10631,"▁카지노":10632,"▁원회":10633,"▁ᄏᄏᄏᄏᄏᄏᄏᄏᄏᄏᄏᄏᄏ":10634,"▁심혈":10635,"▁일조":10636,"▁제압":10637,"▁대법원장":10638,"65":10639,"▁할수록":10640,"▁신곡":10641,"▁혼인":10642,"▁들으면":10643,"▁노숙":10644,"▁어여":10645,"▁조선소":10646,"▁황당":10647,"▁오마":10648,"▁생물학":10649,"▁바선":10650,"▁결선":10651,"▁성희":10652,"더스":10653,"▁교향":10654,"▁업적":10655,"▁가담":10656,"▁대표단":10657,"▁받아들일":10658,"ark":10659,"▁135":10660,"▁풍선":10661,"▁내구":10662,"▁대동":10663,"▁핀란드":10664,"▁강당":10665,"▁거래일":10666,"▁th":10667,"▁카타르":10668,"▁다량":10669,"▁동반성":10670,"▁오산":10671,"▁후문":10672,"▁EC":10673,"▁생긴다":10674,"▁발족":10675,"▁연중":10676,"▁스태프":10677,"▁법리":10678,"▁하버":10679,"PP":10680,"▁1300":10681,"▁종업":10682,"년층":10683,"▁후퇴":10684,"▁총기":10685,"▁삼국":10686,"▁남미":10687,"▁데이터베이스":10688,"▁바이올":10689,"▁정자":10690,"▁언론인":10691,"▁반짝":10692,"▁단기간":10693,"오르":10694,"▁독성":10695,"▁잃어버":10696,"▁kW":10697,"▁엔지니어링":10698,"▁아크릴":10699,"▁벨기에":10700,"▁파인":10701,"▁레스":10702,"▁되풀이":10703,"▁토너":10704,"▁로그":10705,"▁두꺼":10706,"티아":10707,"▁자책점":10708,"▁어라":10709,"▁영감":10710,"▁여행객":10711,"▁선호도":10712,"두르":10713,"▁국도":10714,"▁헤지":10715,"▁퍼트":10716,"▁와우":10717,"▁엄정":10718,"▁울리":10719,"▁단과":10720,"▁세척":10721,"▁버섯":10722,"▁총생산":10723,"▁뉴타운":10724,"▁군청":10725,"▁대인":10726,"▁일회":10727,"▁128":10728,"▁튼튼":10729,"ry":10730,"▁관문":10731,"▁종결":10732,"▁대덕":10733,"▁운수":10734,"▁배신":10735,"▁포항시":10736,"▁초보":10737,"▁양사":10738,"▁신청자":10739,"▁주춤":10740,"▁원로":10741,"▁시어":10742,"▁메신저":10743,"▁돌연":10744,"▁보령":10745,"▁버락":10746,"▁기저":10747,"▁전문의":10748,"▁일어":10749,"▁아연":10750,"▁고치":10751,"▁농약":10752,"▁비로":10753,"▁부산대":10754,"▁특색":10755,"의사":10756,"▁쇠고기":10757,"▁운영비":10758,"ork":10759,"▁예술인":10760,"▁알림":10761,"▁날카":10762,"▁기관장":10763,"▁후손":10764,"▁바로잡":10765,"▁주권":10766,"▁노르웨이":10767,"▁원서":10768,"▁멋지":10769,"▁이소":10770,"▁기세":10771,"▁평판":10772,"▁캐주얼":10773,"▁랫":10774,"▁백두":10775,"▁공용":10776,"▁정조":10777,"▁라이벌":10778,"▁CA":10779,"▁공표":10780,"▁특보":10781,"▁놓인":10782,"엔자":10783,"▁마드리드":10784,"▁유병":10785,"▁드라이":10786,"▁올스타":10787,"▁애매":10788,"▁하나하나":10789,"▁식민지":10790,"ystem":10791,"▁중국어":10792,"시험":10793,"▁신속히":10794,"▁이대호":10795,"▁태그":10796,"▁달라질":10797,"▁ᄏᄏᄏᄏᄏᄏᄏᄏᄏᄏᄏᄏ\n":10798,"▁루타":10799,"▁거액":10800,"▁장갑":10801,"빨리":10802,"▁와이파이":10803,"▁던진":10804,"루엔자":10805,"야구":10806,"▁판문점":10807,"▁상관없":10808,"▁골퍼":10809,"▁깨닫":10810,"▁맥스":10811,"수소":10812,"▁휘발유":10813,"▁결집":10814,"▁인선":10815,"▁토트":10816,"▁불행":10817,"▁할리우드":10818,"▁이겼":10819,"▁막히":10820,"▁도보":10821,"▁해리":10822,"▁kt":10823,"연맹":10824,"▁지칭":10825,"▁인플루엔자":10826,"▁품격":10827,"ep":10828,"▁김인":10829,"▁터졌":10830,"▁남산":10831,"▁정한다":10832,"▁이이":10833,"▁장부":10834,"▁진통":10835,"▁생각나":10836,"▁압수":10837,"▁질량":10838,"▁오락":10839,"▁발상":10840,"▁오징어":10841,"▁전시장":10842,"▁대성":10843,"▁어면":10844,"MO":10845,"▁화성시":10846,"▁107":10847,"15":10848,"▁폭락":10849,"▁소설가":10850,"▁종업원":10851,"▁대리인":10852,"▁한옥":10853,"▁폴리머":10854,"▁돼지고기":10855,"▁가꾸":10856,"▁가르쳐":10857,"▁잡아":10858,"▁키울":10859,"32":10860,"▁문턱":10861,"▁번거":10862,"io":10863,"▁재택":10864,"▁....\n":10865,"▁태세":10866,"잡이":10867,"▁돌이":10868,"▁우량":10869,"▁ᄋᄋᄋ":10870,"▁1984":10871,"▁지하수":10872,"▁혼합물":10873,"▁성희롱":10874,"래\n":10875,"▁어두운":10876,"▁가문":10877,"▁관련자":10878,"▁들어설":10879,"▁사임":10880,"▁약하":10881,"▁천사":10882,"▁보호자":10883,"▁한결":10884,"▁SO":10885,"▁시위대":10886,"습기":10887,"▁공수":10888,"▁을까\n":10889,"▁아이언":10890,"▁비비":10891,"▁끌어들":10892,"▁천주":10893,"▁접전":10894,"▁화석":10895,"▁1600":10896,"▁안산시":10897,"erm":10898,"▁씨\n":10899,"▁대단히":10900,"▁>,":10901,"▁큰일":10902,"▁토출":10903,"▁정경":10904,"▁MP":10905,"▁승무원":10906,"ear":10907,"▁들여다보":10908,"▁늘어":10909,"▁전작":10910,"▁유기농":10911,"포트":10912,"▁접착제":10913,"rans":10914,"▁악용":10915,"▁부결":10916,"▁포천":10917,"▁김윤":10918,"▁환호":10919,"TC":10920,"▁전광":10921,"▁수감":10922,"▁드려요":10923,"▁320":10924,"▁기점":10925,"▁비유":10926,"민주":10927,"▁구급":10928,"▁국무부":10929,"▁빈도":10930,"▁항로":10931,"▁다구":10932,"▁때려":10933,"▁간장":10934,"▁각기":10935,"▁신작":10936,"▁후유증":10937,"▁지리산":10938,"▁PGA":10939,"▁1982":10940,"▁DMZ":10941,"▁체어":10942,"▁문체":10943,"▁권단":10944,"▁아우르":10945,"▁도래":10946,"▁전례":10947,"▁돌아갔":10948,"▁오토바이":10949,"▁만찬":10950,"▁사우디":10951,"팩트":10952,"▁한시":10953,"▁OS":10954,"▁개막식":10955,"▁중위":10956,"▁무겁":10957,"▁돌풍":10958,"▁취할":10959,"▁줄기세포":10960,";;":10961,"▁동지":10962,"▁몰렸":10963,"▁드린":10964,"▁로우":10965,"▁선형":10966,"▁줄곧":10967,"▁방북":10968,"▁재검":10969,"▁남아공":10970,"▁건네":10971,"▁털어놨":10972,"▁sp":10973,"▁역점":10974,"▁트리플":10975,"▁오렌지":10976,"▁남측":10977,"▁맞물려":10978,"▁액화":10979,"▁생활비":10980,"▁상수도":10981,"▁마진":10982,"▁키웠":10983,"▁사범":10984,"▁크라":10985,"▁보물섬":10986,"▁써서":10987,"▁격상":10988,"▁도금":10989,"루스":10990,"▁스테이트":10991,"▁반지":10992,"▁공채":10993,"▁출고":10994,"▁증축":10995,"te":10996,"축구":10997,"▁더위":10998,"▁냉매":10999,"▁법학":11000,"▁전장":11001,"▁표출":11002,"▁러드":11003,"▁익명":11004,"ance":11005,"▁베어링":11006,"▁기본법":11007,"▁보습":11008,"▁키움":11009,"▁탄산":11010,"▁상하이":11011,"12":11012,"엔날레":11013,"▁한다며":11014,"▁..”":11015,"▁루프":11016,"▁밀폐":11017,"▁전투기":11018,"▁보디아":11019,"▁손자":11020,"▁부끄러":11021,"▁선보여":11022,"방향":11023,"▁고강":11024,"▁적폐":11025,"▁대명":11026,"▁권영":11027,"▁적재":11028,"▁연마":11029,"▁기득":11030,"▁비춰":11031,"▁서산":11032,"▁아니한":11033,"▁던가":11034,"▁상류":11035,"▁합금":11036,"▁유익":11037,"▁욱":11038,"▁펼친":11039,"▁지금\n":11040,"▁라즈":11041,"▁음극":11042,"▁운임":11043,"▁분수":11044,"▁융자":11045,"▁강북":11046,"▁청정기":11047,"▁기르":11048,"▁사법부":11049,"per":11050,"ver":11051,"보험":11052,"▁방면":11053,"▁지성":11054,"▁기동":11055,"▁전한":11056,"▁MI":11057,"▁ml":11058,"▁주시":11059,"▁이뤄져야":11060,"▁그래\n":11061,"▁착각":11062,"▁종편":11063,"▁On":11064,"▁나이트":11065,"▁시레이션":11066,"▁포드":11067,"▁지주회사":11068,"▁광교":11069,"▁쓴다":11070,"▁경영학":11071,"▁배임":11072,"▁발음":11073,"▁셀프":11074,"▁정주":11075,"▁용인시":11076,"▁갈까":11077,"▁통신부":11078,"▁아리랑":11079,"▁구독자":11080,"▁KE":11081,"▁김은":11082,"▁마산회":11083,"▁행운":11084,"▁신념":11085,"▁소망":11086,"▁공통점":11087,"▁말리":11088,"▁알렉":11089,"▁잉크":11090,"HD":11091,"▁가처분":11092,"▁우체국":11093,"▁영농":11094,"▁객체":11095,"▁함정":11096,"▁담임":11097,"▁법상":11098,"타리":11099,"▁1800":11100,"▁시료":11101,"▁지름":11102,"▁ac":11103,"▁무안":11104,"▁132":11105,"▁정세균":11106,"▁항쟁":11107,"▁자르":11108,"▁당정":11109,"▁사막":11110,"▁주어진":11111,"▁더라구":11112,"▁렀다":11113,"세이":11114,"▁무난":11115,"▁조용히":11116,"▁성장률":11117,"▁돌보":11118,"▁아서\n":11119,"▁가변":11120,"▁가칭":11121,"▁법규":11122,"▁이완":11123,"▁서술":11124,"▁릿":11125,"▁저게":11126,"▁아유":11127,"▁구직자":11128,"▁조영":11129,"▁이장":11130,"▁안타까운":11131,"▁순회":11132,"▁목동":11133,"▁장난감":11134,"▁발부":11135,"▁숨기":11136,"▁부친":11137,"▁배부":11138,"▁어색":11139,"▁메카":11140,"나물":11141,"드라마":11142,"▁인허가":11143,"▁연락처":11144,"게임":11145,"▁전처":11146,"▁통학":11147,"▁개교":11148,"▁원통":11149,"▁여배우":11150,"▁동메달":11151,"▁Inter":11152,"▁의성":11153,"▁입문":11154,"▁용의자":11155,"노총":11156,"▁116":11157,"▁윈도우":11158,"▁넘나":11159,"▁수성구":11160,"바꿈":11161,"▁넘긴":11162,"▁치렀":11163,"▁거창":11164,"▁밀어붙":11165,"PA":11166,"▁이쁜":11167,"가족":11168,"▁빌라":11169,"▁순찰":11170,"▁바나":11171,"하이":11172,"▁플래시":11173,"▁은폐":11174,"▁차려":11175,"▁따돌":11176,"ust":11177,"▁수물":11178,"스틱":11179,"수원":11180,"▁기업가":11181,"▁빠질":11182,"▁리콜":11183,"기부":11184,"▁행하":11185,"▁부식":11186,"▁경마":11187,"▁준다고":11188,"벌이":11189,"▁본회":11190,"▁승강장":11191,"▁차입":11192,"▁급하":11193,"▁시연":11194,"▁검역":11195,"▁자정":11196,"▁컴퓨팅":11197,"▁메이커":11198,"▁지친":11199,"▁너희":11200,"▁훈장":11201,"▁민영화":11202,"▁DS":11203,"▁넥슨":11204,"▁서귀":11205,"▁매직":11206,"▁추운":11207,"▁소진":11208,"모비스":11209,"만금":11210,"희정":11211,"▁멘토링":11212,"▁은메달":11213,"▁아이콘":11214,"워\n":11215,"▁수다":11216,"▁상설":11217,"55":11218,"92":11219,"▁김제":11220,"▁인텔":11221,"▁답니다":11222,"▁실수요":11223,"▁영하":11224,"▁산행":11225,"▁노스":11226,"▁어학":11227,"▁실세":11228,"▁교차로":11229,"▁`\n":11230,"▁현대모비스":11231,"▁견디":11232,"▁으면\n":11233,"학규":11234,"▁랜드마크":11235,"▁지켜야":11236,"▁행안":11237,"▁전염병":11238,"▁정직":11239,"▁구직":11240,"▁전두환":11241,"▁넘쳐":11242,"▁330":11243,"▁CNN":11244,"▁안겨":11245,"▁마셔":11246,"▁아키":11247,"▁기밀":11248,"▁Sp":11249,"▁위력":11250,"▁겹쳐":11251,"이도":11252,"▁김일성":11253,"▁예민":11254,"▁금전":11255,"▁경상북도":11256,"▁노\n":11257,"▁오스":11258,"▁경쟁사":11259,"▁복지부":11260,"▁부속":11261,"▁센트럴":11262,"▁적혀":11263,"▁리라":11264,"▁손목":11265,"▁MD":11266,"▁실은":11267,"▁새만금":11268,"▁소관":11269,"▁인스":11270,"▁탈바꿈":11271,"▁비준":11272,"▁조상":11273,"▁애인":11274,"와이":11275,"▁짐작":11276,"▁숨졌":11277,"▁텍스트":11278,"▁불출마":11279,"▁Pl":11280,"▁다시피":11281,"▁부응":11282,"▁수익금":11283,"▁색소":11284,"▁신지":11285,"▁만두":11286,"▁승자":11287,"▁미성":11288,"▁왕자":11289,"▁꼽혔":11290,"▁증식":11291,"▁급변":11292,"▁나비":11293,"▁기원전":11294,"▁화요일":11295,"▁체온":11296,"▁농담":11297,"▁Te":11298,"▁커넥터":11299,"▁2023":11300,"호영":11301,"▁세르":11302,"▁부피":11303,"▁서귀포":11304,"▁동월":11305,"▁nm":11306,"▁홍대":11307,"▁맡겨":11308,"▁반입":11309,"▁헤이":11310,"▁도저히":11311,"▁1983":11312,"테일":11313,"▁올라온":11314,"▁수축":11315,"킨다":11316,"▁개개인":11317,"▁이대로":11318,"▁후진":11319,"▁자아냈":11320,"74":11321,"▁가야":11322,"▁남도":11323,"▁화가":11324,"▁주니어":11325,"▁국공":11326,"▁스케이팅":11327,"▁포로":11328,"▁지중":11329,"▁토트넘":11330,"▁호전":11331,"▁ML":11332,"▁안면":11333,"▁식구":11334,"▁지킬":11335,"▁위헌":11336,"▁남짓":11337,"▁로버트":11338,"▁고립":11339,"▁피드백":11340,"▁정렬":11341,"▁경정":11342,"▁탈북자":11343,"▁상거래":11344,"▁공사비":11345,"▁발산":11346,"관리본부":11347,"▁일으킬":11348,"▁김밥":11349,"76":11350,"▁노예":11351,"▁경기력":11352,"▁남매":11353,"▁고흥":11354,"▁기용":11355,"▁고법":11356,"▁특산물":11357,"▁꾸미":11358,"▁지휘자":11359,"▁증서":11360,"▁려던":11361,"▁엘리트":11362,"▁치밀":11363,"▁잔여":11364,"▁한양대":11365,"▁입상":11366,"▁형법":11367,"▁일행":11368,"▁내세웠":11369,"▁정준":11370,"▁데이비드":11371,"▁낙관":11372,"18":11373,"▁보성":11374,"▁정재":11375,"▁김원":11376,"▁신영":11377,"▁RF":11378,"▁잡혀":11379,"▁118":11380,"▁로선":11381,"▁어이":11382,"▁겁니까":11383,"타이":11384,"▁필지":11385,"▁막말":11386,"▁~~~\n":11387,"▁기일":11388,"▁자생":11389,"▁ᅳᅳ\n":11390,"내셔널":11391,"▁모기":11392,"▁설레":11393,"▁이라도":11394,"▁압축기":11395,"▁교보":11396,"▁오호":11397,"▁유수":11398,"▁야채":11399,"▁다이아몬드":11400,"▁스파이":11401,"▁사제":11402,"▁가솔":11403,"▁인터내셔널":11404,"▁상응":11405,"▁친정":11406,"▁김세":11407,"▁수개":11408,"▁석방":11409,"버리":11410,"▁용매":11411,"너무":11412,"▁드로":11413,"겹살":11414,"▁질병관리본부":11415,"▁속출":11416,"▁해남":11417,"ᅮ\n":11418,"▁소명":11419,"▁내려놓":11420,"▁서방":11421,"네마":11422,"▁이양":11423,"▁촉발":11424,"체스터":11425,"▁실외":11426,"▁다름없":11427,"▁욕설":11428,"▁접대":11429,"▁경산":11430,"MP":11431,"▁듬":11432,"▁여학생":11433,"▁태백":11434,"▁마산회원구":11435,"▁실화":11436,"▁충성":11437,"시스코":11438,"사태":11439,"▁1400":11440,"프레":11441,"▁피지":11442,"▁구강":11443,"▁도배":11444,"▁집필":11445,"▁껴":11446,"▁바스":11447,"▁전대":11448,"▁현대제철":11449,"▁소용":11450,"▁쌓이":11451,"승환":11452,"▁직위":11453,"▁고비":11454,"▁삼겹살":11455,"모토":11456,"▁’.":11457,"▁경색":11458,"48":11459,"▁불거진":11460,"해야":11461,"▁절제":11462,"▁피겨":11463,"▁경희대":11464,"▁상점":11465,"▁선장":11466,"▁후보지":11467,"▁어야지":11468,"▁지나친":11469,"▁내성":11470,"▁박경":11471,"▁프란시스코":11472,"▁니까요":11473,"▁속성":11474,"▁스위칭":11475,"▁거주자":11476,"▁3500":11477,"▁번영":11478,"▁방법\n":11479,"ode":11480,"▁연기자":11481,"▁1979":11482,"▁가이":11483,"▁평행":11484,"▁성원":11485,"▁합창단":11486,"▁누락":11487,"▁백성":11488,"▁그렸":11489,"▁임하":11490,"▁연준":11491,"무실":11492,"78":11493,"정동":11494,"▁월간":11495,"▁로움":11496,"원지":11497,"▁감탄":11498,"▁그림자":11499,"▁임시회":11500,"▁아녀":11501,"▁145":11502,"▁완주":11503,"▁필자":11504,"▁선동":11505,"▁본지":11506,"▁근데\n":11507,"▁시력":11508,"▁가라앉":11509,"▁이마":11510,"▁럼":11511,"▁하차":11512,"▁마루":11513,"겨운":11514,"▁가솔린":11515,"▁집착":11516,"▁이관":11517,"▁태안":11518,"▁상황실":11519,"▁어촌":11520,"▁접점":11521,"▁별지":11522,"▁카트":11523,"▁김학":11524,"▁교통안전":11525,"▁사육":11526,"▁카테":11527,"▁무분":11528,"▁TO":11529,"▁Si":11530,"▁자궁":11531,"▁비해서":11532,"남동":11533,"▁동산":11534,"▁최정":11535,"▁영문":11536,"▁감염자":11537,"레오":11538,"▁고품질":11539,"▁외고":11540,"▁나흘":11541,"▁알레르기":11542,"▁피력":11543,"▁보라":11544,"바겐":11545,"가치":11546,"▁화순":11547,"▁괴물":11548,"▁남대":11549,"71":11550,"▁본연":11551,"▁막혀":11552,"▁스페이스":11553,"▁옥수수":11554,"진구":11555,"▁촉촉":11556,"▁종가":11557,"노이":11558,"▁양대":11559,"▁냉천":11560,"▁손학규":11561,"▁비법":11562,"소통":11563,"79":11564,"레일":11565,"▁UAE":11566,"▁간직":11567,"▁근린":11568,"▁배드":11569,"▁분단":11570,"▁수첩":11571,"▁프린터":11572,"▁부수":11573,"▁설마":11574,"▁대접":11575,"▁장교":11576,"▁상선":11577,"▁엄청나":11578,"42":11579,"▁불법행위":11580,"▁오로지":11581,"▁연주자":11582,"▁받침":11583,"▁리우":11584,"▁그릴":11585,"▁방송인":11586,"▁처우":11587,"▁구민":11588,"기\n":11589,"▁차명":11590,"▁양양":11591,"▁여정":11592,"▁만세":11593,"▁청도":11594,"▁결의안":11595,"▁메탈":11596,"▁트레이닝":11597,"ᄏᄏᄏ\n":11598,"▁노래방":11599,"▁핸들":11600,"▁상륙":11601,"▁버릴":11602,"▁모리":11603,"▁내비쳤":11604,"순환":11605,"키아":11606,"▁취득세":11607,"▁후쿠시마":11608,"▁며느리":11609,"▁나타낸다":11610,"▁유착":11611,"▁병상":11612,"▁발걸음":11613,"▁판독":11614,"▁am":11615,"▁벽면":11616,"▁생략":11617,"▁사령탑":11618,"▁피스톤":11619,"62":11620,"▁국유":11621,"▁걸린다":11622,"암동":11623,"▁AD":11624,"벨트":11625,"▁동창":11626,"▁직격":11627,"▁국한":11628,"▁이승엽":11629,"▁나간다":11630,"▁라기":11631,"청사":11632,"▁브로드":11633,"▁안주":11634,"▁존슨":11635,"▁바빠":11636,"▁사업주":11637,"▁거쳐야":11638,"68":11639,"특별":11640,"49":11641,"미디어":11642,"ith":11643,"▁담화":11644,"▁취한":11645,"텍스":11646,"▁포용":11647,"▁밥상":11648,"▁극히":11649,"▁프로필":11650,"▁WHO":11651,"티지":11652,"▁폭스바겐":11653,"▁지반":11654,"▁럭셔":11655,"티스":11656,"▁어머님":11657,"▁내셔널":11658,"▁빨래":11659,"▁대의원":11660,"포동":11661,"▁'.":11662,"▁통역":11663,"▁체내":11664,"▁방사능":11665,"▁무작":11666,"렇게":11667,"▁럭셔리":11668,"▁모험":11669,"▁향토":11670,"▁나다":11671,"▁재래":11672,"▁스미":11673,"▁다가가":11674,"▁주공":11675,"▁원한다":11676,"▁크레인":11677,"▁이은":11678,"▁CH":11679,"▁오른다":11680,"▁영수":11681,"▁발표회":11682,"▁스어":11683,"▁유정":11684,"▁치료법":11685,"▁Li":11686,"▁해수부":11687,"▁어렸":11688,"▁Co":11689,"▁학살":11690,"▁무실":11691,"▁지청":11692,"▁토목":11693,"▁모순":11694,",,":11695,"▁월평균":11696,"▁가미":11697,"▁일본어":11698,"▁강서구":11699,"▁도우미":11700,"▁희귀":11701,"▁반격":11702,"▁시카고":11703,"▁부탁드":11704,"▁검장":11705,"▁정가":11706,"▁조선업":11707,"▁종자":11708,"13":11709,"▁플러":11710,"▁보직":11711,"▁유량":11712,"▁딱딱":11713,"▁정장":11714,"▁거둘":11715,"▁차등":11716,"▁..?\n":11717,"▁미주":11718,"▁직영":11719,"▁프로듀":11720,"▁모욕":11721,"▁피싱":11722,"▁진작":11723,"▁신앙":11724,"▁마법":11725,"▁열흘":11726,"▁옥외":11727,"플릭스":11728,"▁지루":11729,"▁지방분":11730,"▁엉덩이":11731,"▁액세서리":11732,"식간":11733,"▁원산지":11734,"려\n":11735,"▁사위":11736,"▁코칭":11737,"▁찾아온":11738,"▁현대인":11739,"▁의사소통":11740,"▁나경":11741,"▁넷플릭스":11742,"▁약관":11743,"▁된장":11744,"언스":11745,"▁손잡이":11746,"▁진이":11747,"▁스코어":11748,"▁동굴":11749,"▁270":11750,"▁드러낸":11751,"▁부두":11752,"▁단연":11753,"▁감옥":11754,"▁삼성증권":11755,"▁천안시":11756,"▁천주교":11757,"▁사무국":11758,"▁프로듀서":11759,"레나":11760,"▁영종":11761,"▁써\n":11762,"▁선체":11763,"▁이태원":11764,"▁대왕":11765,"▁얼리":11766,"▁불명":11767,"▁낭만":11768,"▁떠오른":11769,"▁모호":11770,"▁구자":11771,"나와":11772,"▁그쪽":11773,"▁이불":11774,"▁..?":11775,"▁털어놓":11776,"▁견고":11777,"▁법무법인":11778,"비치":11779,"▁구이":11780,"부인":11781,"▁은근":11782,"▁TK":11783,"▁ELS":11784,"▁고로":11785,"▁환산":11786,"▁아토":11787,"▁질타":11788,"uct":11789,"▁루트":11790,"73":11791,"▁NO":11792,"▁으\n":11793,"▁택트":11794,"▁바꿔야":11795,"▁로컬":11796,"▁일당":11797,"ric":11798,"▁지부장":11799,"▁말라":11800,"▁원동력":11801,"▁내밀":11802,"▁유가증권":11803,"▁수월":11804,"▁주머니":11805,"프로":11806,"▁저서":11807,"RT":11808,"▁아니야":11809,"▁관절염":11810,"▁적힌":11811,"▁주당":11812,"▁이세":11813,"▁분주":11814,"▁교내":11815,"▁에드":11816,"▁간소":11817,"▁뱅킹":11818,"그라":11819,"▁불렸":11820,"▁1100":11821,"▁가져올":11822,"▁영예":11823,"BM":11824,"▁평창동":11825,"물질":11826,"▁초코":11827,"▁어플":11828,"▁디테일":11829,"▁물결":11830,"저기":11831,"▁루이스":11832,"▁자막":11833,"▁특가":11834,"▁술부":11835,"▁전해질":11836,"▁가져야":11837,"▁음모":11838,"▁고충":11839,"▁잠수함":11840,"▁고위급":11841,"▁농수":11842,"▁무더위":11843,"▁스노":11844,"▁동반자":11845,"플레이션":11846,"▁대용량":11847,"공화":11848,"▁어플리케이션":11849,"▁on":11850,"▁공짜":11851,"▁파동":11852,"▁휴게소":11853,"▁포크":11854,"▁져서":11855,"▁무궁":11856,"▁톡톡히":11857,"▁단골":11858,"▁365":11859,"▁주지":11860,"are":11861,"▁표방":11862,"▁돌아갈":11863,"▁청량":11864,"▁채무자":11865,"▁커서":11866,"▁장애물":11867,"▁성산":11868,"▁민법":11869,"▁포화":11870,"는데":11871,"▁스트럼":11872,"▁경향신문":11873,"▁액세스":11874,"▁소방관":11875,"▁팬츠":11876,"▁스케일":11877,"▁사표":11878,"▁시아":11879,"▁뒤지":11880,"▁기탁":11881,"▁캐시":11882,"▁단열":11883,"▁리티":11884,"▁마포구":11885,"▁동명":11886,"▁해저":11887,"▁기류":11888,"▁경쟁자":11889,"▁수정안":11890,"▁한데\n":11891,"▁김남":11892,"▁그래서\n":11893,"▁꼼수":11894,"▁쏟아졌":11895,"▁플라이":11896,"95":11897,"▁고령자":11898,"집니다":11899,"▁길거리":11900,"▁연구회":11901,"▁일으켜":11902,"▁출현":11903,"▁담장":11904,"▁울진":11905,"eth":11906,"▁흑흑":11907,"▁습득":11908,"▁금산":11909,"▁순식간":11910,"PC":11911,"▁체조":11912,"도\n":11913,"▁석면":11914,"▁리바운드":11915,"▁일보":11916,"▁사관":11917,"조리":11918,"▁저리":11919,"▁1981":11920,"▁아우디":11921,"▁관념":11922,"se":11923,"▁임종":11924,"▁공개\n":11925,"pt":11926,"▁거꾸":11927,"일러":11928,"63":11929,"정부":11930,"투자":11931,"▁거북":11932,"▁또래":11933,"▁xx":11934,"▁지르":11935,"▁혼잡":11936,"▁뒤따":11937,"▁돌렸":11938,"▁뮤지션":11939,"▁자질":11940,"▁기종":11941,"▁WO":11942,"▁박준":11943,"▁려다":11944,"▁누수":11945,"▁133":11946,"▁제네시스":11947,"▁가설":11948,"▁방제":11949,"대장":11950,"▁재판장":11951,"▁반문":11952,"▁반값":11953,"▁승소":11954,"▁연재":11955,"마다":11956,"▁후면":11957,"▁여행지":11958,"▁디즈":11959,"▁보선":11960,"int":11961,"▁185":11962,"▁한인":11963,"▁군단":11964,"▁코엑스":11965,"▁웅진":11966,"▁들어선다":11967,"▁버블":11968,"▁모은다":11969,"▁경로당":11970,"▁렸":11971,"▁대란":11972,"▁전라남도":11973,"▁당권":11974,"▁시켜서":11975,"▁현명":11976,"▁출품":11977,"금융":11978,"▁코디":11979,"▁블레이드":11980,"▁실수요자":11981,"▁원룸":11982,"▁레시":11983,"▁방울":11984,"▁블룸":11985,"▁280":11986,"▁홈경기":11987,"▁어스":11988,"▁회고":11989,"▁김해시":11990,"▁살아나":11991,"▁페널":11992,"동생":11993,"▁루이":11994,"▁언덕":11995,"▁탄도":11996,"▁당첨자":11997,"▁자석":11998,"▁슬리":11999,"▁그대":12000,"▁다뤄":12001,"부진":12002,"▁다닌":12003,"▁임박":12004,"▁습도":12005,"▁사죄":12006,"▁책임감":12007,"43":12008,"▁파스":12009,"▁달할":12010,"어붙":12011,"▁거든\n":12012,"▁강소":12013,"▁높인":12014,"▁잠들":12015,"▁무언":12016,"▁최상위":12017,"▁맨체스터":12018,"▁한발":12019,"▁끼치":12020,"▁찾아와":12021,"▁위배":12022,"▁여기저기":12023,"▁TH":12024,"▁어서다":12025,"▁도미":12026,"▁친일":12027,"▁농작":12028,"사관":12029,"▁용해":12030,"▁안보리":12031,"▁스티커":12032,"▁아쿠":12033,"▁옹호":12034,"▁기공":12035,"▁보답":12036,"미경":12037,"▁다변":12038,"▁Bl":12039,"▁웅웅\n":12040,"▁우측":12041,"▁열쇠":12042,"▁절망":12043,"▁정차":12044,"▁다던":12045,"▁우승자":12046,"▁박주영":12047,"▁창설":12048,"▁불허":12049,"포터":12050,"▁기미":12051,"▁외벽":12052,"61":12053,"▁거칠":12054,"▁가결":12055,"25":12056,"▁스팀":12057,"▁영산":12058,"▁길러":12059,"▁승률":12060,"▁민경":12061,"▁거꾸로":12062,"▁현저히":12063,"▁외형":12064,"▁입소문":12065,"▁조장":12066,"▁미지수":12067,"▁성찰":12068,"▁260":12069,"▁부령":12070,"▁베드":12071,"▁비단":12072,"ile":12073,"▁도리":12074,"▁서강":12075,"▁사용료":12076,"▁모스크":12077,"▁MA":12078,"▁만지":12079,"▁광저우":12080,"▁정계":12081,"▁관광공사":12082,"▁내줬":12083,"▁무분별":12084,"▁항생":12085,"미안":12086,"▁분화":12087,"▁기침":12088,"▁교훈":12089,"▁코믹":12090,"▁환매":12091,"▁신뢰도":12092,"▁퍼져":12093,"▁피우":12094,"▁한상":12095,"▁하버드":12096,"▁커진":12097,"▁즉석":12098,"▁스퍼":12099,"▁순조":12100,"예산":12101,"▁터보":12102,"▁치를":12103,"ire":12104,"▁오리지":12105,"GB":12106,"▁마니아":12107,"▁불쌍":12108,"위치":12109,"ock":12110,"▁개미":12111,"▁칠레":12112,"▁막바지":12113,"디스":12114,"▁듭니다":12115,"▁문화재청":12116,"▁브이":12117,"RS":12118,"▁이점":12119,"▁카리스":12120,"▁일감":12121,"▁드문":12122,"▁마세요":12123,"anc":12124,"▁초선":12125,"▁소품":12126,"▁익히":12127,"▁호가":12128,"▁장남":12129,"▁부통령":12130,"▁안전망":12131,"▁삼척":12132,"▁BN":12133,"▁아이패드":12134,"▁마냥":12135,"▁임차인":12136,"▁이면":12137,"▁마실":12138,"▁좌표":12139,"▁씨앗":12140,"▁의료비":12141,"▁오너":12142,"▁합당":12143,"▁엔트리":12144,"현동":12145,"▁전승":12146,"▁생산자":12147,"▁애널":12148,"▁전성기":12149,"▁요령":12150,"▁녀석":12151,"▁실종자":12152,"▁편향":12153,"▁프로그래":12154,"▁익산":12155,"▁아모레":12156,"▁NY":12157,"▁직속":12158,"▁주택가":12159,"▁햇빛":12160,"▁알릴":12161,"▁친근":12162,"▁ᄏᄏᄏᄏᄏᄏᄏᄏᄏᄏᄏᄏᄏ\n":12163,"▁165":12164,"▁이순신":12165,"▁약사":12166,"▁온몸":12167,"▁이야말로":12168,"▁밝힐":12169,"사리":12170,"▁변론":12171,"▁가급":12172,"▁영남대":12173,"▁대요":12174,"▁우스":12175,"▁실기":12176,"▁에릭":12177,"▁청소기":12178,"▁Sc":12179,"▁전망대":12180,"▁영덕":12181,"▁지원\n":12182,"▁거쳤":12183,"▁매경":12184,"풍기":12185,"▁불복":12186,"▁동전":12187,"ann":12188,"▁파행":12189,"▁나타낸":12190,"▁KD":12191,"▁KAIST":12192,"▁개표":12193,"▁그늘":12194,"▁릭":12195,"▁요트":12196,"▁마술":12197,"▁판타지":12198,"ug":12199,"▁교환기":12200,"▁모였":12201,"▁올라와":12202,"▁’)":12203,"▁후계":12204,"▁전념":12205,"▁요거":12206,"▁시니어":12207,"ational":12208,"▁되돌아":12209,"▁도주":12210,"▁인격":12211,"oly":12212,"▁라운":12213,"▁급수":12214,"▁걸까":12215,"▁잡음":12216,"▁회차":12217,"▁비로소":12218,"▁배움":12219,"▁브레인":12220,"41":12221,"▁세분":12222,"▁공안":12223,"▁직격탄":12224,"백화점":12225,"▁숙성":12226,"NC":12227,"▁다치":12228,"▁태우":12229,"▁750":12230,"▁튜버":12231,"▁왕조":12232,"▁플러그":12233,"▁셜":12234,"▁후지":12235,"▁아오":12236,"▁용적":12237,"▁의존도":12238,"관리위원회":12239,"▁정수기":12240,"▁전주시":12241,"▁원상":12242,"▁끝날":12243,"▁수박":12244,"▁평상":12245,"▁심야":12246,"▁BB":12247,"▁말투":12248,"▁신진":12249,"▁방사성":12250,"연구원":12251,"▁글리":12252,"▁총무":12253,"▁성명서":12254,"26":12255,"▁상봉":12256,"▁김유":12257,"▁대내":12258,"▁돌아다니":12259,"▁안무":12260,"▁다투":12261,"▁텐데\n":12262,"▁담아":12263,"▁은가":12264,"공화국":12265,"▁미혼":12266,"▁것\n":12267,"▁LPG":12268,"▁광물":12269,"▁동두":12270,"▁하나님":12271,"ex":12272,"▁요시":12273,"▁견학":12274,"▁사도":12275,"▁상회":12276,"▁마력":12277,"▁벌인다":12278,"▁도로공사":12279,"▁만전":12280,"▁문단":12281,"▁백인":12282,"▁문인":12283,"용수":12284,"▁연전":12285,"▁진정한":12286,"98":12287,"▁벗어난":12288,"▁영등포":12289,"▁폭우":12290,"▁선거관리위원회":12291,"구리":12292,"ory":12293,"▁화산":12294,"베리":12295,"▁재검토":12296,"ME":12297,"▁카리스마":12298,"▁한파":12299,"▁스폰":12300,"▁해야\n":12301,"▁예정자":12302,"▁가급적":12303,"▁복권":12304,"▁어레이":12305,"LA":12306,"▁주어진다":12307,"▁으라고":12308,"승부":12309,"▁전구":12310,"▁그쳐":12311,"▁주어지":12312,"▁상급":12313,"▁기준치":12314,"▁손길":12315,"▁내시경":12316,"▁가로막":12317,"▁잠금":12318,"▁급기":12319,"시티":12320,"▁폭풍":12321,"▁가전제품":12322,"▁알선":12323,"▁퇴원":12324,"▁가마":12325,"체육":12326,"▁가로등":12327,"▁검색어":12328,"olog":12329,"▁연수원":12330,"포츠":12331,"▁명함":12332,"▁액상":12333,"▁CT":12334,"▁활동가":12335,"▁토토":12336,"▁KS":12337,"▁아버":12338,"▁챙긴":12339,"▁모토":12340,"▁낙후":12341,"▁항해":12342,"▁회상":12343,"▁곡물":12344,"▁적절히":12345,"▁수식":12346,"▁어워드":12347,"▁챙겼":12348,"플렉스":12349,"▁테슬라":12350,"▁유신":12351,"▁자이언":12352,"▁베리":12353,"▁우연":12354,"▁양승":12355,"▁해병대":12356,"▁전한다":12357,"▁가명":12358,"▁초월":12359,"▁이뤄져":12360,"▁준용":12361,"▁Ph":12362,"▁자구":12363,"▁......":12364,"▁연탄":12365,"▁프린트":12366,"▁민국":12367,"▁파기":12368,"▁활짝":12369,"▁경주시":12370,"▁최영":12371,"▁사학":12372,"▁옮긴":12373,"▁IOC":12374,"▁푸틴":12375,"▁대표자":12376,"카락":12377,"▁필기":12378,"▁공관":12379,"▁머리카락":12380,"행사":12381,"쟁이":12382,"▁계명":12383,"▁방송국":12384,"▁초미":12385,"▁고창":12386,"▁흘러나":12387,"▁트로피":12388,"▁가져다":12389,"▁나트":12390,"▁UEFA":12391,"AA":12392,"TT":12393,"▁다발":12394,"가정":12395,"▁특권":12396,"▁박찬호":12397,"▁바우":12398,"▁본조":12399,"마켓":12400,"베르":12401,"▁인민공화국":12402,"▁머릿":12403,"▁sh":12404,"▁탁구":12405,"▁최재":12406,"▁출사":12407,"▁명명":12408,"net":12409,"▁제약사":12410,"▁부산항":12411,"▁!!!\n":12412,"▁염원":12413,"▁안양시":12414,"▁새겨":12415,"▁이해찬":12416,"▁청주시":12417,"▁지난번":12418,"아\n":12419,"▁de":12420,"▁다녀오":12421,"▁더군요":12422,"▁러스":12423,"▁테라":12424,"무게":12425,"▁염기":12426,"▁완도":12427,"▁친분":12428,"▁양현":12429,"니깐":12430,"여겨":12431,"▁미스트":12432,"▁히터":12433,"ood":12434,"▁주총":12435,"▁인권위":12436,"▁복선":12437,"▁자은":12438,"▁외래":12439,"▁독창":12440,"▁담당관":12441,"▁가습기":12442,"▁등등":12443,"▁밀봉":12444,"▁슬라이딩":12445,"▁다크":12446,"▁구할":12447,"▁올라갈":12448,"▁된다\n":12449,"▁눈여겨":12450,"▁유격":12451,"▁공신":12452,"▁터진":12453,"▁추상":12454,"▁병합":12455,"▁무자":12456,"▁저온":12457,"▁몸무게":12458,"▁행정관":12459,"▁스테이지":12460,"레탄":12461,"▁비틀":12462,"ign":12463,"여대":12464,"▁일\n":12465,"▁끔찍":12466,"▁이산":12467,"▁앞섰":12468,"▁다는데":12469,"▁윤곽":12470,"마을":12471,"▁구워":12472,"▁공과":12473,"노스":12474,"맞이":12475,"오카":12476,"▁극한":12477,"▁독보":12478,"▁장타":12479,"▁프렌":12480,"▁저금리":12481,"▁플란트":12482,"▁숙련":12483,"▁전경련":12484,"▁출혈":12485,"▁에르":12486,"▁리터":12487,"▁녹차":12488,"ater":12489,"져\n":12490,"▁내다보":12491,"ene":12492,"케이":12493,"▁필립":12494,"▁소름":12495,"▁올리브":12496,"▁행성":12497,"▁중추":12498,"▁고는":12499,"▁기수":12500,"▁무실점":12501,"▁어우러진":12502,"▁살린":12503,"▁독거":12504,"▁크레":12505,"▁응급실":12506,"▁됨\n":12507,"GC":12508,"▁점착":12509,"▁참치":12510,"▁물음":12511,"▁유로존":12512,"내기":12513,"▁막강":12514,"▁보트":12515,"▁스트림":12516,"▁은하":12517,"▁표했":12518,"▁급속히":12519,"▁두피":12520,"투리":12521,"▁초교":12522,"▁경합":12523,"▁성우":12524,"▁월화":12525,"▁쿠바":12526,"▁반송":12527,"▁내실":12528,"▁IBK":12529,"▁다문화":12530,"▁우라":12531,"▁구미시":12532,"▁전차":12533,"어야":12534,"▁접할":12535,"▁어민":12536,"▁암살":12537,"▁북극":12538,"지원":12539,"▁OC":12540,"▁유방암":12541,"▁힘드":12542,"▁응하":12543,"자재":12544,"▁신항":12545,"▁케이블카":12546,"▁린다":12547,"▁동남아시아":12548,"▁오리지널":12549,"▁효자":12550,"▁로직":12551,"▁자취":12552,"▁그랑":12553,"▁야심":12554,"▁독주":12555,"▁내국":12556,"▁담주":12557,"▁식단":12558,"▁방류":12559,"▁배급":12560,"▁엔딩":12561,"▁다녀왔":12562,"▁스들":12563,"▁계약직":12564,"▁잡힌":12565,"▁방망":12566,"▁터뜨렸":12567,"▁말기":12568,"▁토리":12569,"▁에듀":12570,"▁청계":12571,"46":12572,"▁폼페이":12573,"▁당할":12574,"▁다자":12575,"▁온난":12576,"▁근원":12577,"▁도자기":12578,"▁자산관리":12579,"MI":12580,"저트":12581,"▁모비스":12582,"▁오찬":12583,"▁니즈":12584,"▁여객선":12585,"▁안티":12586,"▁불거지":12587,"▁아이파크":12588,"RO":12589,"▁이호":12590,"▁고작":12591,"▁귀족":12592,"▁날렸":12593,"▁여긴":12594,"▁흥분":12595,"▁이루어질":12596,"▁이화여대":12597,"▁왔으며":12598,"스트리트":12599,"▁이별":12600,"▁음란":12601,"▁이브":12602,"▁ᆞ도":12603,"▁늘어난다":12604,"▁비료":12605,"ath":12606,"▁제자리":12607,"▁불쾌":12608,"▁1978":12609,"▁로맨틱":12610,"▁가든":12611,"카르":12612,"▁찾아왔":12613,"▁가혹":12614,"▁항생제":12615,"VD":12616,"▁성황":12617,"▁체코":12618,"▁원점":12619,"▁업로드":12620,"▁가리키":12621,"▁프린팅":12622,"▁자민":12623,"▁기록물":12624,"▁산책로":12625,"▁연어":12626,"▁국영":12627,"▁가져왔":12628,"▁산란":12629,"▁견본":12630,"▁명실":12631,"▁서남":12632,"EE":12633,"▁리비아":12634,"▁Ex":12635,"▁비박":12636,"▁남친":12637,"▁최진":12638,"▁VIP":12639,"▁중장":12640,"▁훈훈":12641,"▁무더기":12642,"▁그립":12643,"▁자연환경":12644,"▁하구":12645,"▁영천":12646,"▁스테이":12647,"▁풍속":12648,"▁뿌려":12649,"▁퍼스트":12650,"▁기획사":12651,"19":12652,"▁미쓰":12653,"▁전향":12654,"권력":12655,"▁김구":12656,"▁고난":12657,"yn":12658,"▁묘지":12659,"시스트":12660,"▁지음":12661,"▁감리":12662,"▁이철":12663,"▁인양":12664,"▁조종사":12665,"▁클러":12666,"랭크":12667,"▁벽화":12668,"▁반란":12669,"▁어용":12670,"▁스러움":12671,"▁은평":12672,"▁마우스":12673,"▁청라":12674,"▁송치":12675,"▁계류":12676,"▁양형":12677,"ys":12678,"▁팔렸":12679,"▁기자재":12680,"▁천국":12681,"커녕":12682,"▁귀신":12683,"▁자수":12684,"▁남원":12685,"▁단풍":12686,"▁He":12687,"▁취항":12688,"▁와야":12689,"▁보스턴":12690,"▁산타":12691,"▁리츠":12692,"▁KL":12693,"▁세심":12694,"▁벌일":12695,"▁계약금":12696,"▁사우디아":12697,"▁이청":12698,"▁성지":12699,"▁김관":12700,"▁파이낸":12701,"라비아":12702,"▁전세금":12703,"▁송영":12704,"▁해외여행":12705,"수리":12706,"▁수협":12707,"▁매몰":12708,"▁작사":12709,"▁대졸":12710,"▁유역":12711,"▁동호회":12712,"▁하와이":12713,"합니다":12714,"▁신형":12715,"▁조사단":12716,"▁월스트리트":12717,"▁완충":12718,"▁나경원":12719,"rol":12720,"▁155":12721,"▁안전성":12722,"▁걸어서":12723,"▁........":12724,"▁세인트":12725,"▁암튼":12726,"▁획정":12727,"제당":12728,"▁PK":12729,"▁1900":12730,"▁규범":12731,"▁문화원":12732,"▁문화예술":12733,"▁이바지":12734,"▁서해안":12735,"▁폴리에":12736,"▁부가가치":12737,"▁웨스트":12738,"트랙":12739,"▁로열":12740,"ron":12741,"▁고위험":12742,"▁로즈":12743,"▁장외":12744,"14":12745,"▁차림":12746,"▁대포":12747,"▁아바":12748,"▁제일제당":12749,"▁약제":12750,"▁회전축":12751,"▁퇴장":12752,"▁쌓인":12753,"▁심도":12754,"로리":12755,"▁자성":12756,"▁변했":12757,"▁김광현":12758,"▁미쳐":12759,"▁문법":12760,"▁전셋":12761,"▁미러":12762,"▁높인다":12763,"▁아날":12764,"▁%\n":12765,"▁롯데월드":12766,"▁소고기":12767,"▁방대":12768,"▁거머":12769,"▁정말로":12770,"▁올라갔":12771,"▁성수기":12772,"▁원본":12773,"▁김효":12774,"28":12775,"▁자란":12776,"▁표지판":12777,"▁각질":12778,"▁일러":12779,"▁선비":12780,"▁허물":12781,"▁범죄자":12782,"▁취업률":12783,"▁김부":12784,"▁동백":12785,"▁서적":12786,"▁디저트":12787,"▁빠져나가":12788,"▁플로리":12789,"▁획기적으로":12790,"▁급부":12791,"▁1973":12792,"퇴직":12793,"▁왕실":12794,"▁요렇게":12795,"#@":12796,"▁전라북도":12797,"▁스무":12798,"▁인방":12799,"▁일축":12800,"69":12801,"▁메트로":12802,"▁슬프":12803,"ber":12804,"▁허지":12805,"▁뿌듯":12806,"▁가디":12807,"▁적대":12808,"▁평택시":12809,"▁급성장":12810,"▁동래":12811,"▁거침":12812,"▁철폐":12813,"▁살펴볼":12814,"회계":12815,"▁그런지":12816,"▁감소세":12817,"▁미성년":12818,"▁비만":12819,"▁점진":12820,"▁무서워":12821,"▁국기":12822,"▁마신":12823,"드름":12824,"문화재":12825,"▁근간":12826,"▁바나나":12827,"▁적잖":12828,"▁위례":12829,"▁침략":12830,"▁절박":12831,"▁정현":12832,"▁파키스탄":12833,"▁농작물":12834,"▁애리":12835,"▁파라미터":12836,"▁캐피탈":12837,"▁미수":12838,"▁외무":12839,"▁오션":12840,"▁방화":12841,"▁신사업":12842,"▁무거":12843,"▁z":12844,"ox":12845,"▁최태":12846,"64":12847,"▁GPS":12848,"▁선로":12849,"▁원도":12850,"▁BC":12851,"▁수출액":12852,"▁문학상":12853,"▁정공":12854,"▁보살":12855,"▁대유":12856,"ress":12857,"▁마그네":12858,"▁액티브":12859,"게이션":12860,"▁성경":12861,"▁멸종":12862,"러운":12863,"잖아요":12864,"▁1945":12865,"▁내진":12866,"▁디아":12867,"▁175":12868,"▁내비게이션":12869,"천구":12870,"▁외야":12871,"▁이선":12872,"▁블럭":12873,"▁날려":12874,"▁데일리":12875,"▁교육비":12876,"▁접경":12877,"▁성북":12878,"▁비아":12879,"▁창녕":12880,"레스테":12881,"▁천연가스":12882,"▁편차":12883,"▁ᄋ\n":12884,"▁씨티":12885,"▁캐슬":12886,"▁빌보드":12887,"67":12888,"▁너스":12889,"▁사우디아라비아":12890,"▁북방":12891,"▁진한":12892,"▁의의":12893,"▁가로수":12894,"▁옥션":12895,"▁예결":12896,"▁르네":12897,"▁박해":12898,"▁클러치":12899,"▁아미노산":12900,"▁생태계":12901,"▁올라섰":12902,"▁되새":12903,"▁침착":12904,"▁순천시":12905,"▁아무개":12906,"휴일":12907,"▁용병":12908,"▁미비":12909,"▁촉각":12910,"▁서른":12911,"▁저탄":12912,"▁출입구":12913,"▁면밀히":12914,"▁^":12915,"▁BBC":12916,"▁배고파":12917,"▁평가전":12918,"▁느껴진다":12919,"▁례":12920,"▁컨퍼런스":12921,"박이":12922,"▁옆집":12923,"▁수퍼":12924,"▁듀얼":12925,"▁동대":12926,"▁인위":12927,"▁취했":12928,"▁선정\n":12929,"▁PS":12930,"▁만장":12931,"▁구치":12932,"지엄":12933,"▁양수":12934,"▁이근":12935,"▁헬로":12936,"▁트윈":12937,"▁게임즈":12938,"▁모티브":12939,"▁식이":12940,"▁카레":12941,"▁처해":12942,"▁경진":12943,"▁심포지엄":12944,"▁리치":12945,"▁스터디":12946,"▁정복":12947,"▁웃돌":12948,"▁절벽":12949,"▁양도세":12950,"▁로스쿨":12951,"▁다우":12952,"▁찬스":12953,"▁서대문":12954,"▁게끔":12955,"▁윤상":12956,"▁카운트":12957,"▁몰린":12958,"▁주둔":12959,"▁디즈니":12960,"▁속상":12961,"▁비위":12962,"85":12963,"▁들어섰":12964,"▁모터쇼":12965,"▁치러진":12966,"▁할까요":12967,"▁세밀":12968,"▁대타":12969,"▁실형":12970,"cess":12971,"▁콜레스테":12972,"▁아메리":12973,"▁수탁":12974,"▁마구":12975,"▁피터":12976,"17":12977,"▁이효":12978,"▁블룸버그":12979,"▁모터스":12980,"▁IPTV":12981,"▁공교육":12982,"▁:\n":12983,"▁판도":12984,"▁지옥":12985,"▁전통문화":12986,"▁재외":12987,"▁유산균":12988,"▁콘퍼런스":12989,"▁박모":12990,"▁매트릭스":12991,"▁등극":12992,"▁단체전":12993,"▁IPO":12994,"▁일렉":12995,"▁아날로그":12996,"조선":12997,"전기":12998,"▁달러화":12999,"▁드위치":13000,"▁혈당":13001,"쓰기":13002,"▁좀\n":13003,"▁리소":13004,"▁문예":13005,"▁현대건설":13006,"▁철새":13007,"▁치가":13008,"▁숨겨":13009,"▁차리":13010,"▁올린다":13011,"▁수조":13012,"▁가액":13013,"▁이건희":13014,"▁현행법":13015,"▁양당":13016,"▁RO":13017,"▁울주군":13018,"▁원사":13019,"▁착하":13020,"▁설득력":13021,"▁무언가":13022,"▁124":13023,"▁003":13024,"▁보호구역":13025,"▁그리드":13026,"▁밸런스":13027,"▁박세":13028,"▁전계":13029,"▁리베":13030,"▁아니\n":13031,"▁멀티미디어":13032,"▁레오":13033,"▁심리학":13034,"▁파울":13035,"▁응응\n":13036,"▁쓰인다":13037,"▁1975":13038,"무소":13039,"▁중성":13040,"센스":13041,"▁비주얼":13042,"▁논란\n":13043,"▁스트리밍":13044,"▁이터":13045,"▁재테크":13046,"▁김두":13047,"▁청각":13048,"▁맛나":13049,"▁에디션":13050,"pe":13051,"▁쉬워":13052,"enc":13053,"▁야마":13054,"▁PP":13055,"혜진":13056,"▁빅뱅":13057,"▁가교":13058,"▁도루":13059,"▁양면":13060,"▁가닥":13061,"▁운동가":13062,"▁사귀":13063,"▁제대":13064,"▁놀랍":13065,"▁어드":13066,"▁빼돌":13067,"▁특기":13068,"▁동방":13069,"▁내포":13070,"▁출처":13071,"▁퍼니":13072,"▁푸르지오":13073,"▁영도":13074,"장면":13075,"▁압류":13076,"▁남경":13077,"▁아토피":13078,"▁윤활":13079,"▁들여다":13080,"▁유서":13081,"▁1974":13082,"▁베스트셀러":13083,"▁쏘나타":13084,"▁주거지":13085,"▁흔한":13086,"▁도라":13087,"▁WTO":13088,"징계":13089,"▁봉화":13090,"▁원만":13091,"▁현관":13092,"▁하강":13093,"고루":13094,"▁슬림":13095,"캐피탈":13096,"mer":13097,"93":13098,"▁헌혈":13099,"타임":13100,"▁주된":13101,"▁어가":13102,"▁마포":13103,"▁청송":13104,"▁우상":13105,"▁031":13106,"▁사당":13107,"23":13108,"▁독립성":13109,"▁포스코건설":13110,"▁각서":13111,"▁상반":13112,"젤레스":13113,"▁블러":13114,"und":13115,"▁마셨":13116,"▁외교관":13117,"▁폐암":13118,"▁장담":13119,"▁쌍둥이":13120,"▁선조":13121,"ition":13122,"▁한잔":13123,"▁ex":13124,"▁업주":13125,"미드":13126,"▁계양":13127,"▁귀여워\n":13128,"워했":13129,"▁입출":13130,"▁단다":13131,"▁목적지":13132,"▁중남":13133,"▁저러":13134,"▁묵묵":13135,"▁당대":13136,"▁처리장":13137,"▁김경수":13138,"▁통사":13139,"영장":13140,"▁입당":13141,"▁범주":13142,"▁거센":13143,"▁자위":13144,"▁그레":13145,"▁트러":13146,"▁치른다":13147,"▁캐스트":13148,"▁조계":13149,"▁쇼크":13150,"▁아버님":13151,"▁윤종":13152,"▁내보내":13153,"▁프로토":13154,"▁그죠":13155,"악단":13156,"????":13157,"▁생전":13158,"경찰":13159,"▁명세":13160,"▁적십자":13161,"▁너무너무":13162,"▁매립지":13163,"▁붙였":13164,"▁뇌졸":13165,"▁향했":13166,"▁터뜨리":13167,"▁소개서":13168,"산동":13169,"▁카테고리":13170,"민호":13171,"찌개":13172,"▁로이터":13173,"▁임상시험":13174,"▁수변":13175,"▁송이":13176,"▁제사":13177,"▁신촌":13178,"▁나마":13179,"▁할로":13180,"▁블리":13181,"▁들러":13182,"▁양궁":13183,"▁미친다":13184,"터카":13185,"장치":13186,"▁의구":13187,"▁애널리스트":13188,"▁310":13189,"▁요가":13190,"▁거래법":13191,"▁조형물":13192,"▁그친":13193,"▁친척":13194,"상수":13195,"▁다문화가정":13196,"▁결핵":13197,"▁더해":13198,"▁레시피":13199,"▁종식":13200,"▁렌터카":13201,"▁철원":13202,"▁골고루":13203,"▁신호등":13204,"▁브래":13205,"▁마마":13206,"▁시험장":13207,"▁달해":13208,"▁난항":13209,"▁청년층":13210,"▁공휴일":13211,"▁추워":13212,"▁콜레스테롤":13213,"▁상상력":13214,"▁풀려":13215,"▁모던":13216,"▁오오":13217,"▁해냈":13218,"▁공사장":13219,"▁경질":13220,"▁복장":13221,"▁유전체":13222,"▁u":13223,"▁모자라":13224,"정식":13225,"공항공사":13226,"키스":13227,"▁열연":13228,"▁참으로":13229,"▁다듬":13230,"▁직종":13231,"▁중앙당":13232,"▁수용체":13233,"▁김도":13234,"틀랜드":13235,"▁착취":13236,"▁교육장":13237,"▁주범":13238,"▁오타":13239,"날두":13240,"▁움직일":13241,"▁스폰서":13242,"도르":13243,"▁의결권":13244,"라면":13245,"▁이제\n":13246,"▁보안법":13247,"살이":13248,"▁원수":13249,"▁바늘":13250,"▁핑계":13251,"▁호날두":13252,"▁1976":13253,"16":13254,"▁붙인":13255,"▁달라진다":13256,"▁화사":13257,"▁스릴":13258,"▁골절":13259,"▁셔틀":13260,"▁의구심":13261,"ind":13262,"▁떨어뜨":13263,"▁외과":13264,"▁본토":13265,"ite":13266,"▁내기":13267,"▁원년":13268,"▁번식":13269,"▁퇴사":13270,"부로":13271,"▁모션":13272,"▁짜릿":13273,"▁했으니":13274,"▁따\n":13275,"▁리아":13276,"ary":13277,"▁곤두":13278,"▁빚어":13279,"▁개동":13280,"▁귀환":13281,"▁염소":13282,"▁부지사":13283,"▁고구려":13284,"▁세계인":13285,"▁영원히":13286,"▁최경환":13287,"▁당은":13288,"▁황사":13289,"▁부담감":13290,"▁건국대":13291,"▁머물러":13292,"▁ᄋᄏ":13293,"▁저탄소":13294,"form":13295,"▁스틱":13296,"▁임산":13297,"▁분쇄":13298,"▁경전철":13299,"▁충무":13300,"▁138":13301,"▁트로트":13302,"▁김우":13303,"▁본다면":13304,"▁임계":13305,"▁피난":13306,"▁1972":13307,"▁갈래":13308,"▁실업자":13309,"기계":13310,"탱크":13311,"▁엘지":13312,"마킹":13313,"▁토스":13314,"▁김신":13315,"▁저마다":13316,"▁가치관":13317,"▁미끄러":13318,"ach":13319,"▁소변":13320,"▁맛보":13321,"▁스러웠":13322,"▁벤치마킹":13323,"▁실크":13324,"▁그래프":13325,"▁순방":13326,"▁사이언스":13327,"▁김보":13328,"▁코코":13329,"▁다가왔":13330,"▁정액":13331,"▁4500":13332,"▁리부":13333,"▁소송법":13334,"▁청양":13335,"▁베타":13336,"모니":13337,"▁조이":13338,"▁SI":13339,"▁영암":13340,"▁고종":13341,"▁현대캐피탈":13342,"▁누출":13343,"▁패권":13344,"▁우즈베":13345,"▁다녀온":13346,"▁가용":13347,"▁1700":13348,"▁권선":13349,"▁해준다":13350,"▁깔려":13351,"▁발동":13352,"▁강간":13353,"▁PF":13354,"hem":13355,"▁파스타":13356,"▁오키나와":13357,"▁WS":13358,"▁자본금":13359,"▁므":13360,"▁장보":13361,"▁심플":13362,"▁아깝":13363,"▁봄\n":13364,"▁발맞":13365,"▁합포":13366,"시대":13367,"▁반장":13368,"▁만난다":13369,"▁펀딩":13370,"able":13371,"▁발자":13372,"▁SE":13373,"▁변조":13374,"▁플로리다":13375,"▁클렌":13376,"▁충실히":13377,"▁체크카드":13378,"▁농심":13379,"▁택했":13380,"▁여드름":13381,"▁둥지":13382,"스테":13383,"▁들으":13384,"▁로프":13385,"▁해발":13386,"▁폭포":13387,"▁불순":13388,"▁강관":13389,"▁표절":13390,"보증":13391,"▁계룡":13392,"▁위\n":13393,"▁검찰청":13394,"▁사수":13395,"▁제철소":13396,"▁슴":13397,"▁화랑":13398,"▁다카":13399,"▁편익":13400,"▁내몰":13401,"▁준우":13402,"▁내전":13403,"▁완성도":13404,"▁스테인":13405,"▁너\n":13406,"▁코아":13407,"▁뇌졸중":13408,"제이":13409,"▁까먹":13410,"▁형\n":13411,"▁화답":13412,"▁꺼리":13413,"기사":13414,"▁집적":13415,"▁옹\n":13416,"▁제법":13417,"▁가상현실":13418,"▁공매도":13419,"ime":13420,"▁IR":13421,"▁적당히":13422,"▁파트너십":13423,"▁공범":13424,"▁서한":13425,"▁여도":13426,"▁차가운":13427,"▁국사":13428,"▁전반기":13429,"▁분실":13430,"▁착륙":13431,"폭력":13432,"▁원자로":13433,"▁엇갈리":13434,"▁냉정":13435,"▁낙하산":13436,"▁계면":13437,"▁물동":13438,"▁풍요":13439,"▁송수":13440,"▁주점":13441,"▁여중":13442,"▁사계":13443,"▁몰두":13444,"▁기술자":13445,"▁주의보":13446,"▁거취":13447,"▁칠곡":13448,"▁큐브":13449,"▁117":13450,"▁축산물":13451,"47":13452,"▁이공":13453,"ps":13454,"▁갈리":13455,"▁청담":13456,"▁슬픈":13457,"▁김홍":13458,"▁가능\n":13459,"▁사소":13460,"▁건축가":13461,"▁할부":13462,"▁소양":13463,"▁사업체":13464,"▁550":13465,"▁좌측":13466,"▁드릴게요":13467,"▁머무르":13468,"▁니콜":13469,"▁129":13470,"▁난이도":13471,"▁피아니스트":13472,"orea":13473,"베스":13474,"▁블랙리스트":13475,"▁상측":13476,"▁행해":13477,"31":13478,"▁는군":13479,"활약":13480,"▁아이고":13481,"▁배기가스":13482,"▁신경전":13483,"▁중개사":13484,"▁아메리칸":13485,"절기":13486,"▁잇단":13487,"▁실책":13488,"▁선거인":13489,"▁극우":13490,"▁퇴직금":13491,"▁브렉":13492,"▁바짝":13493,"▁하이트":13494,"▁피치":13495,"▁손질":13496,"▁반하":13497,"▁아부":13498,"민턴":13499,"▁단결":13500,"▁상술":13501,"▁페트":13502,"▁거동":13503,"▁드립":13504,"▁외환은행":13505,"▁옥시":13506,"▁분식":13507,"▁세법":13508,"▁방산":13509,"▁파주시":13510,"▁펼쳐진":13511,"준호":13512,"▁모스크바":13513,"▁연정":13514,"▁사리":13515,"▁SDI":13516,"▁지이":13517,"▁맞벌이":13518,"▁식탁":13519,"▁계획안":13520,"▁;;\n":13521,"▁마모":13522,"에르":13523,"▁냉방":13524,"▁명부":13525,"▁악마":13526,"일드":13527,"▁폴리스":13528,"▁쿠션":13529,"천동":13530,"국적":13531,"▁신분증":13532,"▁쏟아져":13533,"▁그르":13534,"▁진료소":13535,"▁불상":13536,"▁총체":13537,"▁됐었":13538,"▁유학생":13539,"▁비엔날레":13540,"▁스물":13541,"▁쿠키":13542,"악산":13543,"▁스톤":13544,"태우":13545,"▁말미":13546,"▁과학부":13547,"▁이승만":13548,"▁드래프트":13549,"▁미아":13550,"▁화\n":13551,"▁화살":13552,"▁다방":13553,"▁줄\n":13554,"▁PA":13555,"▁딱히":13556,"▁부양책":13557,"▁대마":13558,"▁나와야":13559,"▁지켜봐야":13560,"▁맹활약":13561,"▁완치":13562,"36":13563,"38":13564,"▁제천":13565,"▁수사관":13566,"▁전셋값":13567,"▁안개":13568,"▁어느새":13569,"▁발포":13570,"메인":13571,"▁페널티":13572,"▁온수":13573,"▁성적표":13574,"▁괴산":13575,"▁거장":13576,"▁동등":13577,"앤젤레스":13578,"▁당론":13579,"▁148":13580,"▁마일리지":13581,"▁의거":13582,"꿈치":13583,"▁시킨다는":13584,"▁재량":13585,"▁패소":13586,"▁쓰여":13587,"▁평년":13588,"▁로스앤젤레스":13589,"▁교통망":13590,"▁에버랜드":13591,"▁임산부":13592,"▁..“":13593,"▁감세":13594,"▁양재":13595,"어\n":13596,"▁스핀":13597,"▁정은":13598,"▁레코드":13599,"▁대담":13600,"▁이희":13601,"입니다":13602,"▁적외선":13603,"▁멤버십":13604,"▁직거래":13605,"▁장흥":13606,"ld":13607,"▁AFC":13608,"▁느리":13609,"▁대내외":13610,"▁CU":13611,"▁용돈":13612,"▁숙원":13613,"리그":13614,"▁스드":13615,"▁마이크로":13616,"▁국판":13617,"▁영수증":13618,"▁마운":13619,"▁세리":13620,"▁김석":13621,"▁Me":13622,"▁국왕":13623,"▁ᄏᄏᄏᄏᄏᄏᄏᄏᄏᄏᄏᄏᄏᄏ\n":13624,"쿠버":13625,"어요":13626,"▁가령":13627,"▁1930":13628,"▁돌려주":13629,"▁System":13630,"▁하노이":13631,"iss":13632,"▁AM":13633,"▁징후":13634,"▁신안":13635,"▁관은":13636,"▁속옷":13637,"▁단층":13638,"▁전인":13639,"▁파헤":13640,"▁원두":13641,"▁실려":13642,"파업":13643,"▁플라자":13644,"▁유난":13645,"▁카자":13646,"▁178":13647,"▁워커":13648,"▁오차":13649,"▁로또":13650,"▁살아온":13651,"▁무승부":13652,"▁개웃":13653,"▁휴먼":13654,"▁덩어리":13655,"▁구매자":13656,"▁전속":13657,"▁밀가루":13658,"▁정확도":13659,"▁합병증":13660,"▁간다는":13661,"거지":13662,"▁국산화":13663,"▁호황":13664,"▁밀레":13665,"ᄏᄏᄏᄏᄏᄏᄏᄏ":13666,"▁전립":13667,"▁보온":13668,"▁벌어질":13669,"▁오로":13670,"▁해커":13671,"▁포진":13672,"메이":13673,"결승":13674,"▁전량":13675,"▁어셈":13676,"▁유령":13677,"지르":13678,"▁단의":13679,"▁총파업":13680,"▁라이온":13681,"▁잃어버린":13682,"▁슈퍼마켓":13683,"▁건가\n":13684,"24":13685,"▁절정":13686,"▁대관":13687,"▁누설":13688,"▁실상":13689,"▁어마":13690,"▁옵티":13691,"▁굴절":13692,"▁이민자":13693,"erv":13694,"워야":13695,"▁돌아섰":13696,"▁인천항":13697,"▁김문수":13698,"▁유망주":13699,"▁중력":13700,"IS":13701,"▁기내":13702,"▁무능":13703,"▁피디":13704,"▁그랜":13705,"▁주심":13706,"▁CES":13707,"하루":13708,"▁센싱":13709,"▁시\n":13710,"▁떠날":13711,"▁이정현":13712,"중근":13713,"나리":13714,"▁리프":13715,"▁새삼":13716,"▁호감":13717,"▁금정":13718,"▁육지":13719,"ication":13720,"▁내과":13721,"▁배드민턴":13722,"옵니다":13723,"▁바비":13724,"세요\n":13725,"▁끝났":13726,"▁동물원":13727,"21":13728,"▁기념사업":13729,"▁리브":13730,"▁물동량":13731,"▁계측":13732,"▁650":13733,"▁수력":13734,"▁리본":13735,"▁눈부":13736,"▁네네네":13737,"▁채권자":13738,"임자":13739,"▁해상도":13740,"▁탈세":13741,"▁자선":13742,"▁열망":13743,"▁징\n":13744,"▁Ad":13745,"▁오승환":13746,"▁이동국":13747,"▁어셈블리":13748,"▁유소년":13749,"▁동성애":13750,"▁글라스":13751,"▁절개":13752,"▁지그":13753,"▁알렉산":13754,"▁127":13755,"▁이의":13756,"▁장이":13757,"▁신주":13758,"▁합니까":13759,"▁분장":13760,"▁다졌":13761,"▁간염":13762,"통일":13763,"데타":13764,"▁과반수":13765,"▁안희정":13766,"▁폭격":13767,"▁삼거리":13768,"▁정반":13769,"▁이랬":13770,"34":13771,"▁커진다":13772,"정지":13773,"▁버터":13774,"▁항균":13775,"▁1977":13776,"▁식용":13777,"▁무한도":13778,"▁편법":13779,"▁태화":13780,"▁131":13781,"ium":13782,"▁GTX":13783,"▁장치\n":13784,"케인":13785,"▁CGV":13786,"▁리버풀":13787,"▁화물차":13788,"▁좁혀":13789,"▁Ac":13790,"▁기념일":13791,"▁라우":13792,"▁간다고":13793,"ET":13794,"▁SF":13795,"old":13796,"▁주조":13797,"▁장려금":13798,"▁김미":13799,"▁테두리":13800,"▁움직여":13801,"▁대지진":13802,"▁넷째":13803,"▁강정호":13804,"▁장편":13805,"▁출루":13806,"▁노골":13807,"▁점거":13808,"▁곡성":13809,"재료":13810,"▁열광":13811,"▁환전":13812,"▁돌려받":13813,"▁ᅮᅮᅮᅮ":13814,"▁..‘":13815,"▁회의장":13816,"다오":13817,"▁지주사":13818,"▁정량":13819,"▁전도성":13820,"▁가덕":13821,"패시":13822,"▁남북한":13823,"▁커패시":13824,"▁비관":13825,"▁참배":13826,"▁절대로":13827,"▁켓":13828,"▁고공":13829,"▁체부":13830,"▁~~~~":13831,"▁스와":13832,"▁복직":13833,"▁이나마":13834,"▁슬러":13835,"▁함부로":13836,"▁마는":13837,"▁외로":13838,"▁로터":13839,"▁코인":13840,"▁하소연":13841,"▁비방":13842,"▁탈피":13843,"▁정대":13844,"▁개점":13845,"▁서거":13846,"▁돌파구":13847,"턴트":13848,"▁체인지":13849,"▁스테이션":13850,"▁갑상":13851,"▁치사":13852,"▁얼어붙":13853,"▁책무":13854,"▁턱없이":13855,"▁친한":13856,"▁힌지":13857,"▁고소득":13858,"▁이천":13859,"무진":13860,"▁주스":13861,"▁닛산":13862,"▁ᄀ씨는":13863,"▁식감":13864,"▁바이올린":13865,"▁햇살":13866,"▁국공립":13867,"▁전지훈련":13868,"▁KLPGA":13869,"▁인맥":13870,"난방":13871,"▁대승":13872,"▁외쳤":13873,"▁대위":13874,"▁강인":13875,"▁불화":13876,"칼리":13877,"▁국제기구":13878,"▁떨어뜨리":13879,"▁스마":13880,"ook":13881,"▁머릿속":13882,"▁데스":13883,"▁소수자":13884,"▁가리킨다":13885,"▁첫해":13886,"▁얘길":13887,"▁월성":13888,"▁간첩":13889,"▁아이유":13890,"▁개회":13891,"af":13892,"▁맞은":13893,"▁EV":13894,"▁등\n":13895,"▁메커":13896,"▁드래곤":13897,"▁이산가족":13898,"▁대출금":13899,"▁일화":13900,"▁무색":13901,"▁본명":13902,"▁김현수":13903,"▁에틸렌":13904,"▁라벨":13905,"▁수순":13906,"▁맞은편":13907,"찰청":13908,"업소":13909,"▁반기문":13910,"▁친숙":13911,"▁색채":13912,"구석":13913,"▁왜\n":13914,"VC":13915,"▁한약":13916,"▁초상":13917,"▁중앙선":13918,"▁적격":13919,"▁앞당겨":13920,"▁백색":13921,"▁마음대로":13922,"▁마틴":13923,"▁그칠":13924,"▁근래":13925,"▁그럼\n":13926,"▁담양":13927,"▁입장권":13928,"▁그물":13929,"▁사라져":13930,"▁쿠데타":13931,"▁리포트":13932,"▁시안":13933,"▁우익":13934,"▁앞뒤":13935,"▁이어폰":13936,"▁야지\n":13937,"▁당면":13938,"▁으리":13939,"▁폐막":13940,"▁따내":13941,"▁조수":13942,"▁박기":13943,"▁성\n":13944,"▁아니요":13945,"▁페미":13946,"▁박태환":13947,"▁총량":13948,"▁선회":13949,"리시":13950,"▁연주회":13951,"영수":13952,"▁ᅲᅲᅲᅲᅲᅲ":13953,"▁티저":13954,"▁춘천시":13955,"▁용납":13956,"▁플렉":13957,"▁반감":13958,"▁충원":13959,"ond":13960,"▁탄화":13961,"▁168":13962,"▁금지법":13963,"▁섭외":13964,"▁서운":13965,"▁세관":13966,"▁줄인":13967,"라이나":13968,"▁호투":13969,"▁악순환":13970,"▁중앙지":13971,"▁앞바다":13972,"▁학자금":13973,"▁울릉도":13974,"돋움":13975,"▁우즈베키스탄":13976,"▁발돋움":13977,"▁클리닉":13978,"▁굴착":13979,"▁ᄏᄏᄏᄏᄏᄏᄏᄏᄏᄏᄏᄏᄏᄏᄏ":13980,"▁재택근무":13981,"▁이규":13982,"▁맛볼":13983,"▁현충":13984,"▁한\n":13985,"▁동거":13986,"▁Dis":13987,"▁대검찰청":13988,"▁성대":13989,"ual":13990,"▁불씨":13991,"▁후드":13992,"▁Res":13993,"27":13994,"▁사업소":13995,"각각":13996,"▁벌금형":13997,"▁숨겨진":13998,"▁학술지":13999,"▁리처":14000,"막이":14001,"▁유라":14002,"▁장래":14003,"▁축물":14004,"▁부설":14005,"▁발렌":14006,"▁마리아":14007,"▁제명":14008,"▁하프":14009,"▁생소":14010,"▁행적":14011,"▁골격":14012,"▁킬로":14013,"▁그제":14014,"▁유화":14015,"▁사채":14016,"▁물자":14017,"▁저질렀":14018,"▁1968":14019,"▁마취":14020,"▁ph":14021,"▁분담금":14022,"▁신세계백화점":14023,"▁별표":14024,"ian":14025,"▁중남미":14026,"ik":14027,"말라":14028,"▁장원":14029,"▁창의력":14030,"▁설계사":14031,"뉴스":14032,"▁변이":14033,"▁망설":14034,"▁카자흐":14035,"▁드루":14036,"▁국제선":14037,"▁신다":14038,"▁사무관":14039,"▁간단히":14040,"▁나스":14041,"▁소화기":14042,"▁복싱":14043,"▁1920":14044,"▁고층":14045,"▁전입":14046,"▁저변":14047,"▁규약":14048,"▁천정":14049,"▁기본소득":14050,"▁1971":14051,"▁대림산업":14052,"▁골목길":14053,"▁교구":14054,"▁추대":14055,"글라스":14056,"▁걸러":14057,"▁우물":14058,"▁장동":14059,"▁변동성":14060,"▁고영":14061,"다르":14062,"▁그래핀":14063,"▁보험업":14064,"▁체불":14065,"ung":14066,"▁원시":14067,"▁산림청":14068,"▁pl":14069,"▁종북":14070,"▁야근":14071,"▁줄지":14072,"▁홀더":14073,"▁망명":14074,"▁채운":14075,"▁계량":14076,"쿠르":14077,"▁박인비":14078,"▁연예계":14079,"▁데스크":14080,"▁망가":14081,"▁380":14082,"▁헐\n":14083,"▁원재료":14084,"▁사회관":14085,"▁호의":14086,"▁CB":14087,"▁이룬다":14088,"▁콜라겐":14089,"▁휴가철":14090,"▁가장자리":14091,"▁박병호":14092,"▁현저":14093,"▁동요":14094,"스틴":14095,"▁고질":14096,"97":14097,"▁퇴행":14098,"▁콜라보":14099,"▁결속":14100,"rom":14101,"▁방망이":14102,"▁산청":14103,"▁구만\n":14104,"▁성모":14105,"▁누비":14106,"▁페인트":14107,"▁젤리":14108,"▁농부":14109,"ord":14110,"▁전폭":14111,"▁해야지\n":14112,"▁아무튼":14113,"▁메커니즘":14114,"▁늦추":14115,"▁조건부":14116,"폭풍":14117,"▁휘말":14118,"마리":14119,"케미":14120,"▁양말":14121,"▁부제":14122,"▁씨름":14123,"▁몰락":14124,"▁부천시":14125,"시민":14126,"▁기습":14127,"▁포획":14128,"모직":14129,"▁모의고사":14130,"▁오프닝":14131,"▁병원장":14132,"▁반등":14133,"37":14134,"▁OK":14135,"▁우크라":14136,"▁화백":14137,"ey":14138,"▁취임식":14139,"▁도왔":14140,"▁육체":14141,"▁용사":14142,"▁초안":14143,"▁달인":14144,"▁연습장":14145,"▁씀":14146,"▁제일모직":14147,"▁리어":14148,"▁십니다":14149,"▁토니":14150,"라이언트":14151,"▁무주택":14152,"▁여동생":14153,"▁고안":14154,"▁치수":14155,"out":14156,"코인":14157,"▁요동":14158,"용품":14159,"▁연통":14160,"▁변명":14161,"▁도메인":14162,"▁돌아올":14163,"▁복아":14164,"39":14165,"▁국보":14166,"▁신자":14167,"!!\n":14168,"▁달성군":14169,"▁서예":14170,"▁심부":14171,"▁연구실":14172,"▁박희":14173,"▁126":14174,"▁페달":14175,"▁살릴":14176,"▁사우스":14177,"▁하루빨리":14178,"▁연골":14179,"▁용산구":14180,"▁면은\n":14181,"▁스테이크":14182,"지역":14183,"▁분향":14184,"▁배합":14185,"▁이체":14186,"영향평가":14187,"ax":14188,"▁업무상":14189,"▁340":14190,"▁워너":14191,"▁배틀":14192,"▁카스":14193,"▁사업가":14194,"▁보유자":14195,"서울":14196,"▁브레":14197,"▁실시\n":14198,"▁일까요":14199,"▁른":14200,"▁다국적":14201,"▁열화":14202,"ies":14203,"▁전위":14204,"▁브로커":14205,"▁칼로리":14206,"▁다공":14207,"▁트래픽":14208,"넘기":14209,"▁환경영향평가":14210,"▁제주항공":14211,"▁걸\n":14212,"▁pp":14213,"▁네오":14214,"▁품안":14215,"▁김포시":14216,"▁하류":14217,"TN":14218,"▁테라스":14219,"섬유":14220,"▁교섭단체":14221,"▁합체":14222,"▁고주":14223,"▁영위":14224,"▁최성":14225,"ement":14226,"▁무너졌":14227,"▁신보":14228,"▁야스":14229,"▁송구":14230,"▁이쪽":14231,"이치":14232,"▁취직":14233,"ick":14234,"RC":14235,"▁뭔데":14236,"라노":14237,"▁마블":14238,"▁준결승":14239,"▁제지":14240,"▁관철":14241,"▁Gl":14242,"사이드":14243,"▁인내":14244,"▁성악":14245,"▁광복절":14246,"▁레이어":14247,"▁추기":14248,"▁레미":14249,"▁에이전":14250,"▁인척":14251,"▁계망":14252,"▁나르":14253,"▁데크":14254,"▁144":14255,"소송":14256,"▁스티브":14257,"▁158":14258,"▁박리":14259,"▁웨이브":14260,"▁수작":14261,"▁광명시":14262,"▁오세훈":14263,"96":14264,"산성":14265,"▁낙선":14266,"끼리":14267,"▁엄지":14268,"▁연우":14269,"▁신생아":14270,"▁급한":14271,"▁지지부진":14272,"▁투약":14273,"▁심재":14274,"▁장년층":14275,"▁봉지":14276,"▁동맥":14277,"▁래퍼":14278,"▁전매":14279,"▁AF":14280,"폐합":14281,"▁충전기":14282,"▁추궁":14283,"▁LIG":14284,"▁엑소":14285,"▁달서구":14286,"▁팩토리":14287,"▁강타":14288,"▁후폭풍":14289,"▁속한다":14290,"▁연기력":14291,"▁과언":14292,"▁싱어":14293,"▁바\n":14294,"▁군부대":14295,"▁낮춘":14296,"▁끊임없":14297,"BI":14298,"▁소재지":14299,"▁할게요":14300,"▁JP":14301,"▁1963":14302,"▁이한":14303,"▁비트코인":14304,"▁변속기":14305,"▁농수산물":14306,"▁비시":14307,"▁NLL":14308,"▁라미":14309,"▁풍미":14310,"▁한림":14311,"▁모건":14312,"▁양지":14313,"케미칼":14314,"▁경성":14315,"▁여우":14316,"▁○○":14317,"▁거주지":14318,"▁IF":14319,"▁Se":14320,"▁서강대":14321,"▁교토":14322,"▁MBA":14323,"▁로디":14324,"▁어이없":14325,"▁평형":14326,"▁이계":14327,"▁교민":14328,"▁기승":14329,"▁비축":14330,"▁요지":14331,"부모":14332,"▁박민":14333,"정원":14334,"▁수목원":14335,"94":14336,"▁미투":14337,"▁김영란":14338,"▁마른":14339,"자치단체":14340,"▁물리학":14341,"커트":14342,"▁홍익":14343,"▁커리":14344,"▁잔인":14345,"같이":14346,"▁힐러리":14347,"▁지워":14348,"▁극도":14349,"▁화법":14350,"▁ᅲᅲᅲᅲ\n":14351,"▁포식":14352,"▁공평":14353,"과이":14354,"▁부끄럽":14355,"▁끌어내":14356,"▁테크놀":14357,"▁직급":14358,"▁이랜드":14359,"▁위기감":14360,"▁펼쳐졌":14361,"▁인플레이션":14362,"▁본능":14363,"91":14364,"▁월등":14365,"사실":14366,"▁관상":14367,"▁진료비":14368,"▁평상시":14369,"▁라던":14370,"▁백혈":14371,"▁어시스트":14372,"▁전가":14373,"▁적시타":14374,"▁No":14375,"▁라틴":14376,"▁날카로운":14377,"▁SH":14378,"▁어우러져":14379,"▁최하":14380,"▁먹방":14381,"▁집사":14382,"▁김소":14383,"▁수해":14384,"▁까다로운":14385,"▁극찬":14386,"▁최대치":14387,"▁1969":14388,"▁유니버":14389,"▁강풍":14390,"▁초유":14391,"▁이방":14392,"▁전자파":14393,"▁구래":14394,"수단":14395,"▁용수":14396,"하우스":14397,"▁유머":14398,"▁마\n":14399,"▁울타리":14400,"▁중첩":14401,"▁방문자":14402,"▁무사히":14403,"▁명실상부":14404,"사랑":14405,"▁잡혔":14406,"▁밤새":14407,"▁인\n":14408,"▁가파른":14409,"▁블라디":14410,"▁리뉴":14411,"▁자연스레":14412,"▁송출":14413,"▁속내":14414,"▁저수지":14415,"▁진행자":14416,"▁재산세":14417,"▁경제성장":14418,"▁반출":14419,"▁술집":14420,"▁동조":14421,"▁개도":14422,"▁대남":14423,"▁답사":14424,"▁타구":14425,"▁긴축":14426,"상스":14427,"▁사슬":14428,"밸리":14429,"▁둔다":14430,"▁영월":14431,"▁제작비":14432,"▁미모":14433,"▁남양주시":14434,"ON":14435,"▁종영":14436,"▁안마":14437,"▁삭스":14438,"▁New":14439,"▁접어":14440,"▁호출":14441,"마블":14442,"▁일수":14443,"▁수만":14444,"▁따른다":14445,"▁제제":14446,"▁남중":14447,"▁시네마":14448,"ower":14449,"▁까\n":14450,"▁슈즈":14451,"▁재가":14452,"▁도피":14453,"▁캐피":14454,"▁하이라이트":14455,"▁에칭":14456,"▁통폐합":14457,"▁항원":14458,"▁비누":14459,"▁참신":14460,"▁신정":14461,"▁무한도전":14462,"▁가져온":14463,"▁넷마블":14464,"▁유격수":14465,"▁강기":14466,"▁미역":14467,"▁십자":14468,"▁생수":14469,"▁관전":14470,"▁미르":14471,"세데스":14472,"▁이라든지":14473,"▁남해안":14474,"파리":14475,"▁개년":14476,"▁망원":14477,"▁헌정":14478,"▁메르세데스":14479,"▁앞세운":14480,"▁호박":14481,"▁외장":14482,"▁손꼽히":14483,"▁프라임":14484,"▁세울":14485,"▁레지스":14486,"▁듀오":14487,"▁우루":14488,"무지":14489,"▁받아들였":14490,"▁결렬":14491,"▁설화":14492,"▁캐리":14493,"▁실속":14494,"▁수억":14495,"▁토사":14496,"▁신문사":14497,"▁출연진":14498,"▁백종":14499,"▁멸치":14500,"▁늦춰":14501,"▁1948":14502,"▁푸짐":14503,"▁뷔페":14504,"▁급부상":14505,"▁걸어가":14506,"▁무이자":14507,"▁흘렸":14508,"▁페닐":14509,"▁대향":14510,"하늘":14511,"▁글쓰기":14512,"▁망치":14513,"▁의왕시":14514,"▁대미":14515,"▁될까요":14516,"▁이드":14517,"▁손수":14518,"▁심경":14519,"▁항일":14520,"▁여행자":14521,"▁쇼트트랙":14522,"▁위크":14523,"▁랙":14524,"▁제때":14525,"▁마사회":14526,"▁권오":14527,"▁열처리":14528,"▁연신":14529,"▁고른":14530,"▁PI":14531,"▁포격":14532,"▁다목":14533,"▁키보드":14534,"▁요한":14535,"▁미성년자":14536,"▁보임":14537,"▁파이낸셜":14538,"▁포즈":14539,"orld":14540,"▁년\n":14541,"▁파열":14542,"▁또\n":14543,"▁만회":14544,"▁살균제":14545,"▁자은동":14546,"▁아닌가요":14547,"▁상업시설":14548,"▁친해":14549,"브리":14550,"▁구본":14551,"시효":14552,"▁서재":14553,"▁북아":14554,"▁TEU":14555,"▁어다":14556,"▁순례":14557,"▁성과급":14558,"▁급기야":14559,"▁기념행사":14560,"▁깐":14561,"▁전립선":14562,"▁1965":14563,"▁깊숙":14564,"다지":14565,"▁항산":14566,"▁???\n":14567,"▁들어야":14568,"ᄀ\n":14569,"▁벽체":14570,"▁도울":14571,"GF":14572,"▁극본":14573,"▁추행":14574,"▁치중":14575,"▁불매":14576,"▁김호":14577,"▁로워":14578,"▁화분":14579,"▁옵티머스":14580,"▁이래서":14581,"▁산업체":14582,"▁KDI":14583,"▁대응책":14584,"▁우월":14585,"▁진열":14586,"▁420":14587,"▁인대":14588,"▁웃겨\n":14589,"▁삼촌":14590,"▁유난히":14591,"▁맥도":14592,"▁갖춰야":14593,"▁허허":14594,"▁준우승":14595,"▁강동구":14596,"▁두뇌":14597,"▁여느":14598,"▁자처":14599,"▁다가온":14600,"▁소량":14601,"▁식기":14602,"▁다니엘":14603,"▁몰라도":14604,"▁유재석":14605,"▁배지":14606,"▁BO":14607,"▁육수":14608,"▁오월":14609,"▁너머":14610,"▁뜻깊":14611,"▁저격":14612,"▁참여연대":14613,"ost":14614,"▁EL":14615,"▁노광":14616,"▁연장선":14617,"▁슬라이드":14618,"▁오디":14619,"▁졸리":14620,"▁그\n":14621,"▁노사정":14622,"▁생겨나":14623,"▁노조원":14624,"▁우파":14625,"▁나들":14626,"▁응력":14627,"▁소치":14628,"▁134":14629,"▁조력":14630,"▁응축":14631,"▁어려우":14632,"ae":14633,"▁군위":14634,"▁추기경":14635,"▁에티":14636,"▁인사말":14637,"ert":14638,"▁가나":14639,"▁콩쿠르":14640,"▁성서":14641,"▁장례식장":14642,"▁카자흐스탄":14643,"▁반포":14644,"▁지구촌":14645,"▁저성장":14646,"▁내건":14647,"▁나치":14648,"▁안치":14649,"밴드":14650,"29":14651,"▁허니":14652,"▁라운지":14653,"▁유교":14654,"▁OST":14655,"▁초빙":14656,"▁펜션":14657,"▁나들목":14658,"▁골문":14659,"▁조교":14660,"▁냉전":14661,"▁중징계":14662,"▁토막":14663,"▁유영":14664,"▁냉각수":14665,"▁점쳐":14666,"▁분\n":14667,"▁초연":14668,"▁격렬":14669,"▁추방":14670,"▁공해":14671,"▁들려주":14672,"▁축전":14673,"▁어필":14674,"▁유언":14675,"▁박명":14676,"▁하측":14677,"▁미스터리":14678,"선거":14679,"▁건조기":14680,"▁대유행":14681,"▁그랑프리":14682,"갈이":14683,"▁le":14684,"▁Pr":14685,"▁주교":14686,"▁표류":14687,"▁산물":14688,"▁박현":14689,"지수":14690,"▁학교장":14691,"▁어휘":14692,"▁소생":14693,"▁르네상스":14694,"고래":14695,"▁리퍼":14696,"▁서사":14697,"▁창간":14698,"▁기간제":14699,"▁이월":14700,"마르":14701,"토록":14702,"▁왕성":14703,"▁소비량":14704,"▁구슬":14705,"▁추리":14706,"▁is":14707,"▁Le":14708,"▁단국":14709,"자\n":14710,"▁회색":14711,"▁억압":14712,"▁레이터":14713,"▁슬래":14714,"▁숙명":14715,"▁미용실":14716,"하마":14717,"▁각인":14718,"▁징용":14719,"▁TS":14720,"▁서울역":14721,"▁FDA":14722,"▁소소":14723,"▁나간다는":14724,"▁미야":14725,"▁진리":14726,"FF":14727,"▁집약":14728,"▁캐피털":14729,"▁커져":14730,"니스탄":14731,"▁참고인":14732,"▁레이싱":14733,"DC":14734,"필품":14735,"▁자가":14736,"▁수도권":14737,"▁서식지":14738,"▁주원":14739,"기름":14740,"▁지평":14741,"▁베토":14742,"▁유희":14743,"▁방조":14744,"▁남경필":14745,"이스터":14746,"그래피":14747,"▁여종":14748,"▁노면":14749,"림동":14750,"에미":14751,"▁슬퍼":14752,"대식":14753,"▁알칼리":14754,"▁아사히":14755,"지가":14756,"▁몸값":14757,"▁정할":14758,"▁뒤진":14759,"▁희망자":14760,"▁산수":14761,"▁치료비":14762,"디\n":14763,"▁생필품":14764,"▁힘써":14765,"▁제작자":14766,"▁서두르":14767,"▁유례":14768,"탄올":14769,"▁고졸":14770,"▁UHD":14771,"▁밸류":14772,"▁러블":14773,"우트":14774,"▁변해":14775,"▁플루":14776,"▁기관지":14777,"▁토익":14778,"래프트":14779,"▁갈색":14780,"태영":14781,"▁YG":14782,"▁정수장":14783,"▁노동력":14784,"▁이직":14785,"주의자":14786,"▁정읍":14787,"▁래미안":14788,"▁출입국":14789,"▁초미세":14790,"▁활주":14791,"장구":14792,"▁시그널":14793,"▁중원":14794,"▁통틀":14795,"▁네여":14796,"▁주지사":14797,"▁복식":14798,"▁빌미":14799,"▁ESS":14800,"▁스트레":14801,"▁원더":14802,"▁본문":14803,"▁발랄":14804,"▁드나":14805,"▁창호":14806,"▁히어로즈":14807,"▁깨지":14808,"▁양산시":14809,"▁주무관":14810,"▁WSJ":14811,"보도":14812,"▁에폭":14813,"▁2024":14814,"▁벌레":14815,"▁판매자":14816,"▁래\n":14817,"▁기질":14818,"▁당당히":14819,"▁가산점":14820,"▁방재":14821,"▁에지":14822,"▁귀가":14823,"▁시조":14824,"▁1962":14825,"▁영유":14826,"▁정운":14827,"▁소박":14828,"ome":14829,"▁심상정":14830,"▁층간":14831,"ology":14832,"▁당도":14833,"▁관해서":14834,"▁저력":14835,"▁LP":14836,"▁글루":14837,"▁마린":14838,"▁토너먼트":14839,"▁승강기":14840,"▁라든지":14841,"테리아":14842,"▁굳건":14843,"▁무소":14844,"▁정상급":14845,"▁상여금":14846,"▁존스":14847,"▁최저치":14848,"▁소홀히":14849,"▁몸살":14850,"하라":14851,"▁하여":14852,"▁출발점":14853,"▁느껴졌":14854,"fer":14855,"▁서포터":14856,"▁제어기":14857,"테스":14858,"▁스코틀랜드":14859,"▁엔드":14860,"▁명상":14861,"▁실무자":14862,"▁겸비":14863,"▁내야":14864,"rad":14865,"▁박승":14866,"▁끌어올렸":14867,"▁사주":14868,"▁모처럼":14869,"▁내려갔":14870,"▁위스키":14871,"▁소파":14872,"▁페루":14873,"▁몰드":14874,"▁휴지":14875,"▁맞선":14876,"▁바닷가":14877,"▁제소":14878,"▁부추기":14879,"▁출격":14880,"▁애\n":14881,"▁낮출":14882,"▁사정관":14883,"▁요미":14884,"▁딜러":14885,"▁낙태":14886,"▁겸손":14887,"▁NG":14888,"▁줄어든다":14889,"▁편집자":14890,"▁기강":14891,"▁수백만":14892,"경제":14893,"▁사은":14894,"--------":14895,"▁탐험":14896,"▁충청남도":14897,"취업":14898,"▁양반":14899,"▁레몬":14900,"▁일간지":14901,"▁조인":14902,"▁두꺼운":14903,"▁후계자":14904,"▁신데":14905,"▁영양소":14906,"▁달달":14907,"▁사체":14908,"▁시차":14909,"▁승패":14910,"▁박영선":14911,"▁온전히":14912,"▁존속":14913,"▁과감히":14914,"▁성급":14915,"▁슈퍼스타":14916,"▁면치":14917,"▁산모":14918,"▁호반":14919,"▁워크아웃":14920,"▁국회법":14921,"▁포레":14922,"▁코리안":14923,"▁재앙":14924,"▁~~~~~":14925,"▁인수위":14926,"▁자활":14927,"▁블루투스":14928,"▁단양":14929,"▁돌발":14930,"▁근까":14931,"▁경도":14932,"▁Be":14933,"▁강서":14934,"▁원주민":14935,"▁지켜본":14936,"▁주호영":14937,"▁양동":14938,"ish":14939,"▁외지":14940,"▁비밥":14941,"▁비주":14942,"▁연달":14943,"▁구획":14944,"▁조롱":14945,"▁수심":14946,"▁예견":14947,"▁GP":14948,"▁불문":14949,"▁변인":14950,"▁사탕":14951,"▁파출":14952,"▁운영\n":14953,"▁보입니다":14954,"chn":14955,"▁베토벤":14956,"▁공권력":14957,"▁김영삼":14958,"▁번갈":14959,"▁전광판":14960,"▁공언":14961,"▁변질":14962,"▁천막":14963,"▁줘요":14964,"▁청사진":14965,"▁감행":14966,"▁풍기":14967,"▁내려와":14968,"ink":14969,"▁홍명":14970,"▁저건":14971,"코스":14972,"▁전해진다":14973,"겠다":14974,"▁벌리":14975,"▁컨트롤러":14976,"▁독립운동가":14977,"▁중세":14978,"▁물의":14979,"▁지지대":14980,"▁강했":14981,"▁포리즘":14982,"▁심신":14983,"▁번복":14984,"▁통행료":14985,"▁거버스":14986,"▁De":14987,"▁담론":14988,"▁착안":14989,"▁미네랄":14990,"ous":14991,"▁인승":14992,"▁봉합":14993,"무사":14994,"▁장어":14995,"▁진주시":14996,"▁당직":14997,"▁SKT":14998,"오리":14999,"▁압구":15000,"▁수락":15001,"▁도도":15002,"▁부상자":15003,"▁한성":15004,"▁사촌":15005,"▁산전":15006,"▁Br":15007,"▁국화":15008,"▁탈환":15009,"▁연결부":15010,"▁도봉":15011,"▁입성":15012,"▁선글라스":15013,"▁트라이":15014,"▁득표율":15015,"▁싸인":15016,"▁아랫":15017,"▁아지":15018,"▁불고기":15019,"▁고찰":15020,"▁냉면":15021,"예금":15022,"▁동갑":15023,"▁코르":15024,"▁알람":15025,"▁정반대":15026,"▁리프트":15027,"▁군주":15028,"▁미디":15029,"▁플래그":15030,"▁GE":15031,"▁그러면은":15032,"▁!!!!!!!":15033,"▁절삭":15034,"▁달려가":15035,"▁넘버":15036,"▁공명":15037,"▁앙상":15038,"▁고추장":15039,"▁제반":15040,"▁부흥":15041,"▁존엄":15042,"▁장모":15043,"▁셔도":15044,"▁141":15045,"▁입장료":15046,"▁이스타":15047,"▁선제골":15048,"여정":15049,"▁배고프":15050,"에미리트":15051,"갈비":15052,"유\n":15053,"▁지극":15054,"▁나인":15055,"▁컬링":15056,"부인과":15057,"▁칼라":15058,"린다\n":15059,"▁민원인":15060,"이지리아":15061,"▁UV":15062,"▁아랍에미리트":15063,"▁커플링":15064,"▁발매되":15065,"▁이혜":15066,"▁다기":15067,"▁주정":15068,"▁미숙":15069,"▁허술":15070,"▁장세":15071,"▁인덕":15072,"▁틀린":15073,"▁벗어날":15074,"▁울려":15075,"▁이청용":15076,"▁조그":15077,"▁꾸리":15078,"부족":15079,"▁당혹":15080,"▁방열":15081,"▁저지르":15082,"▁개각":15083,"▁특별시":15084,"▁통운":15085,"▁펀치":15086,"▁객석":15087,"▁트롯":15088,"공업":15089,"▁상큼":15090,"▁커브":15091,"▁판소리":15092,"▁불발":15093,"▁나이지리아":15094,"▁가요\n":15095,"▁티브":15096,"▁이연":15097,"▁렌탈":15098,"우마":15099,"▁았었":15100,"▁재협":15101,"▁국과":15102,"▁부지런":15103,"▁강수량":15104,"▁하필":15105,"▁몰라서":15106,"아니":15107,"▁리틀":15108,"▁한국노총":15109,"▁선상":15110,"▁You":15111,"▁아닝":15112,"▁인회":15113,"▁콜비아":15114,"▁제왕":15115,"▁일삼":15116,"▁KDB":15117,"▁탈취":15118,"▁워드":15119,"▁SPC":15120,"▁희소":15121,"▁NI":15122,"▁중도금":15123,"▁신예":15124,"▁메이드":15125,"▁안타까움":15126,"▁경복":15127,"▁동해안":15128,"▁납세자":15129,"▁커패시터":15130,"▁동경":15131,"▁청결":15132,"▁오메":15133,"▁사지":15134,"▁내준":15135,"축제":15136,"▁군정":15137,"▁케이티":15138,"▁장안":15139,"림\n":15140,"▁중소기업청":15141,"▁이범":15142,"▁관사":15143,"▁호스트":15144,"▁노란색":15145,"▁정찰":15146,"▁전라도":15147,"▁스텐":15148,"▁예시":15149,"▁가져와":15150,"▁즈음":15151,"▁라오스":15152,"▁프로토콜":15153,"▁랑\n":15154,"▁누렸":15155,"▁과거사":15156,"▁급속도":15157,"ove":15158,"▁떠안":15159,"▁처하":15160,"▁ᄏᄏᄏᄏᄏᄏᄏᄏᄏᄏᄏᄏᄏᄏᄏᄏᄏᄏᄏᄏᄏᄏᄏᄏ\n":15161,"▁시판":15162,"▁자네":15163,"▁일부분":15164,"▁선언문":15165,"전선":15166,"▁일례":15167,"▁국립대":15168,"▁울트라":15169,"▁보너스":15170,"▁알린":15171,"신안":15172,"▁암시":15173,"▁에폭시":15174,"기념":15175,"▁귀촌":15176,"▁인파":15177,"▁청취자":15178,"▁복부":15179,"▁현물":15180,"▁악수":15181,"▁다승":15182,"▁왔으나":15183,"ics":15184,"누리":15185,"▁사다리":15186,"엘라":15187,"▁장중":15188,"▁러시":15189,"▁스며":15190,"▁피부과":15191,"▁사계절":15192,"▁손톱":15193,"▁일깨":15194,"▁천명":15195,"▁직렬":15196,"LC":15197,"세우":15198,"▁바닷물":15199,"▁일손":15200,"▁친수":15201,"▁선방":15202,"▁복도":15203,"▁고독":15204,"▁수천만":15205,"▁오라":15206,"▁우왕":15207,"▁찬사":15208,"▁오우":15209,"가와":15210,"▁신랑":15211,"▁첨가제":15212,"환자":15213,"무라":15214,"▁천지":15215,"▁유휴":15216,"▁아산시":15217,"▁단거리":15218,"▁금회":15219,"▁안겼":15220,"▁홍천":15221,"▁두려워":15222,"▁서도":15223,"▁fl":15224,"▁문양":15225,"▁불거졌":15226,"▁몰아주":15227,"▁건데요":15228,"work":15229,"▁트라우마":15230,"▁출사표":15231,"▁최형":15232,"▁과외":15233,"▁날아가":15234,"▁FM":15235,"▁출입문":15236,"▁선거인단":15237,"▁1967":15238,"▁귀한":15239,"▁어울려":15240,"▁접시":15241,"ated":15242,"▁들어와서":15243,"▁라이언":15244,"▁증여세":15245,"▁배향":15246,"▁KC":15247,"▁반론":15248,"▁시외":15249,"▁느냐고":15250,"▁구부":15251,"▁낭독":15252,"▁아레나":15253,"▁일몰":15254,"▁풍자":15255,"▁웃도":15256,"▁프로그래밍":15257,"mun":15258,"▁수십억":15259,"▁거슬러":15260,"▁더운":15261,"▁목표치":15262,"▁광산구":15263,"▁선대위":15264,"▁142":15265,"▁부탁드립니다":15266,"다이":15267,"▁산부인과":15268,"아시아":15269,"▁차인":15270,"▁적립금":15271,"▁확대\n":15272,"▁NE":15273,"▁악성":15274,"▁당위":15275,"▁고갈":15276,"▁오송":15277,"▁연평도":15278,"▁법률안":15279,"▁실리콘밸리":15280,"▁감도":15281,"▁se":15282,"▁사방":15283,"▁장신":15284,"▁물러났":15285,"▁베일":15286,"진짜":15287,"▁be":15288,"왜란":15289,"▁역\n":15290,"▁몬스터":15291,"▁실용신안":15292,"▁임진왜란":15293,"▁롯데호텔":15294,"▁전전":15295,"▁명\n":15296,"▁송정":15297,"▁괄":15298,"▁콜로":15299,"▁펼쳐질":15300,"▁주임":15301,"무장":15302,"▁자급":15303,"▁박형":15304,"▁라디":15305,"▁dis":15306,"▁강재":15307,"▁내재":15308,"▁오름세":15309,"▁타고":15310,"▁순매도":15311,"▁실험실":15312,"▁함대":15313,"어티":15314,"▁패했":15315,"▁증원":15316,"▁담회":15317,"▁감량":15318,"▁YTN":15319,"패스":15320,"노소":15321,"▁유모":15322,"▁사나이":15323,"▁무궁화":15324,"▁상법":15325,"투수":15326,"▁명장":15327,"oy":15328,"▁자의":15329,"▁일리":15330,"▁거들":15331,"▁225":15332,"▁의향":15333,"▁손바닥":15334,"▁밀어붙이":15335,"▁공진":15336,"▁트랩":15337,"itt":15338,"▁처럼\n":15339,"▁볼까요":15340,"▁다쳤":15341,"▁검단":15342,"▁ᄏᄏᄏᄏᄏᄏᄏᄏᄏᄏᄏᄏᄏᄏᄏ\n":15343,"▁한국사":15344,"▁2400":15345,"▁옥천":15346,"▁하루하루":15347,"▁버린다":15348,"▁이즈":15349,"▁sc":15350,"▁무수":15351,"▁얼룩":15352,"▁구실":15353,"▁취수":15354,"▁미인":15355,"▁농경":15356,"▁혼선":15357,"▁속이":15358,"▁휴무":15359,"oll":15360,"▁토론토":15361,"▁외교통":15362,"▁테크놀로지":15363,"▁공공시설":15364,"▁비씨":15365,"▁임창":15366,"어마":15367,"▁치마":15368,"▁페인":15369,"▁스트리트":15370,"▁반가":15371,"▁겨루":15372,"▁ᆞ고":15373,"▁회기":15374,"▁사절":15375,"▁항공편":15376,"▁발맞춰":15377,"레이트":15378,"▁김시":15379,"▁모공":15380,"▁배당금":15381,"▁NHN":15382,"▁흘려":15383,"RP":15384,"▁이긴":15385,"▁불사":15386,"▁페리":15387,"▁경남은행":15388,"▁이너":15389,"▁팔려":15390,"▁Tr":15391,"▁시흥시":15392,"▁송전탑":15393,"▁자이언츠":15394,"▁마쓰":15395,"▁북적":15396,"▁시어머니":15397,"▁고덕":15398,"▁강등":15399,"▁집무실":15400,"▁오니":15401,"▁기념품":15402,"서스":15403,"▁광대":15404,"▁기생충":15405,"▁심문":15406,"▁구치소":15407,"▁가창":15408,"▁클립":15409,"▁사극":15410,"▁내연":15411,"▁억지로":15412,"▁우여":15413,"장\n":15414,"▁포상금":15415,"▁도핑":15416,"▁안상수":15417,"▁당직자":15418,"▁간과":15419,"▁허리케인":15420,"▁쓰리":15421,"▁암모":15422,"램프":15423,"▁교포":15424,"▁달빛":15425,"▁봄철":15426,"사키":15427,"터스":15428,"▁통째":15429,"▁전보":15430,"▁인버터":15431,"▁뒤쪽":15432,"ich":15433,"▁명세서":15434,"▁투스":15435,"▁일면":15436,"▁노년":15437,"▁침범":15438,"▁모방":15439,"▁화천":15440,"기술센터":15441,"▁대웅":15442,"▁영등포구":15443,"▁대상물":15444,"▁응집":15445,"▁방범":15446,"▁땅볼":15447,"▁감격":15448,"▁Man":15449,"▁합친":15450,"▁나아갈":15451,"▁리자":15452,"▁부치":15453,"▁관세청":15454,"▁유적지":15455,"▁첨예":15456,"▁추월":15457,"▁남극":15458,"▁려나":15459,"▁만연":15460,"▁성형외과":15461,"▁젝":15462,"▁지오":15463,"▁송환":15464,"▁준하":15465,"▁블랙박스":15466,"▁화고":15467,"▁농업기술센터":15468,"▁맞섰":15469,"에어":15470,"▁박은":15471,"▁볼게요":15472,"▁벽돌":15473,"▁애완":15474,"▁렴":15475,"▁FO":15476,"▁도비":15477,"▁한판":15478,"▁컨베이":15479,"▁기자단":15480,"▁관로":15481,"ator":15482,"▁남녀노소":15483,"▁속보":15484,"▁처형":15485,"▁행정력":15486,"▁오마이":15487,"▁육류":15488,"▁모텔":15489,"▁미처":15490,"▁우리은행":15491,"▁음악가":15492,"▁amp":15493,"▁심근":15494,"▁리오":15495,"▁문성":15496,"▁밀러":15497,"▁으앙":15498,"▁잇몸":15499,"▁소행":15500,"▁병실":15501,"▁클라이언트":15502,"▁대나무":15503,"▁레바":15504,"▁양구":15505,"▁사라질":15506,"▁III":15507,"▁김태균":15508,"▁도산":15509,"▁발제":15510,"▁속해":15511,"▁맞춰서":15512,"▁조\n":15513,"▁역전승":15514,"▁급급":15515,"▁독소":15516,"▁치닫":15517,"▁삼성생명":15518,"▁필두":15519,"▁결말":15520,"▁카운티":15521,"▁자긍":15522,"▁전시실":15523,"▁쾌거":15524,"▁트림":15525,"곡절":15526,"▁GW":15527,"▁자백":15528,"▁흔하":15529,"▁피츠":15530,"▁흔들림":15531,"▁치부":15532,"▁큼":15533,"▁시시":15534,"▁복리":15535,"▁강우":15536,"▁원했":15537,"베트":15538,"▁식초":15539,"▁녹여":15540,"▁고루":15541,"▁수문":15542,"▁기다려야":15543,"▁이국":15544,"▁뽑혔":15545,"▁우여곡절":15546,"▁중상":15547,"▁명사":15548,"▁갑상선":15549,"▁각급":15550,"▁137":15551,"▁나미":15552,"▁선발투수":15553,"▁금상":15554,"▁윤석민":15555,"▁136":15556,"▁Wh":15557,"▁고아":15558,"▁모서리":15559,"▁손색":15560,"▁압출":15561,"▁됩니까":15562,"슬림":15563,"▁성토":15564,"▁Or":15565,"▁그다지":15566,"▁나카":15567,"▁점주":15568,"▁이어받":15569,"▁노이즈":15570,"▁다져":15571,"▁자긍심":15572,"▁조연":15573,"▁스위트":15574,"▁지킨":15575,"▁더라면":15576,"▁점퍼":15577,"▁학창":15578,"▁보낸다":15579,"▁동두천":15580,"▁못한다는":15581,"▁도가":15582,"▁1964":15583,"▁담아내":15584,"▁컨버터":15585,"▁파이널":15586,"▁회사원":15587,"▁구례":15588,"▁수역":15589,"▁보잉":15590,"▁소시":15591,"▁초밥":15592,"play":15593,"▁CM":15594,"▁시체":15595,"▁정맥":15596,"▁공석":15597,"레인지":15598,"▁특약":15599,"▁재연":15600,"VE":15601,"▁ᆞ미":15602,"▁정해져":15603,"▁양주시":15604,"▁코스트":15605,"▁책자":15606,"▁교란":15607,"▁파이어":15608,"▁역도":15609,"▁막힌":15610,"▁트러블":15611,"▁띄우":15612,"▁으셔":15613,"▁올라간다":15614,"호우":15615,"크림":15616,"▁우동":15617,"▁재취업":15618,"▁스테인리스":15619,"▁스텔":15620,"▁통풍":15621,"▁간신":15622,"▁무너진":15623,"▁놀란":15624,"▁맞출":15625,"▁문신":15626,"▁분뇨":15627,"ree":15628,"zz":15629,"▁첩보":15630,"▁대장암":15631,"▁김규":15632,"▁추종":15633,"▁좁히":15634,"▁NYT":15635,"▁어마어마":15636,"▁내용물":15637,"▁HS":15638,"▁아뇨":15639,"어링":15640,"▁Fl":15641,"▁컨베이어":15642,"▁리니":15643,"▁메우":15644,"▁김범":15645,"▁블라인":15646,"▁205":15647,"▁제안서":15648,"▁활동비":15649,"▁151":15650,"▁후생":15651,"▁입안":15652,"▁정연":15653,"▁평준":15654,"창기":15655,"제리":15656,"▁위암":15657,"▁부녀":15658,"리케":15659,"▁항암제":15660,"▁커리어":15661,"▁모태":15662,"▁진행\n":15663,"▁패치":15664,"▁샤오":15665,"▁시간대":15666,"oh":15667,"▁편해":15668,"▁청바지":15669,"▁유실":15670,"▁판촉":15671,"▁장자":15672,"▁가파르":15673,"▁소동":15674,"▁현대그룹":15675,"▁었었":15676,"▁참관":15677,"차기":15678,"▁커튼":15679,"▁위계":15680,"▁인린":15681,"▁트렌디":15682,"▁정적":15683,"▁발암":15684,"▁브러":15685,"▁분향소":15686,"▁도립":15687,"▁직관":15688,"▁카운터":15689,"▁cc":15690,"▁이우":15691,"▁무슬림":15692,"▁조미":15693,"▁애리조":15694,"▁울림":15695,"▁재일":15696,"▁Comp":15697,"게\n":15698,"▁무성":15699,"▁자유주의":15700,"▁손익":15701,"▁코끼리":15702,"▁스가":15703,"▁290":15704,"▁차이점":15705,"▁동학":15706,"▁자비":15707,"▁격투":15708,"부분":15709,"▁부적합":15710,"▁형량":15711,"▁집중호우":15712,"국장":15713,"▁스톡":15714,"▁넘어갔":15715,"▁태아":15716,"▁민간인":15717,"가요":15718,"▁묵묵히":15719,"▁돼도":15720,"▁통신비":15721,"▁구한":15722,"▁소사":15723,"▁교인":15724,"▁변모":15725,"▁인코":15726,"▁말단":15727,"전\n":15728,"▁판시":15729,"▁안토":15730,"거진":15731,"▁노점":15732,"▁재능기부":15733,"▁쓰였":15734,"▁신대":15735,"▁다정":15736,"▁모델링":15737,"▁FT":15738,"▁팔레스":15739,"ility":15740,"▁버드":15741,"▁극동":15742,"계약":15743,"▁설날":15744,"▁조개":15745,"▁사은품":15746,"▁정석":15747,"▁야쿠":15748,"▁클렌징":15749,"▁고모":15750,"▁152":15751,"ank":15752,"▁아껴":15753,"▁따위":15754,"▁유비":15755,"배상":15756,"ES":15757,"▁학군":15758,"▁식수":15759,"▁통관":15760,"▁혼다":15761,"▁노린":15762,"▁Car":15763,"▁경협":15764,"▁구했":15765,"▁잡스":15766,"▁상국":15767,"▁진보신":15768,"...\n":15769,"▁조달청":15770,"제한":15771,"보이":15772,"하키":15773,"▁재협상":15774,"▁원통형":15775,"▁형국":15776,"▁담백":15777,"▁킨텍스":15778,"▁슬롯":15779,"▁역삼":15780,"▁동인":15781,"▁연수구":15782,"▁건축물대장":15783,"▁교시":15784,"방울":15785,"▁Cr":15786,"▁처했":15787,"식물":15788,"▁주성":15789,"▁단추":15790,"▁예요\n":15791,"▁종신":15792,"▁카본":15793,"▁판결문":15794,"▁팔레스타인":15795,"▁거스":15796,"▁갖출":15797,"▁려구":15798,"로그램":15799,"▁떠들":15800,"▁쌓았":15801,"르르":15802,"▁TP":15803,"▁피칭":15804,"▁위함":15805,"▁검열":15806,"▁빠짐":15807,"▁전문대":15808,"▁복합체":15809,"▁스택":15810,"▁조광":15811,"▁비주류":15812,"▁페놀":15813,"▁직물":15814,"▁장영":15815,"▁동급":15816,"▁승선":15817,"▁노동계":15818,"▁타일":15819,"▁백수":15820,"▁요정":15821,"▁림프":15822,"▁천하":15823,"▁폐해":15824,"▁친선":15825,"man":15826,"▁적임자":15827,"프스":15828,"벌레":15829,"▁땅값":15830,"▁혈세":15831,"▁근거리":15832,"▁여태":15833,"▁페이퍼":15834,"▁RC":15835,"리나":15836,"▁박선":15837,"▁임영":15838,"▁성수":15839,"▁심폐":15840,"▁요코":15841,"▁BTS":15842,"▁괴로":15843,"▁별세":15844,"▁장대":15845,"▁안락":15846,"▁매트리스":15847,"▁법치":15848,"▁빅토":15849,"▁플레이스":15850,"김없이":15851,"▁리처드":15852,"▁옮김":15853,"▁체형":15854,"▁진위":15855,"▁어기":15856,"▁픈":15857,"▁생존자":15858,"▁나날":15859,"▁열대":15860,"▁어진":15861,"▁결재":15862,"▁송수신":15863,"▁서문":15864,"▁흘렀":15865,"▁연행":15866,"▁성장기":15867,"▁진다는":15868,"▁스미스":15869,"▁다다":15870,"▁기장군":15871,"▁Sm":15872,"▁포켓몬":15873,"▁민영":15874,"▁컬럼":15875,"▁산사태":15876,"▁리빙":15877,"▁악몽":15878,"▁놨다":15879,"▁그냥\n":15880,"▁묻혀":15881,"▁~?\n":15882,"성동":15883,"▁하\n":15884,"▁기출":15885,"▁지방산":15886,"▁일터":15887,"▁터전":15888,"▁계약자":15889,"▁으실":15890,"▁퍼레이드":15891,"▁몰랐다":15892,"▁부츠":15893,"▁개신":15894,"▁반죽":15895,"▁근력":15896,"▁판다":15897,"▁복음":15898,"▁쓰인":15899,"▁블라인드":15900,"재해":15901,"▁활물질":15902,"▁향유":15903,"▁윤성":15904,"▁수서":15905,"▁Fe":15906,"▁숲길":15907,"▁미묘":15908,"▁편찬":15909,"▁들였":15910,"▁남아프리카":15911,"▁하자":15912,"▁사고력":15913,"▁수선":15914,"▁진수":15915,"▁아쉬웠":15916,"▁증강현실":15917,"ata":15918,"▁카를":15919,"▁정용":15920,"▁팀원":15921,"gr":15922,"▁넘어설":15923,"▁시작\n":15924,"▁본원":15925,"▁아반":15926,"▁편식":15927,"▁북서":15928,"▁상세히":15929,"▁어버":15930,"▁석유공사":15931,"▁덩치":15932,"▁아님\n":15933,"▁회귀":15934,"▁배심":15935,"▁어류":15936,"▁7500":15937,"▁폴리에틸렌":15938,"▁헤어지":15939,"▁부검":15940,"함\n":15941,"ok":15942,"▁필러":15943,"ᄒ\n":15944,"▁선단":15945,"▁피리":15946,"종일":15947,"▁코노":15948,"▁파출소":15949,"▁벌크":15950,"▁뜻밖":15951,"▁국익":15952,"▁는데도":15953,"▁에너지원":15954,"은희":15955,"▁와일드":15956,"▁연제":15957,"▁역부족":15958,"▁내열":15959,"▁KEB":15960,"▁아인":15961,"▁파우더":15962,"조류":15963,"▁공급자":15964,"▁두각":15965,"▁노원":15966,"▁강대":15967,"▁자기장":15968,"▁열사":15969,"▁예탁":15970,"상가":15971,"▁Cont":15972,"▁들인":15973,"▁활주로":15974,"▁이동하":15975,"광석":15976,"▁로보":15977,"께요":15978,"▁인산":15979,"▁엉엉":15980,"▁특목":15981,"팔트":15982,"▁골재":15983,"▁IL":15984,"▁우승컵":15985,"▁143":15986,"▁편중":15987,"▁아스팔트":15988,"▁공시지가":15989,"▁굴곡":15990,"▁2\n":15991,"▁2200":15992,"▁어묵":15993,"▁라떼":15994,"▁냐고\n":15995,"▁가점":15996,"▁정영":15997,"▁절곡":15998,"▁선율":15999,"▁아릴":16000,"▁삼성카드":16001,"나도":16002,"▁장도":16003,"▁노령":16004,"▁외계":16005,"▁색감":16006,"▁해군기지":16007,"▁절친":16008,"▁퇴치":16009,"▁폭언":16010,"▁물리치":16011,"▁예우":16012,"▁발사체":16013,"▁부득":16014,"▁횡단보도":16015,"▁신협":16016,"▁제스":16017,"▁낸드":16018,"▁밴쿠버":16019,"▁씬":16020,"▁아이오":16021,"▁쳐다보":16022,"▁과천시":16023,"▁구애":16024,"▁쟁이":16025,"▁올인":16026,"▁부산물":16027,"▁구절":16028,"일치":16029,"TRA":16030,"▁너트":16031,"▁웃긴":16032,"▁핑장":16033,"▁여간":16034,"▁학비":16035,"▁인해서":16036,"▁게시물":16037,"▁다니까":16038,"▁양현종":16039,"▁담수":16040,"▁간선":16041,"▁바인":16042,"▁850":16043,"▁서인":16044,"▁빙상":16045,"▁로로":16046,"▁제트":16047,"▁BNK":16048,"▁손해배상":16049,"▁그걸로":16050,"공서":16051,"▁동사":16052,"▁선풍기":16053,"▁초창기":16054,"중독":16055,"▁여진":16056,"▁병우":16057,"▁차이나":16058,"▁일주":16059,"화\n":16060,"▁직류":16061,"▁초저":16062,"▁사재":16063,"▁로직스":16064,"▁IBM":16065,"▁혔":16066,"▁무형문화재":16067,"▁발대식":16068,"▁반고":16069,"▁레고":16070,"▁1966":16071,"▁조심히":16072,"▁소비세":16073,"▁Ind":16074,"▁사출":16075,"▁연립":16076,"▁투신":16077,"▁정종":16078,"▁ᅲᅲᅲᅲᅲᅲᅲᅲ":16079,"▁박보":16080,"진다는":16081,"▁미시":16082,"▁불순물":16083,"▁아이스하키":16084,"▁졸업식":16085,"▁틀림":16086,"음료":16087,"▁남서":16088,"▁유시민":16089,"▁덩달":16090,"eld":16091,"▁격자":16092,"▁중금속":16093,"▁방점":16094,"▁경비원":16095,"▁동정":16096,"▁귀속":16097,"▁팔꿈치":16098,"▁조직력":16099,"▁상체":16100,"▁과기":16101,"▁모른다는":16102,"▁고주파":16103,"수엘라":16104,"▁절도":16105,"▁마카":16106,"▁잇따른":16107,"▁마오":16108,"▁강철":16109,"▁입각":16110,"▁요기":16111,"▁We":16112,"▁휘도":16113,"▁나물":16114,"▁광양시":16115,"▁벗겨":16116,"▁수배":16117,"▁반도":16118,"▁함평":16119,"▁반응기":16120,"천리":16121,"▁브릿":16122,"▁은은":16123,"▁줄거리":16124,"▁인장":16125,"▁국부":16126,"▁입히":16127,"▁NBA":16128,"▁370":16129,"▁벼랑":16130,"▁알라":16131,"▁경청":16132,"▁낙마":16133,"▁합참":16134,"투자증권":16135,"▁출소":16136,"▁디렉":16137,"▁서진":16138,"▁어져":16139,"▁모셔":16140,"▁황태":16141,"▁사교육비":16142,"▁끝냈":16143,"▁HM":16144,"ole":16145,"▁습기":16146,"▁척도":16147,"▁스릴러":16148,"통화":16149,"퍼드":16150,"▁1961":16151,"▁천문학":16152,"▁더해져":16153,"▁430":16154,"▁예\n":16155,"▁답한":16156,"▁고화":16157,"▁슬슬":16158,"▁스트립":16159,"▁앙상블":16160,"▁저주":16161,"▁ON":16162,"▁여운":16163,"▁다산":16164,"ital":16165,"▁GO":16166,"▁일차":16167,"▁고배":16168,"▁백업":16169,"▁음력":16170,"▁석권":16171,"▁공교":16172,"▁개업":16173,"▁장내":16174,"▁현존":16175,"▁로그인":16176,"▁뒤편":16177,"▁전임자":16178,"▁몸싸움":16179,"▁친문":16180,"▁어느덧":16181,"▁원이":16182,"▁뛰어든":16183,"▁적색":16184,"▁후쿠오카":16185,"▁GC":16186,"▁OP":16187,"▁남\n":16188,"▁봐라":16189,"▁발표\n":16190,"▁더워":16191,"▁Ap":16192,"▁계엄":16193,"▁넘길":16194,"▁우웅":16195,"▁논산":16196,"▁1940":16197,"▁종단":16198,"▁리가":16199,"▁스트레칭":16200,"52":16201,"슬링":16202,"▁아쿠아":16203,"스타일":16204,"▁벌어들":16205,"어냈":16206,"▁이변":16207,"▁에디":16208,"만\n":16209,"▁총동원":16210,"▁일탈":16211,"▁드러난다":16212,"▁퇴적":16213,"▁세워진":16214,"▁하마":16215,"▁라든가":16216,"▁징역형":16217,"▁지망":16218,"▁아항":16219,"▁기다릴":16220,"▁베네수엘라":16221,"▁요양원":16222,"▁암세포":16223,"▁과학고":16224,"▁수사대":16225,"▁매수세":16226,"▁타이거즈":16227,"▁생명체":16228,"▁대의":16229,"▁어버이":16230,"▁느린":16231,"▁화끈":16232,"▁비서실":16233,"▁꼬마":16234,"▁파이팅":16235,"▁제격":16236,"▁선후":16237,"▁중환자":16238,"▁정기예금":16239,"▁셀러":16240,"줄기":16241,"축구연맹":16242,"▁시마":16243,"▁놓였":16244,"▁고농":16245,"▁공황":16246,"▁명인":16247,"▁무등":16248,"▁발발":16249,"▁총격":16250,"▁더니\n":16251,"▁DI":16252,"▁정동영":16253,"▁화기":16254,"▁프론":16255,"▁코카":16256,"▁보레":16257,"▁아아아아":16258,"▁구명":16259,"▁헤헤\n":16260,"▁는지\n":16261,"▁무제한":16262,"▁고속철":16263,"▁윤영":16264,"▁여단":16265,"▁의병":16266,"▁동호인":16267,"▁누리집":16268,"▁할까\n":16269,"▁사본":16270,"▁스트라이크":16271,"▁잠식":16272,"▁신기록":16273,"▁요미우리":16274,"▁다시금":16275,"▁비장":16276,"▁자연재해":16277,"▁ᄒᄒᄒᄒᄒᄒ":16278,"▁이요":16279,"▁정인":16280,"▁스캐":16281,"더니":16282,"▁정태":16283,"▁bl":16284,"혈증":16285,"▁차근":16286,"▁지폐":16287,"▁복면":16288,"▁제품군":16289,"▁대상지":16290,"▁WBC":16291,"▁Ag":16292,"▁여타":16293,"▁글래":16294,"▁대박\n":16295,"▁나폴":16296,"▁마중":16297,"▁김부겸":16298,"▁고취":16299,"▁선뜻":16300,"▁귀중":16301,"▁각본":16302,"▁간병":16303,"▁저절":16304,"▁현석":16305,"▁Bi":16306,"sh":16307,"▁황토":16308,"▁거머쥐":16309,"▁그니까\n":16310,"▁백라이트":16311,"▁스트로":16312,"▁410":16313,"▁한화그룹":16314,"▁농기계":16315,"▁황정":16316,"▁리포니아주":16317,"▁크리에이터":16318,"▁~!":16319,"제한구역":16320,"▁경각":16321,"▁고등어":16322,"▁루스":16323,"▁랍":16324,"row":16325,"▁안구":16326,"▁제형":16327,"▁도체":16328,"▁여객기":16329,"텔링":16330,"▁개발제한구역":16331,"▁백두산":16332,"▁네이처":16333,"▁헤르":16334,"▁번개":16335,"수도":16336,"▁올라간":16337,"산업개발":16338,"▁회부":16339,"▁ISO":16340,"▁의과":16341,"▁두드":16342,"▁인피":16343,"▁참패":16344,"▁제너":16345,"▁측량":16346,"▁망고":16347,"▁스토리텔링":16348,"▁153":16349,"▁에이전트":16350,"인물":16351,"▁한대":16352,"▁문정":16353,"▁시화":16354,"▁청자":16355,"▁나들이":16356,"▁할려고":16357,"▁종속":16358,"▁메디컬":16359,"▁마스터스":16360,"▁가이나":16361,"▁5500":16362,"▁밝혀진":16363,"▁손발":16364,"▁비평":16365,"▁실과":16366,"▁복당":16367,"▁낙인":16368,"실히":16369,"▁프로야구":16370,"▁영화배우":16371,"▁박동":16372,"▁낙지":16373,"▁가중치":16374,"▁정쟁":16375,"▁수교":16376,"▁북동":16377,"▁VO":16378,"▁난관":16379,"▁단수":16380,"aw":16381,"▁USB":16382,"▁팬데":16383,"▁영진":16384,"▁식중독":16385,"▁민간단체":16386,"▁틀리":16387,"▁저절로":16388,"▁성황리":16389,"▁황우":16390,"신호":16391,"▁아반떼":16392,"▁시제품":16393,"▁잊혀":16394,"▁포커스":16395,"▁패럴":16396,"▁고마움":16397,"▁일식":16398,"▁조윤":16399,"링크":16400,"▁간지":16401,"▁경작":16402,"▁QR":16403,"▁노회":16404,"▁전업":16405,"▁이보":16406,"▁서영":16407,"ᄀᄏᄀ":16408,"▁백종원":16409,"▁베이커":16410,"▁누\n":16411,"▁막연":16412,"▁근무자":16413,"▁HA":16414,"▁찰스":16415,"진로":16416,"▁성화":16417,"82":16418,"▁사시":16419,"▁전과":16420,"래요":16421,"▁부영":16422,"▁몸통":16423,"▁심의위":16424,"틸리티":16425,"▁로이":16426,"▁까다롭":16427,"▁시크릿":16428,"▁관례":16429,"▁리딩":16430,"▁자형":16431,"▁출부":16432,"▁후자":16433,"▁란다":16434,"▁지기":16435,"▁유틸리티":16436,"▁간혹":16437,"▁제청":16438,"▁나열":16439,"port":16440,"숨에":16441,"▁아프가":16442,"ᄋᄋ":16443,"▁전동차":16444,"▁단숨에":16445,"▁휴양림":16446,"▁개구부":16447,"▁예술단":16448,"▁놓쳤":16449,"▁JY":16450,"▁옹진":16451,"▁대서":16452,"▁ad":16453,"▁병동":16454,"▁불러일으키":16455,"▁은밀":16456,"▁인단":16457,"▁만능":16458,"▁매듭":16459,"▁im":16460,"▁선수촌":16461,"▁잠복":16462,"▁분진":16463,"▁일생":16464,"토토":16465,"▁태워":16466,"▁위태":16467,"▁154":16468,"▁스파크":16469,"▁세자":16470,"▁KGC":16471,"갑니다":16472,"▁난감":16473,"▁몰려들":16474,"▁기흥":16475,"▁로라":16476,"▁루머":16477,"▁준설":16478,"▁늘린":16479,"▁TC":16480,"▁는디\n":16481,"▁흘러가":16482,"베리아":16483,"▁에센스":16484,"▁막막":16485,"▁패러디":16486,"▁위키":16487,"각서":16488,"▁동종":16489,"클리":16490,"▁내사":16491,"▁분출":16492,"▁미약":16493,"▁MBN":16494,"▁져\n":16495,"▁황산":16496,"▁만장일치":16497,"▁번\n":16498,"▁도전장":16499,"▁감액":16500,"▁축구장":16501,"▁정몽준":16502,"▁쳐서":16503,"▁세여":16504,"▁GA":16505,"▁연천":16506,"▁그러게":16507,"▁가할":16508,"▁거미":16509,"▁애호":16510,"▁해왔":16511,"▁검체":16512,"▁순항":16513,"ix":16514,"ream":16515,"▁발리":16516,"▁금년":16517,"▁계발":16518,"▁아디":16519,"▁가디언":16520,"▁직책":16521,"▁서북":16522,"▁더라구요\n":16523,"▁사회학":16524,"▁시추":16525,"부산":16526,"▁양해각서":16527,"▁심했":16528,"▁전문직":16529,"▁차폐":16530,"▁물놀이":16531,"▁MLB":16532,"▁파나":16533,"▁초중":16534,"▁다이빙":16535,"▁유투":16536,"▁삼성동":16537,"ency":16538,"▁하버드대":16539,"▁원치":16540,"▁견딜":16541,"▁파병":16542,"하하":16543,"뚜기":16544,"지먼트":16545,"▁주선":16546,"▁온통":16547,"▁평화통일":16548,"▁병렬":16549,"러브":16550,"우병":16551,"▁긴밀히":16552,"▁매니지먼트":16553,"▁파이터":16554,"▁VI":16555,"연구소":16556,"올랐":16557,"▁1\n":16558,"▁접지":16559,"▁세그":16560,"▁원리금":16561,"▁프랑크":16562,"거스":16563,"▁공모주":16564,"▁가르침":16565,"▁문희":16566,"▁이형":16567,"▁약학":16568,"▁오케이":16569,"▁아프가니스탄":16570,"▁인포":16571,"▁SN":16572,"▁발명자":16573,"께\n":16574,"▁시련":16575,"▁오카":16576,"▁부터\n":16577,"▁전\n":16578,"▁판별":16579,"▁볼보":16580,"▁플랜지":16581,"▁un":16582,"레일리아":16583,"▁감산":16584,"▁법유":16585,"▁앞쪽":16586,"▁도난":16587,"▁란스":16588,"▁경실":16589,"▁탄수":16590,"▁현대산업개발":16591,"▁평탄":16592,"어요\n":16593,"▁미래형":16594,"▁노려":16595,"▁타개":16596,"▁접견":16597,"클로":16598,"▁슬라이더":16599,"▁생김":16600,"▁산후":16601,"▁스포츠토토":16602,"▁아드":16603,"▁동적":16604,"▁투영":16605,"▁행방":16606,"▁진천":16607,"▁인적":16608,"▁경영난":16609,"▁개도국":16610,"etwork":16611,"▁이라든가":16612,"사\n":16613,"▁이동식":16614,"▁양방향":16615,"▁런트":16616,"▁ᄏᄏᄏᄏᄏᄏᄏᄏᄏᄏᄏᄏᄏᄏᄏᄏᄏᄏᄏᄏᄏᄏᄏᄏᄏ\n":16617,"▁축구단":16618,"▁칙":16619,"▁SSM":16620,"▁박한":16621,"▁홍보물":16622,"▁지식인":16623,"▁굴러":16624,"▁뒤흔":16625,"어져":16626,"트릭":16627,"▁특례법":16628,"▁으로선":16629,"▁146":16630,"▁공정성":16631,"▁자작":16632,"▁안목":16633,"▁마카오":16634,"▁민병":16635,"▁MHz":16636,"▁답장":16637,"▁DTI":16638,"▁등록증":16639,"료품":16640,"▁붙잡혔":16641,"▁강화\n":16642,"▁무명":16643,"▁살렸":16644,"▁스마일":16645,"▁이세돌":16646,"통화기금":16647,"▁채웠":16648,"▁손보":16649,"▁따라잡":16650,"주곡":16651,"▁악의":16652,"▁승승":16653,"▁Korea":16654,"▁Gre":16655,"▁Ed":16656,"▁즐겼":16657,"▁디\n":16658,"▁제과":16659,"▁세그먼트":16660,"▁섬진":16661,"▁좌익":16662,"▁서초동":16663,"▁해내":16664,"▁전자기":16665,"▁맡겼":16666,"ier":16667,"▁경직":16668,"▁돌출부":16669,"▁%→":16670,"▁서귀포시":16671,"▁장력":16672,"▁~!\n":16673,"▁이스타항공":16674,"▁필연":16675,"▁기울였":16676,"▁지날":16677,"▁춤추":16678,"▁an":16679,"지방":16680,"▁전소":16681,"▁희석":16682,"▁새겨진":16683,"▁픽업":16684,"산면":16685,"▁RA":16686,"▁정오":16687,"▁밑돌":16688,"연료":16689,"▁자락":16690,"▁법대":16691,"▁시승":16692,"▁모아서":16693,"▁단조":16694,"▁맞아":16695,"▁국제통화기금":16696,"▁재미없":16697,"▁애교":16698,"▁소공":16699,"▁국밥":16700,"▁부문장":16701,"▁오거":16702,"▁다가올":16703,"▁격돌":16704,"58":16705,"▁연하":16706,"▁길\n":16707,"ND":16708,"▁일류":16709,"▁어획":16710,"▁2300":16711,"▁승부수":16712,"▁앙\n":16713,"▁백혈병":16714,"▁에세이":16715,"▁묘역":16716,"▁처사":16717,"▁두렵":16718,"▁호환":16719,"▁떨어진다는":16720,"lex":16721,"▁가위":16722,"▁쇠퇴":16723,"▁어딜":16724,"▁장학생":16725,"▁해답":16726,"▁대명사":16727,"▁순창":16728,"▁갈지":16729,"▁통기":16730,"▁격화":16731,"▁착오":16732,"▁컨설턴트":16733,"▁일용":16734,"학년":16735,"▁그린벨트":16736,"▁중앙일보":16737,"▁경각심":16738,"▁480":16739,"▁간행":16740,"운다":16741,"▁문학관":16742,"▁이춘":16743,"▁보디":16744,"▁슬기":16745,"속기":16746,"▁부원장":16747,"▁인트":16748,"▁아민":16749,"▁상작":16750,"▁해산물":16751,"▁장윤":16752,"▁trans":16753,"▁잔잔":16754,"▁질투":16755,"▁귀여우":16756,"▁정거":16757,"▁대열":16758,"▁사들이":16759,"▁적중":16760,"▁교통수단":16761,"▁완만":16762,"▁미학":16763,"▁평정":16764,"▁147":16765,"▁철학자":16766,"구장":16767,"DM":16768,"▁조인트":16769,"▁태권도":16770,"▁세안":16771,"▁빨간색":16772,"런트":16773,"▁유람":16774,"▁절로":16775,"81":16776,"▁김태호":16777,"▁대공":16778,"▁바쪽":16779,"erg":16780,"▁정병":16781,"▁아낌":16782,"▁구내":16783,"저것":16784,"▁물갈이":16785,"▁학교\n":16786,"보내":16787,"▁슈트":16788,"▁대칭":16789,"▁백운":16790,"▁매사":16791,"▁조선대":16792,"▁펴낸":16793,"▁대작":16794,"▁폭주":16795,"▁울음":16796,"▁지로":16797,"ah":16798,"▁평안":16799,"▁대치동":16800,"▁호국":16801,"▁금세":16802,"▁특산":16803,"▁지탱":16804,"▁하남시":16805,"▁특목고":16806,"▁주중":16807,"▁소비재":16808,"크로":16809,"▁동자":16810,"▁파르":16811,"▁선의":16812,"▁임실":16813,"▁핸드볼":16814,"▁원어":16815,"▁inter":16816,"▁소유주":16817,"▁위쪽":16818,"▁워즈":16819,"▁520":16820,"▁날로":16821,"▁유능":16822,"▁피복":16823,"▁하사":16824,"▁파리바":16825,"▁위약":16826,"▁공습":16827,"▁파탄":16828,"▁비대칭":16829,"▁청색":16830,"▁중심부":16831,"ool":16832,"▁절충":16833,"▁개연":16834,"▁남방":16835,"▁초석":16836,"▁공자":16837,"▁집어넣":16838,"▁욕실":16839,"▁최고위":16840,"▁신병":16841,"▁오른발":16842,"날드":16843,"▁대문":16844,"▁핵연료":16845,"▁훈련장":16846,"▁하나\n":16847,"▁택한":16848,"▁여친":16849,"▁운운":16850,"▁스카우트":16851,"▁1953":16852,"태평양":16853,"▁의료관광":16854,"▁드셨":16855,"▁162":16856,"▁아니한다":16857,"yc":16858,"▁요하":16859,"▁스스":16860,"▁변위":16861,"▁김영철":16862,"▁웅장":16863,"▁따돌리":16864,"▁임팩트":16865,"▁두드러지":16866,"▁부산은행":16867,"▁기해":16868,"▁대청":16869,"▁민망":16870,"▁립스틱":16871,"▁갖춰져":16872,"▁삼계":16873,"바바":16874,"▁투병":16875,"▁이것저것":16876,"▁골드만":16877,"▁불릴":16878,"▁설거지":16879,"▁자행":16880,"▁억제제":16881,"▁호우":16882,"▁획단":16883,"사전":16884,"▁광경":16885,"▁물꼬":16886,"▁척결":16887,"▁닐슨":16888,"▁자서":16889,"▁res":16890,"▁World":16891,"▁고파":16892,"▁더라고\n":16893,"▁덧붙여":16894,"유리":16895,"▁사의":16896,"▁Trans":16897,"▁.....\n":16898,"▁돌아간":16899,"쳐서":16900,"▁지만은":16901,"택시":16902,"▁모음":16903,"▁꾸민":16904,"▁최민":16905,"▁사하":16906,"▁거제시":16907,"▁재가동":16908,"▁컴포트":16909,"▁교향곡":16910,"▁주립":16911,"▁먹여":16912,"▁1919":16913,"호동":16914,"▁사사":16915,"▁성전":16916,"▁회의록":16917,"다나":16918,"▁알맞":16919,"▁수개월":16920,"▁스케이트":16921,"▁노원구":16922,"yd":16923,"▁목걸이":16924,"▁번호판":16925,"▁예천":16926,"▁방호":16927,"▁탄수화물":16928,"▁더미":16929,"▁토마스":16930,"▁식재":16931,"▁가속기":16932,"▁산맥":16933,"▁휘둘":16934,"▁수용성":16935,"▁구석구석":16936,"▁커스":16937,"ail":16938,"▁부러워":16939,"▁원청":16940,"▁히히\n":16941,"▁충동":16942,"▁포석":16943,"▁생성물":16944,"▁퍼즐":16945,"▁투표소":16946,"▁요리사":16947,"▁세브":16948,"▁이용료":16949,"▁BA":16950,"▁ro":16951,"▁잘생":16952,"톡스":16953,"▁카디":16954,"▁두터":16955,"▁애써":16956,"▁퍼팅":16957,"▁교향악단":16958,"▁양천구":16959,"▁뒤처":16960,"▁콤플렉스":16961,"닐라":16962,"▁분기점":16963,"▁스키장":16964,"▁녹조":16965,"▁넥스":16966,"▁해인":16967,"▁오스트레일리아":16968,"▁열세":16969,"▁그림책":16970,"▁브라우":16971,"▁증권가":16972,"▁밝혀야":16973,"▁신동빈":16974,"▁부가가치세":16975,"▁능선":16976,"▁아파서":16977,"▁티타":16978,"회전":16979,"▁아스널":16980,"▁김수현":16981,"▁정글":16982,"도록":16983,"▁가평군":16984,"남기":16985,"▁발라드":16986,"▁사춘":16987,"▁합천":16988,"미르":16989,"▁주소지":16990,"▁천식":16991,"▁느슨":16992,"▁넘어갈":16993,"▁해줘":16994,"▁결사":16995,"▁세계관":16996,"own":16997,"▁돋보인다":16998,"▁미녀":16999,"▁자아내":17000,"▁학장":17001,"89":17002,"▁템플":17003,"▁실생활":17004,"▁여겼":17005,"▁신명":17006,"arm":17007,"▁연못":17008,"▁촬영장":17009,"▁성실히":17010,"공개":17011,"▁혹독":17012,"▁랬":17013,"▁화훼":17014,"▁마녀":17015,"▁무심":17016,"▁다거나":17017,"▁HI":17018,"▁끌어들이":17019,"▁혈중":17020,"▁지휘봉":17021,"ife":17022,"▁브릿지":17023,"▁비무장":17024,"▁총영":17025,"▁아프간":17026,"▁초당":17027,"▁개강":17028,"▁정거장":17029,"▁지점장":17030,"▁고형":17031,"코니":17032,"▁간신히":17033,"▁수상\n":17034,"▁지민":17035,"▁자니":17036,"▁출토":17037,"ization":17038,"▁충고":17039,"▁토탈":17040,"▁폭설":17041,"▁살아갈":17042,"▁영통":17043,"▁번번":17044,"56":17045,"▁남학생":17046,"▁6500":17047,"▁마이스터":17048,"▁Elect":17049,"▁피했":17050,"▁어법":17051,"▁모여서":17052,"▁제각각":17053,"▁139":17054,"▁퓨전":17055,"▁밝기":17056,"▁지치":17057,"▁유성구":17058,"▁신현":17059,"▁에볼":17060,"▁사투리":17061,"▁빌린":17062,"▁간대":17063,"▁박테리아":17064,"▁개신교":17065,"▁럽":17066,"▁빈소":17067,"량체":17068,"▁승승장구":17069,"▁사회봉":17070,"▁조선인":17071,"▁pr":17072,"▁조원대":17073,"▁싸였":17074,"▁즉위":17075,"▁시끄러":17076,"▁휴스턴":17077,"▁운하":17078,"▁AK":17079,"▁달력":17080,"▁보인다고":17081,"인구":17082,"▁들렸":17083,"▁유스":17084,"▁남동구":17085,"▁밀렸":17086,"▁실렸":17087,"▁연석":17088,"▁사마":17089,"▁끼칠":17090,"▁하이트진로":17091,"재현":17092,"▁경미":17093,"▁신호탄":17094,"▁초심":17095,"브라":17096,"▁바리":17097,"▁경실련":17098,"마는":17099,"▁감금":17100,"▁통한다":17101,"진흥":17102,"▁식생활":17103,"▁취록":17104,"▁사람\n":17105,"▁복안":17106,"▁조계종":17107,"▁오정":17108,"▁임대인":17109,"▁성비":17110,"▁양치":17111,"▁찬물":17112,"▁폐사":17113,"▁빙수":17114,"▁도화":17115,"▁세습":17116,"▁이동해":17117,"▁교부세":17118,"▁나이키":17119,"▁호칭":17120,"▁국민카드":17121,"▁글고":17122,"▁아로":17123,"▁양키스":17124,"▁가출":17125,"▁ᄒᄒᄒᄒ\n":17126,"▁마르크":17127,"▁퓨처":17128,"▁완주군":17129,"▁통틀어":17130,"▁최하위":17131,"▁이병헌":17132,"▁혹시나":17133,"▁였음":17134,"글스":17135,"▁거지":17136,"51":17137,"▁애도":17138,"▁즘":17139,"▁주안":17140,"명령":17141,"▁간극":17142,"▁레게":17143,"▁수식어":17144,"▁비오":17145,"▁갑작스럽":17146,"▁줄여야":17147,"▁재기":17148,"▁교통량":17149,"ution":17150,"▁어야지\n":17151,"▁소나":17152,"▁스커트":17153,"깨비":17154,"테네":17155,"▁터트":17156,"차근":17157,"▁서대":17158,"계동":17159,"▁발진":17160,"▁터닝":17161,"▁이크":17162,"▁버퍼":17163,"▁급히":17164,"▁식욕":17165,"▁무마":17166,"감정원":17167,"▁EX":17168,"▁로울":17169,"▁자초":17170,"▁클레":17171,"▁차근차근":17172,"▁닭고기":17173,"▁053":17174,"▁아가씨":17175,"국해":17176,"▁면도":17177,"▁한국감정원":17178,"▁외무성":17179,"83":17180,"▁투데이":17181,"▁비철":17182,"▁이오":17183,"▁DGB":17184,"▁터질":17185,"▁선교사":17186,"▁오미":17187,"▁내려졌":17188,"▁이니":17189,"▁프로파":17190,"▁추론":17191,"▁중개업":17192,"▁도료":17193,"▁거듭날":17194,"▁방청":17195,"▁결별":17196,"▁도스":17197,"▁진척":17198,"▁변제":17199,"▁타로":17200,"▁칼국수":17201,"▁유기물":17202,"▁증빙":17203,"조명":17204,"▁레바논":17205,"▁축복":17206,"▁NFC":17207,"▁스러울":17208,"▁시드니":17209,"▁Mar":17210,"▁수작업":17211,"▁대령":17212,"▁임성":17213,"▁버그":17214,"▁파고들":17215,"▁작업장":17216,"뿌리":17217,"▁카니":17218,"87":17219,"▁현미경":17220,"▁자화":17221,"▁투자가":17222,"▁외우":17223,"▁인분":17224,"▁일품":17225,"▁위즈":17226,"▁수뇌":17227,"다드":17228,"▁심기":17229,"▁신시":17230,"▁허정":17231,"▁브로드밴드":17232,"▁ᅮᅮᅮ":17233,"▁방지법":17234,"▁오비":17235,"▁강남역":17236,"▁교반":17237,"▁싸웠":17238,"▁SDS":17239,"▁안병":17240,"▁명심":17241,"ative":17242,"▁놓이":17243,"▁지소":17244,"▁김성태":17245,"▁강원랜드":17246,"▁협찬":17247,"▁귀추":17248,"▁팔린":17249,"부동":17250,"▁내린다":17251,"▁부득이":17252,"▁고해":17253,"▁케냐":17254,"▁도자":17255,"▁작정":17256,"▁자력":17257,"▁움직였":17258,"▁스타일리시":17259,"▁민석":17260,"▁질수록":17261,"53":17262,"▁제니":17263,"▁망하":17264,"▁수은":17265,"▁삼가":17266,"▁인피니":17267,"▁천황":17268,"▁HE":17269,"▁학기제":17270,"84":17271,"▁계장":17272,"▁비닐하우스":17273,"▁태평":17274,"▁택하":17275,"▁트램":17276,"▁호프":17277,"▁괴롭히":17278,"▁상속세":17279,"▁불려":17280,"이행":17281,"▁LCC":17282,"▁사무처":17283,"▁흥청":17284,"▁플라워":17285,"▁산은":17286,"석희":17287,"▁156":17288,"▁항복":17289,"▁구도심":17290,"▁피로감":17291,"▁어김없이":17292,"▁떠돌":17293,"▁접어든":17294,"버섯":17295,"▁꺼지":17296,"▁케이싱":17297,"▁시외버스":17298,"▁문고":17299,"▁해태":17300,"▁관청":17301,"▁공급량":17302,"▁전할":17303,"▁고착":17304,"▁꼬박":17305,"▁차액":17306,"▁부평구":17307,"▁교단":17308,"▁All":17309,"니언":17310,"▁서울특별":17311,"▁맛난":17312,"려면":17313,"▁나아지":17314,"▁HP":17315,"▁머지":17316,"▁pH":17317,"위성":17318,"▁한정판":17319,"▁발신":17320,"86":17321,"▁목격자":17322,"▁유자":17323,"▁전월세":17324,"▁ABC":17325,"▁특허청":17326,"▁인증서":17327,"▁담담":17328,"▁비수기":17329,"▁수신기":17330,"▁제보자":17331,"▁%)’":17332,"▁세간":17333,"▁드박스":17334,"▁해독":17335,"▁개소식":17336,"▁무진":17337,"▁모집\n":17338,"▁브리지":17339,"▁인먼":17340,"▁공실":17341,"▁무너져":17342,"▁관공서":17343,"▁조향":17344,"맞춤":17345,"▁미칼":17346,"▁노노":17347,"▁탄화수소":17348,"▁이문":17349,"▁획일":17350,"▁건대":17351,"▁렌트":17352,"”\n":17353,"▁뒷면":17354,"▁그래두":17355,"▁ᅲᅲᅲᅲᅲ":17356,"▁차주":17357,"ype":17358,"▁부히":17359,"▁되돌려":17360,"▁제강":17361,"▁올드":17362,"▁관망":17363,"▁콘테":17364,"▁런닝":17365,"▁자갈":17366,"▁상판":17367,"▁청렴도":17368,"▁에어백":17369,"▁운전기사":17370,"▁스루":17371,"▁맡길":17372,"▁지휘관":17373,"▁국소":17374,"▁두근":17375,"▁더욱더":17376,"▁올라서":17377,"▁사활":17378,"▁보여서":17379,"▁cl":17380,"▁무지개":17381,"▁으면은":17382,"▁ICBM":17383,"▁거시":17384,"▁는커녕":17385,"▁개\n":17386,"▁재결":17387,"▁반칙":17388,"▁고정부":17389,"가짐":17390,"▁죽여":17391,"▁서지":17392,"▁북항":17393,"▁좌완":17394,"▁졌으며":17395,"▁고성군":17396,"▁데님":17397,
[...]
