{
    "version": "1.0",
    "truncation": null,
    "padding": null,
    "added_tokens": [
        {
            "id": 0,
            "special": true,
            "content": "[PAD]",
            "single_word": false,
            "lstrip": false,
            "rstrip": false,
            "normalized": false
        },
        {
            "id": 1,
            "special": true,
            "content": "[UNK]",
            "single_word": false,
            "lstrip": false,
            "rstrip": false,
            "normalized": false
        },
        {
            "id": 2,
            "special": true,
            "content": "[BOS]",
            "single_word": false,
            "lstrip": false,
            "rstrip": false,
            "normalized": false
        },
        {
            "id": 3,
            "special": true,
            "content": "[EOS]",
            "single_word": false,
            "lstrip": false,
            "rstrip": false,
            "normalized": false
        },
        {
            "id": 4,
            "special": true,
            "content": "[MASK]",
            "single_word": false,
            "lstrip": false,
            "rstrip": false,
            "normalized": false
        },
        {
            "id": 5,
            "special": true,
            "content": "[SEP]",
            "single_word": false,
            "lstrip": false,
            "rstrip": false,
            "normalized": false
        },
        {
            "id": 6,
            "special": true,
            "content": "#@주소#",
            "single_word": false,
            "lstrip": false,
            "rstrip": false,
            "normalized": false
        },
        {
            "id": 7,
            "special": true,
            "content": "#@이모티콘#",
            "single_word": false,
            "lstrip": false,
            "rstrip": false,
            "normalized": false
        },
        {
            "id": 8,
            "special": true,
            "content": "#@이름#",
            "single_word": false,
            "lstrip": false,
            "rstrip": false,
            "normalized": false
        },
        {
            "id": 9,
            "special": true,
            "content": "#@URL#",
            "single_word": false,
            "lstrip": false,
            "rstrip": false,
            "normalized": false
        },
        {
            "id": 10,
            "special": true,
            "content": "#@소속#",
            "single_word": false,
            "lstrip": false,
            "rstrip": false,
            "normalized": false
        },
        {
            "id": 11,
            "special": true,
            "content": "#@기타#",
            "single_word": false,
            "lstrip": false,
            "rstrip": false,
            "normalized": false
        },
        {
            "id": 12,
            "special": true,
            "content": "#@전번#",
            "single_word": false,
            "lstrip": false,
            "rstrip": false,
            "normalized": false
        },
        {
            "id": 13,
            "special": true,
            "content": "#@계정#",
            "single_word": false,
            "lstrip": false,
            "rstrip": false,
            "normalized": false
        },
        {
            "id": 14,
            "special": true,
            "content": "#@url#",
            "single_word": false,
            "lstrip": false,
            "rstrip": false,
            "normalized": false
        },
        {
            "id": 15,
            "special": true,
            "content": "#@번호#",
            "single_word": false,
            "lstrip": false,
            "rstrip": false,
            "normalized": false
        },
        {
            "id": 16,
            "special": true,
            "content": "#@금융#",
            "single_word": false,
            "lstrip": false,
            "rstrip": false,
            "normalized": false
        },
        {
            "id": 17,
            "special": true,
            "content": "#@신원#",
            "single_word": false,
            "lstrip": false,
            "rstrip": false,
            "normalized": false
        },
        {
            "id": 18,
            "special": true,
            "content": "#@장소#",
            "single_word": false,
            "lstrip": false,
            "rstrip": false,
            "normalized": false
        },
        {
            "id": 19,
            "special": true,
            "content": "#@시스템#사진#",
            "single_word": false,
            "lstrip": false,
            "rstrip": false,
            "normalized": false
        },
        {
            "id": 20,
            "special": true,
            "content": "#@시스템#동영상#",
            "single_word": false,
            "lstrip": false,
            "rstrip": false,
            "normalized": false
        },
        {
            "id": 21,
            "special": true,
            "content": "#@시스템#기타#",
            "single_word": false,
            "lstrip": false,
            "rstrip": false,
            "normalized": false
        },
        {
            "id": 22,
            "special": true,
            "content": "[TAB]",
            "single_word": false,
            "lstrip": false,
            "rstrip": false,
            "normalized": false
        },
        {
            "id": 23,
            "special": true,
            "content": "[NL]",
            "single_word": false,
            "lstrip": false,
            "rstrip": false,
            "normalized": false
        },
        {
            "id": 24,
            "special": true,
            "content": "#@시스템#삭제#",
            "single_word": false,
            "lstrip": false,
            "rstrip": false,
            "normalized": false
        },
        {
            "id": 25,
            "special": true,
            "content": "#@시스템#파일#",
            "single_word": false,
            "lstrip": false,
            "rstrip": false,
            "normalized": false
        },
        {
            "id": 26,
            "special": true,
            "content": "#@시스템#송금#",
            "single_word": false,
            "lstrip": false,
            "rstrip": false,
            "normalized": false
        },
        {
            "id": 27,
            "special": true,
            "content": "#@시스템#",
            "single_word": false,
            "lstrip": false,
            "rstrip": false,
            "normalized": false
        }
    ],
    "normalizer": {
        "type": "Sequence",
        "normalizers": [
            {
                "type": "Nmt"
            },
            {
                "type": "NFKC"
            },
            {
                "type": "Replace",
                "pattern": {
                    "Regex": " {2,}"
                },
                "content": " "
            }
        ]
    },
    "pre_tokenizer": {
        "type": "Metaspace",
        "replacement": "▁",
        "add_prefix_space": true
    },
    "post_processor": null,
    "decoder": {
        "type": "Metaspace",
        "replacement": "▁",
        "add_prefix_space": true
    },
    "model": {
        "type": "Unigram",
        "unk_id": 1,
        "vocab": [
            [
                "[PAD]",
                0.0
            ],
            [
                "[UNK]",
                0.0
            ],
            [
                "[BOS]",
                0.0
            ],
            [
                "[EOS]",
                0.0
            ],
            [
                "[MASK]",
                0.0
            ],
            [
                "[SEP]",
                0.0
            ],
            [
                "#@주소#",
                0.0
            ],
            [
                "#@이모티콘#",
                0.0
            ],
            [
                "#@이름#",
                0.0
            ],
            [
                "#@URL#",
                0.0
            ],
            [
                "#@소속#",
                0.0
            ],
            [
                "#@기타#",
                0.0
            ],
            [
                "#@전번#",
                0.0
            ],
            [
                "#@계정#",
                0.0
            ],
            [
                "#@url#",
                0.0
            ],
            [
                "#@번호#",
                0.0
            ],
            [
                "#@금융#",
                0.0
            ],
            [
                "#@신원#",
                0.0
            ],
            [
                "#@장소#",
                0.0
            ],
            [
                "#@시스템#사진#",
                0.0
            ],
            [
                "#@시스템#동영상#",
                0.0
            ],
            [
                "#@시스템#기타#",
                0.0
            ],
            [
                "[TAB]",
                0.0
            ],
            [
                "[NL]",
                0.0
            ],
            [
                "#@시스템#삭제#",
                0.0
            ],
            [
                "#@시스템#파일#",
                0.0
            ],
            [
                "#@시스템#송금#",
                0.0
            ],
            [
                "#@시스템#",
                0.0
            ],
            [
                "▁",
                -0.8170504283424833
            ],
            [
                "이",
                -4.114996003808432
            ],
            [
                ".",
                -4.136043506426805
            ],
            [
                "다",
                -4.173161566421182
            ],
            [
                "는",
                -4.360053982528626
            ],
            [
                "을",
                -4.522444764402575
            ],
            [
                "의",
                -4.640759488470618
            ],
            [
                "하",
                -4.72064185332815
            ],
            [
                "에",
                -4.732952972944869
            ],
            [
                "고",
                -4.810064370170075
            ],
            [
                "가",
                -4.949248037826219
            ],
            [
                ",",
                -5.0096914424600065
            ],
            [
                "은",
                -5.0319845147110485
            ],
            [
                "를",
                -5.072236058704814
            ],
            [
                "한",
                -5.089821358401
            ],
            [
                "도",
                -5.239245070810245
            ],
            [
                "기",
                -5.2625103240939595
            ],
            [
                "지",
                -5.343769727668779
            ],
            [
                "있",
                -5.379627077084223
            ],
            [
                "로",
                -5.595190318396842
            ],
            [
                "수",
                -5.598922358882032
            ],
            [
                "으로",
                -5.6087827133526496
            ],
            [
                "인",
                -5.647446014765368
            ],
            [
                "해",
                -5.68870457960373
            ],
            [
                "했",
                -5.7239411451574504
            ],
            [
                "과",
                -5.764202469437215
            ],
            [
                "(",
                -5.772310062853034
            ],
            [
                "대",
                -5.772698618634777
            ],
            [
                "에서",
                -5.780621411370753
            ],
            [
                ")",
                -5.784233262284829
            ],
            [
                "들",
                -5.808789374468454
            ],
            [
                "시",
                -5.912486154770523
            ],
            [
                "일",
                -5.937512856904686
            ],
            [
                "적",
                -5.983253025306372
            ],
            [
                "상",
                -6.000503570259649
            ],
            [
                "전",
                -6.022070154975161
            ],
            [
                "어",
                -6.029751389174674
            ],
            [
                "제",
                -6.06508258163149
            ],
            [
                "사",
                -6.065615941788288
            ],
            [
                "원",
                -6.086811144389408
            ],
            [
                "것",
                -6.087019377791936
            ],
            [
                "자",
                -6.098389545675975
            ],
            [
                "정",
                -6.132362937107043
            ],
            [
                "'",
                -6.165405672647925
            ],
            [
                "주",
                -6.213478851360005
            ],
            [
                "등",
                -6.217415364751307
            ],
            [
                "보",
                -6.249549257875309
            ],
            [
                "되",
                -6.263863579882475
            ],
            [
                "와",
                -6.270902587559874
            ],
            [
                "아",
                -6.279134678124798
            ],
            [
                "게",
                -6.292101083016423
            ],
            [
                "장",
                -6.292395707371568
            ],
            [
                "만",
                -6.3327296447407555
            ],
            [
                "나",
                -6.3577576776309215
            ],
            [
                "면",
                -6.369337719424191
            ],
            [
                "할",
                -6.4100892625051
            ],
            [
                "년",
                -6.420122379854632
            ],
            [
                "부",
                -6.435505248216359
            ],
            [
                "\"",
                -6.447591811415837
            ],
            [
                "1",
                -6.4796076259754365
            ],
            [
                "“",
                -6.545959394027982
            ],
            [
                "”",
                -6.564749006324011
            ],
            [
                "성",
                -6.5715332312806325
            ],
            [
                "2",
                -6.5895601337765015
            ],
            [
                "서",
                -6.594551551095073
            ],
            [
                "‘",
                -6.595271247201531
            ],
            [
                "’",
                -6.6248765089358805
            ],
            [
                "여",
                -6.6539704292664865
            ],
            [
                "었",
                -6.714693350807501
            ],
            [
                "중",
                -6.71565814807002
            ],
            [
                "그",
                -6.7398897419648165
            ],
            [
                "구",
                -6.767608757156221
            ],
            [
                "·",
                -6.773347058005385
            ],
            [
                "며",
                -6.811870887222273
            ],
            [
                "3",
                -6.814715140313265
            ],
            [
                "비",
                -6.817770110652045
            ],
            [
                "내",
                -6.821799475479679
            ],
            [
                "명",
                -6.82352694435539
            ],
            [
                "화",
                -6.829738338988349
            ],
            [
                "당",
                -6.851894000439028
            ],
            [
                "안",
                -6.853682647351398
            ],
            [
                "거",
                -6.857649062050786
            ],
            [
                "동",
                -6.861369053088083
            ],
            [
                "된",
                -6.9204284914626975
            ],
            [
                "말",
                -6.924933756529528
            ],
            [
                "개",
                -6.9373423783336055
            ],
            [
                "선",
                -6.952048911240656
            ],
            [
                "없",
                -6.969578012642529
            ],
            [
                "유",
                -6.972348062433921
            ],
            [
                "월",
                -6.981694279090654
            ],
            [
                "진",
                -7.002892934480482
            ],
            [
                "않",
                -7.00300265570252
            ],
            [
                "위",
                -7.011406240026814
            ],
            [
                "리",
                -7.030940402647165
            ],
            [
                "신",
                -7.03201871415072
            ],
            [
                "라",
                -7.036548634835066
            ],
            [
                "소",
                -7.052684278549183
            ],
            [
                "?",
                -7.0777962533454755
            ],
            [
                "조",
                -7.103688777761052
            ],
            [
                "4",
                -7.150713457306521
            ],
            [
                "세",
                -7.152947077770154
            ],
            [
                "공",
                -7.158782365063544
            ],
            [
                "5",
                -7.187595066868639
            ],
            [
                "까지",
                -7.201188904987983
            ],
            [
                "회",
                -7.205673057776922
            ],
            [
                "받",
                -7.24905138784198
            ],
            [
                "분",
                -7.254748224845224
            ],
            [
                "~",
                -7.258124238173391
            ],
            [
                "차",
                -7.259801374699773
            ],
            [
                "던",
                -7.288605652705288
            ],
            [
                "점",
                -7.2945858884261785
            ],
            [
                "오",
                -7.296118693129779
            ],
            [
                "미",
                -7.308126413408711
            ],
            [
                "요",
                -7.314846277350259
            ],
            [
                "재",
                -7.326964835276993
            ],
            [
                "연",
                -7.364165781848477
            ],
            [
                "용",
                -7.370282322387469
            ],
            [
                "면서",
                -7.3756101868908335
            ],
            [
                "치",
                -7.380265319796958
            ],
            [
                "%",
                -7.399006672557482
            ],
            [
                "▁지난",
                -7.403150736682685
            ],
            [
                "무",
                -7.407333805064619
            ],
            [
                "단",
                -7.408000349650436
            ],
            [
                "관",
                -7.423810495517216
            ],
            [
                "입",
                -7.430735339094838
            ],
            [
                "지만",
                -7.4315324248410874
            ],
            [
                "았",
                -7.443185104768736
            ],
            [
                "및",
                -7.4462986979556085
            ],
            [
                "간",
                -7.446565809175908
            ],
            [
                "네",
                -7.446785552289537
            ],
            [
                "라고",
                -7.450279848671302
            ],
            [
                "같",
                -7.451479843225263
            ],
            [
                "-",
                -7.458462775728762
            ],
            [
                "6",
                -7.463166032169967
            ],
            [
                "양",
                -7.463359026887767
            ],
            [
                "두",
                -7.484801455418882
            ],
            [
                "됐",
                -7.488701715554704
            ],
            [
                "겠",
                -7.489562875462633
            ],
            [
                "국",
                -7.49090880874307
            ],
            [
                "스",
                -7.4931968034327046
            ],
            [
                "반",
                -7.495721382762639
            ],
            [
                "문",
                -7.498357991157652
            ],
            [
                "▁된다",
                -7.51731872100066
            ],
            [
                "마",
                -7.518586889000696
            ],
            [
                "때",
                -7.543822300687433
            ],
            [
                "산",
                -7.55340652466036
            ],
            [
                "방",
                -7.554670194676936
            ],
            [
                "예",
                -7.562689114680259
            ],
            [
                "후",
                -7.572350157460862
            ],
            [
                "에게",
                -7.576860544403241
            ],
            [
                "더",
                -7.58444267548508
            ],
            [
                "▁대한",
                -7.585731148568003
            ],
            [
                "억",
                -7.5887589914966895
            ],
            [
                "경",
                -7.594658935398252
            ],
            [
                "는데",
                -7.60565168230354
            ],
            [
                "지역",
                -7.607082077084581
            ],
            [
                "야",
                -7.611337899545562
            ],
            [
                "권",
                -7.613103367737571
            ],
            [
                "부터",
                -7.617802175953779
            ],
            [
                "7",
                -7.624478102009464
            ],
            [
                "아니",
                -7.626454381871911
            ],
            [
                "형",
                -7.640415123079409
            ],
            [
                "계",
                -7.661819622173267
            ],
            [
                "실",
                -7.66211732769826
            ],
            [
                "발",
                -7.663674719015917
            ],
            [
                "호",
                -7.6866641558266195
            ],
            [
                "8",
                -7.689925698776637
            ],
            [
                "▁10",
                -7.693150683762832
            ],
            [
                "식",
                -7.7045136696615035
            ],
            [
                "▁한국",
                -7.718551903430932
            ],
            [
                "▁위해",
                -7.732584783889751
            ],
            [
                "강",
                -7.7345666914199125
            ],
            [
                "물",
                -7.739672357647086
            ],
            [
                "법",
                -7.747826047734069
            ],
            [
                "였",
                -7.750163274014275
            ],
            [
                "우",
                -7.751373501866846
            ],
            [
                "사업",
                -7.759002715565488
            ],
            [
                "저",
                -7.760089664532298
            ],
            [
                "감",
                -7.780068379223836
            ],
            [
                "9",
                -7.780743950731017
            ],
            [
                "체",
                -7.7910947041203045
            ],
            [
                "통",
                -7.803542010577116
            ],
            [
                "데",
                -7.807143474952353
            ],
            [
                "건",
                -7.809030014892304
            ],
            [
                "씨",
                -7.810794874470899
            ],
            [
                "많",
                -7.825213130116753
            ],
            [
                "생",
                -7.827930546203866
            ],
            [
                "모",
                -7.828778342673701
            ],
            [
                "때문",
                -7.848340827590556
            ],
            [
                "라는",
                -7.850754621040718
            ],
            [
                "▁통해",
                -7.85456068098709
            ],
            [
                "될",
                -7.856135964641373
            ],
            [
                "천",
                -7.8562748502997515
            ],
            [
                "또",
                -7.86038014688547
            ],
            [
                "좋",
                -7.867343793161957
            ],
            [
                "출",
                -7.876527314532991
            ],
            [
                "시장",
                -7.8765449455866605
            ],
            [
                "경우",
                -7.876873942819827
            ],
            [
                "번",
                -7.883538485214281
            ],
            [
                "행",
                -7.889081367822143
            ],
            [
                "#",
                -7.89038423289475
            ],
            [
                "우리",
                -7.892454149868303
            ],
            [
                "밝",
                -7.900998232508911
            ],
            [
                "사람",
                -7.90193816989683
            ],
            [
                "기업",
                -7.91167517566117
            ],
            [
                "달",
                -7.9239959518343195
            ],
            [
                "높",
                -7.929180597225185
            ],
            [
                "열",
                -7.929403863897811
            ],
            [
                "정부",
                -7.932773100488626
            ],
            [
                "불",
                -7.935316911882934
            ],
            [
                "니",
                -7.942017168268579
            ],
            [
                "대표",
                -7.953502175933673
            ],
            [
                "앞",
                -7.958599122686369
            ],
            [
                "각",
                -7.965122032838924
            ],
            [
                "영",
                -7.966393338295383
            ],
            [
                "가능",
                -7.9828652082546085
            ],
            [
                "지원",
                -7.989105245967066
            ],
            [
                "급",
                -7.993939822094722
            ],
            [
                "바",
                -7.994584454894744
            ],
            [
                "시간",
                -8.017372984918183
            ],
            [
                "음",
                -8.023559360931545
            ],
            [
                "도록",
                -8.026997801541386
            ],
            [
                "약",
                -8.030175555329238
            ],
            [
                "이름",
                -8.030211770222003
            ],
            [
                "혔",
                -8.030916330447246
            ],
            [
                "심",
                -8.031935382445646
            ],
            [
                "민",
                -8.036283020472236
            ],
            [
                "▁문제",
                -8.045974422102127
            ],
            [
                "습니다",
                -8.052503662281618
            ],
            [
                "초",
                -8.0613347822581
            ],
            [
                "군",
                -8.061884404111105
            ],
            [
                "배",
                -8.06380317737469
            ],
            [
                "사회",
                -8.067384654830759
            ],
            [
                "역",
                -8.075164587024343
            ],
            [
                "질",
                -8.078288863841037
            ],
            [
                "금",
                -8.082066974412465
            ],
            [
                "▁위한",
                -8.08477325655773
            ],
            [
                "함께",
                -8.088032832327409
            ],
            [
                "히",
                -8.092983718081749
            ],
            [
                "임",
                -8.095615347294487
            ],
            [
                "남",
                -8.097526832403368
            ],
            [
                "이번",
                -8.101122564056901
            ],
            [
                "사용",
                -8.103648146333331
            ],
            [
                "김",
                -8.104537675025334
            ],
            [
                "관련",
                -8.1152224564372
            ],
            [
                "드",
                -8.115478199912769
            ],
            [
                "파",
                -8.116799406703999
            ],
            [
                "본",
                -8.120565417492818
            ],
            [
                "속",
                -8.122813351470079
            ],
            [
                "#@",
                -8.123273961152417
            ],
            [
                "해야",
                -8.127770718035073
            ],
            [
                "타",
                -8.132996230095026
            ],
            [
                "박",
                -8.136375380010124
            ],
            [
                "▁미국",
                -8.161917062628367
            ],
            [
                "곳",
                -8.163032278557335
            ],
            [
                "외",
                -8.164561097840137
            ],
            [
                "0",
                -8.173721355618246
            ],
            [
                "크",
                -8.182783198241061
            ],
            [
                "현",
                -8.18458856851601
            ],
            [
                "피",
                -8.18545803669454
            ],
            [
                "▁따라",
                -8.187642505420195
            ],
            [
                "집",
                -8.18965954373484
            ],
            [
                "잘",
                -8.197370038352384
            ],
            [
                "함",
                -8.198942216206891
            ],
            [
                "!",
                -8.204016935290582
            ],
            [
                "항",
                -8.20950707280005
            ],
            [
                "포",
                -8.210143659512038
            ],
            [
                "맞",
                -8.214004518093544
            ],
            [
                "난",
                -8.21522675994729
            ],
            [
                "길",
                -8.221392838122298
            ],
            [
                "필요",
                -8.224034160249799
            ],
            [
                "▁대통령",
                -8.224652668653748
            ],
            [
                "알",
                -8.225597855001277
            ],
            [
                "먹",
                -8.229751622217483
            ],
            [
                "교육",
                -8.231462653106435
            ],
            [
                "경제",
                -8.233099735596106
            ],
            [
                "별",
                -8.233933044401821
            ],
            [
                "개발",
                -8.23733922687717
            ],
            [
                "교",
                -8.239734277542663
            ],
            [
                "학",
                -8.242034181470148
            ],
            [
                "서울",
                -8.257380686659921
            ],
            [
                "르",
                -8.25869534287478
            ],
            [
                "▁20",
                -8.263695195202228
            ],
            [
                "생각",
                -8.264837584728738
            ],
            [
                "종",
                -8.266859434796102
            ],
            [
                "돼",
                -8.271581940966383
            ],
            [
                "계획",
                -8.272664621930499
            ],
            [
                "직",
                -8.27627152752984
            ],
            [
                "지금",
                -8.300784718686598
            ],
            [
                "작",
                -8.302109809811714
            ],
            [
                "기술",
                -8.303442305442134
            ],
            [
                "경기",
                -8.30881176877587
            ],
            [
                "다른",
                -8.309367179683392
            ],
            [
                "▁세계",
                -8.313515370250052
            ],
            [
                "▁진행",
                -8.33334354945928
            ],
            [
                "▁이후",
                -8.35234488506715
            ],
            [
                "줄",
                -8.354989539184187
            ],
            [
                "▁중국",
                -8.36252073111146
            ],
            [
                "온",
                -8.365775631645986
            ],
            [
                "력",
                -8.368636561298889
            ],
            [
                "▁30",
                -8.375695941079899
            ],
            [
                "어서",
                -8.384894432868693
            ],
            [
                "시작",
                -8.387528840339321
            ],
            [
                "올해",
                -8.388711138357015
            ],
            [
                "총",
                -8.389157220368494
            ],
            [
                "▁최근",
                -8.392301962752622
            ],
            [
                "조사",
                -8.394561467705307
            ],
            [
                "뭐",
                -8.400542506450618
            ],
            [
                "▁국내",
                -8.401645815729202
            ],
            [
                "상황",
                -8.406763982088528
            ],
            [
                "▁12",
                -8.412926967605216
            ],
            [
                "새",
                -8.414127168300258
            ],
            [
                "포함",
                -8.417787539148692
            ],
            [
                "추",
                -8.425622636297916
            ],
            [
                "트",
                -8.427129756539118
            ],
            [
                "▁현재",
                -8.428453603073404
            ],
            [
                "살",
                -8.429183809533482
            ],
            [
                "뒤",
                -8.43093338475472
            ],
            [
                "향",
                -8.441049841992745
            ],
            [
                "으며",
                -8.444003167448493
            ],
            [
                "특히",
                -8.449552253238627
            ],
            [
                "A",
                -8.454565705150664
            ],
            [
                "판",
                -8.454648169843422
            ],
            [
                "량",
                -8.459210721401634
            ],
            [
                "만들",
                -8.46127868557225
            ],
            [
                "▁11",
                -8.462127270302854
            ],
            [
                "후보",
                -8.468638322540073
            ],
            [
                "결",
                -8.468786619181548
            ],
            [
                "운영",
                -8.469003325460557
            ],
            [
                "산업",
                -8.469879882392652
            ],
            [
                "▁19",
                -8.473094289632119
            ],
            [
                "증",
                -8.476987119922867
            ],
            [
                "문화",
                -8.477104037765667
            ],
            [
                "하나",
                -8.48191498014191
            ],
            [
                "죠",
                -8.483528400543467
            ],
            [
                "▁결과",
                -8.484174266127738
            ],
            [
                "석",
                -8.484239841873247
            ],
            [
                "▁이용",
                -8.484759620314517
            ],
            [
                "정보",
                -8.489627801950995
            ],
            [
                "노",
                -8.491881953567384
            ],
            [
                "편",
                -8.498551433128421
            ],
            [
                "큰",
                -8.49956220100547
            ],
            [
                "준",
                -8.49970344887976
            ],
            [
                "이런",
                -8.500113693728805
            ],
            [
                "관리",
                -8.503489809884364
            ],
            [
                "매",
                -8.507630937425166
            ],
            [
                "m",
                -8.514137923871802
            ],
            [
                "▁국민",
                -8.515506799790693
            ],
            [
                "학교",
                -8.517888469211554
            ],
            [
                "이날",
                -8.51896894927023
            ],
            [
                "청",
                -8.519891876644163
            ],
            [
                "졌",
                -8.524765519166575
            ],
            [
                "발생",
                -8.530148371819203
            ],
            [
                "▁일본",
                -8.532085871685931
            ],
            [
                "투자",
                -8.533634688059927
            ],
            [
                "층",
                -8.535343820102005
            ],
            [
                "팀",
                -8.538245540564999
            ],
            [
                "날",
                -8.538384987459255
            ],
            [
                "담",
                -8.546272320116373
            ],
            [
                "표",
                -8.54942124283426
            ],
            [
                "관계자",
                -8.558388396404727
            ],
            [
                "측",
                -8.560294319991538
            ],
            [
                "▁국가",
                -8.565485664571383
            ],
            [
                "어요",
                -8.566998388186667
            ],
            [
                "금융",
                -8.567374709137637
            ],
            [
                "활동",
                -8.574228621628457
            ],
            [
                "해서",
                -8.574398379687938
            ],
            [
                "시스템",
                -8.575094882430545
            ],
            [
                "갖",
                -8.581794105835748
            ],
            [
                "연구",
                -8.588170770072596
            ],
            [
                "싶",
                -8.590520138704033
            ],
            [
                "▁예정",
                -8.590588485354893
            ],
            [
                "최",
                -8.590664316307553
            ],
            [
                "추진",
                -8.590750054503651
            ],
            [
                "볼",
                -8.59261131465955
            ],
            [
                "사실",
                -8.592682362187894
            ],
            [
                "평가",
                -8.59329512055758
            ],
            [
                "정책",
                -8.594967174185419
            ],
            [
                "모두",
                -8.595669147286333
            ],
            [
                "막",
                -8.600993389291261
            ],
            [
                "란",
                -8.608634937098188
            ],
            [
                "라며",
                -8.608828946437914
            ],
            [
                "설",
                -8.620227965590667
            ],
            [
                "좀",
                -8.62047471984609
            ],
            [
                "학생",
                -8.640054442823859
            ],
            [
                "서비스",
                -8.640725710384087
            ],
            [
                "거나",
                -8.64141447374765
            ],
            [
                "또는",
                -8.642805603174144
            ],
            [
                "승",
                -8.644081918573669
            ],
            [
                "걸",
                -8.656302511580723
            ],
            [
                "많이",
                -8.659508726469413
            ],
            [
                "▁기준",
                -8.67163708454686
            ],
            [
                "백",
                -8.672787133266887
            ],
            [
                "려",
                -8.67580636645265
            ],
            [
                "합",
                -8.68094899355672
            ],
            [
                "기관",
                -8.684226734006083
            ],
            [
                "제공",
                -8.68914555821457
            ],
            [
                "으면",
                -8.693537987696926
            ],
            [
                "업체",
                -8.696212438195493
            ],
            [
                "하지만",
                -8.699240142915736
            ],
            [
                "운",
                -8.700961708184574
            ],
            [
                "제품",
                -8.702142503448242
            ],
            [
                "루",
                -8.703001530991587
            ],
            [
                "자신",
                -8.704168338379942
            ],
            [
                "C",
                -8.706653416645981
            ],
            [
                "왔",
                -8.70976047097921
            ],
            [
                "처럼",
                -8.722084176997946
            ],
            [
                "▁기록",
                -8.725501843763114
            ],
            [
                "류",
                -8.728836719794494
            ],
            [
                "넘",
                -8.73142571170366
            ],
            [
                "▁ᆞ",
                -8.736183828906563
            ],
            [
                "규모",
                -8.739010276046233
            ],
            [
                "찾",
                -8.741682243592884
            ],
            [
                "참여",
                -8.74346064123246
            ],
            [
                "변",
                -8.744165479828624
            ],
            [
                "손",
                -8.74535227158323
            ],
            [
                "방법",
                -8.747532758411683
            ],
            [
                "센터",
                -8.74867058894185
            ],
            [
                "▁결정",
                -8.755407399465533
            ],
            [
                "책",
                -8.760118172252042
            ],
            [
                "시설",
                -8.76318031727241
            ],
            [
                "님",
                -8.76562021418669
            ],
            [
                "시민",
                -8.76730662635179
            ],
            [
                "못",
                -8.768607455265746
            ],
            [
                "▁15",
                -8.769822114896794
            ],
            [
                "설명",
                -8.775384545818154
            ],
            [
                "다음",
                -8.776996609698955
            ],
            [
                "또한",
                -8.78047903933055
            ],
            [
                "▁따르",
                -8.78100683054661
            ],
            [
                "키",
                -8.78446311381451
            ],
            [
                "▁선수",
                -8.78593419161037
            ],
            [
                "삼",
                -8.786954582727368
            ],
            [
                "격",
                -8.788022274593738
            ],
            [
                "그러나",
                -8.795400598556753
            ],
            [
                "증가",
                -8.796055477581262
            ],
            [
                "확인",
                -8.79942887697833
            ],
            [
                "▁정치",
                -8.803738010940274
            ],
            [
                "채",
                -8.804594334288554
            ],
            [
                "S",
                -8.805482410688995
            ],
            [
                "목",
                -8.805696355834499
            ],
            [
                "환경",
                -8.80868376099783
            ],
            [
                "카",
                -8.810564892358851
            ],
            [
                "너무",
                -8.811556978288301
            ],
            [
                "동안",
                -8.811940391178819
            ],
            [
                "업",
                -8.81533562280686
            ],
            [
                "합니다",
                -8.818741641500152
            ],
            [
                "처",
                -8.820017182395077
            ],
            [
                "위원회",
                -8.820094293855728
            ],
            [
                "뿐",
                -8.823812702574124
            ],
            [
                "태",
                -8.826739842132813
            ],
            [
                "병",
                -8.827952371101912
            ],
            [
                "참",
                -8.828312665071744
            ],
            [
                "친",
                -8.830355501457278
            ],
            [
                "▁구성",
                -8.833836274948885
            ],
            [
                "주민",
                -8.834584261523037
            ],
            [
                "▁100",
                -8.843079617207296
            ],
            [
                "코",
                -8.84901147372703
            ],
            [
                "올",
                -8.849436824213779
            ],
            [
                "시키",
                -8.854610466276837
            ],
            [
                "그런",
                -8.856550790879007
            ],
            [
                "설치",
                -8.861701211092223
            ],
            [
                "내용",
                -8.8636869329161
            ],
            [
                "쓰",
                -8.865846806426175
            ],
            [
                "창",
                -8.865857256973039
            ],
            [
                "/",
                -8.867764522944723
            ],
            [
                "첫",
                -8.872751333245407
            ],
            [
                "엔",
                -8.872909765492327
            ],
            [
                "회장",
                -8.873034313361464
            ],
            [
                "광",
                -8.87693150423333
            ],
            [
                "디",
                -8.87916200901458
            ],
            [
                "대학",
                -8.880403212286287
            ],
            [
                "회사",
                -8.880909985427593
            ],
            [
                "눈",
                -8.885962038968575
            ],
            [
                "토",
                -8.885963417457631
            ],
            [
                "잡",
                -8.88664136488431
            ],
            [
                "▁최고",
                -8.889488826948769
            ],
            [
                "순",
                -8.892056081472425
            ],
            [
                "판매",
                -8.892997787431982
            ],
            [
                "▁18",
                -8.893298742270353
            ],
            [
                "째",
                -8.898600501013112
            ],
            [
                "생활",
                -8.8987683723457
            ],
            [
                "마련",
                -8.900518803261251
            ],
            [
                "그리고",
                -8.90501027371493
            ],
            [
                "생산",
                -8.905108668817459
            ],
            [
                "코로나",
                -8.908919958887354
            ],
            [
                "왜",
                -8.911209563909264
            ],
            [
                "발표",
                -8.911550449774312
            ],
            [
                "복",
                -8.911727297413384
            ],
            [
                "성장",
                -8.913485017877615
            ],
            [
                "분석",
                -8.914508783630584
            ],
            [
                "감독",
                -8.917756301582617
            ],
            [
                "▁알려",
                -8.91869503247173
            ],
            [
                "애",
                -8.918796471368275
            ],
            [
                "▁전국",
                -8.920032247142741
            ],
            [
                "▁북한",
                -8.920145587773417
            ],
            [
                "사건",
                -8.92375770064516
            ],
            [
                "방송",
                -8.924606856079915
            ],
            [
                "중요",
                -8.925980588154882
            ],
            [
                "대회",
                -8.928987214002396
            ],
            [
                "가격",
                -8.930639513813803
            ],
            [
                "상태",
                -8.9314265110455
            ],
            [
                "교수",
                -8.9342808644965
            ],
            [
                "영화",
                -8.934366322609115
            ],
            [
                "기간",
                -8.935328922346157
            ],
            [
                "률",
                -8.936843742060688
            ],
            [
                "▁확대",
                -8.937818032184737
            ],
            [
                "돈",
                -8.939382716304339
            ],
            [
                "오늘",
                -8.940384430917623
            ],
            [
                "돌",
                -8.940920735721349
            ],
            [
                "터",
                -8.942291910650226
            ],
            [
                "놓",
                -8.943691555176871
            ],
            [
                "활용",
                -8.943908163422492
            ],
            [
                "래",
                -8.943920115693887
            ],
            [
                "▁국제",
                -8.9462152541416
            ],
            [
                "주택",
                -8.947106307423878
            ],
            [
                "가운데",
                -8.947216166975357
            ],
            [
                "행사",
                -8.951876061205345
            ],
            [
                "북",
                -8.952412686538652
            ],
            [
                "▁공개",
                -8.955235959618207
            ],
            [
                "율",
                -8.957150325465555
            ],
            [
                "D",
                -8.957201037258786
            ],
            [
                "▁지방",
                -8.958364819933541
            ],
            [
                "▁50",
                -8.958686562066218
            ],
            [
                "▁ᄏᄏ",
                -8.962461850635558
            ],
            [
                "사진",
                -8.96256035267858
            ],
            [
                "그렇",
                -8.964157533518492
            ],
            [
                "자리",
                -8.966126584045913
            ],
            [
                "효과",
                -8.971315012593204
            ],
            [
                "침",
                -8.973917508395083
            ],
            [
                "▁주장",
                -8.974949702117536
            ],
            [
                "론",
                -8.976115505508638
            ],
            [
                "처음",
                -8.976154397817977
            ],
            [
                "▁여성",
                -8.981180871172084
            ],
            [
                "▁요구",
                -8.981640163132516
            ],
            [
                "듯",
                -8.982986806897392
            ],
            [
                "늘",
                -8.984782437446905
            ],
            [
                "진짜",
                -8.987895812753568
            ],
            [
                "안전",
                -8.989316911924433
            ],
            [
                "응",
                -8.98978834388133
            ],
            [
                "▁직접",
                -8.990448332707162
            ],
            [
                "한다는",
                -8.99394461923059
            ],
            [
                "단계",
                -8.995655322669904
            ],
            [
                "그러",
                -8.997576510434207
            ],
            [
                "부산",
                -9.002925909078654
            ],
            [
                "▁25",
                -9.003119774628686
            ],
            [
                "관계",
                -9.0031869216737
            ],
            [
                "수준",
                -9.003770451468824
            ],
            [
                "냐",
                -9.004057701016123
            ],
            [
                "△",
                -9.004287602178447
            ],
            [
                "▁부분",
                -9.004714212387391
            ],
            [
                ";",
                -9.00507678594345
            ],
            [
                "긴",
                -9.006331144936045
            ],
            [
                "환",
                -9.011836093327982
            ],
            [
                "모든",
                -9.019062454256643
            ],
            [
                "▁중심",
                -9.020056705004823
            ],
            [
                "폭",
                -9.020386521534355
            ],
            [
                "러",
                -9.021271504483712
            ],
            [
                "준비",
                -9.021824712763665
            ],
            [
                "B",
                -9.022155819775792
            ],
            [
                "축",
                -9.02267297560006
            ],
            [
                "분야",
                -9.02460964859639
            ],
            [
                "▁일부",
                -9.027178978993327
            ],
            [
                "프로그램",
                -9.02789251096071
            ],
            [
                "티",
                -9.030099121337411
            ],
            [
                "선거",
                -9.031742051676183
            ],
            [
                "▁구조",
                -9.032243514968405
            ],
            [
                "한편",
                -9.032622411063215
            ],
            [
                "▁일반",
                -9.035380446221094
            ],
            [
                "▁장치",
                -9.036574339946693
            ],
            [
                "이렇게",
                -9.037250481688886
            ],
            [
                "▁강화",
                -9.039097876850747
            ],
            [
                "전체",
                -9.041104010937342
            ],
            [
                "만큼",
                -9.042101598633907
            ],
            [
                "그룹",
                -9.042590860522736
            ],
            [
                "개선",
                -9.044457537132141
            ],
            [
                "낮",
                -9.0478968110259
            ],
            [
                "근데",
                -9.048281870564194
            ],
            [
                "따른",
                -9.05143142838462
            ],
            [
                "근",
                -9.053612045752848
            ],
            [
                "발전",
                -9.0562652632732
            ],
            [
                "모습",
                -9.058044769327944
            ],
            [
                "투",
                -9.060396948587403
            ],
            [
                "액",
                -9.060774665050623
            ],
            [
                "방식",
                -9.061672204399644
            ],
            [
                "은행",
                -9.062672734895978
            ],
            [
                "어떤",
                -9.063517874987522
            ],
            [
                "운동",
                -9.065593054300312
            ],
            [
                "전망",
                -9.070387803270604
            ],
            [
                "국회",
                -9.071606994277337
            ],
            [
                "▁조성",
                -9.075475200364238
            ],
            [
                "힘",
                -9.078915679243627
            ],
            [
                "관심",
                -9.079858568479528
            ],
            [
                "▁13",
                -9.080862271526273
            ],
            [
                "평",
                -9.082528218876533
            ],
            [
                "▁16",
                -9.083287612720842
            ],
            [
                "송",
                -9.083329856969923
            ],
            [
                "이러",
                -9.083780661802917
            ],
            [
                "▁대구",
                -9.084205370015075
            ],
            [
                "새로운",
                -9.085082173239803
            ],
            [
                "사랑",
                -9.08723048194544
            ],
            [
                "추가",
                -9.088210566242171
            ],
            [
                "가족",
                -9.090776926342814
            ],
            [
                "▁나오",
                -9.092027676096198
            ],
            [
                "P",
                -9.093399258386777
            ],
            [
                "공사",
                -9.093944260431893
            ],
            [
                "너",
                -9.093969862415078
            ],
            [
                "<",
                -9.09456842871012
            ],
            [
                "장관",
                -9.095726556141381
            ],
            [
                "계속",
                -9.097430454493333
            ],
            [
                "절",
                -9.098639256972277
            ],
            [
                "극",
                -9.102689832661824
            ],
            [
                "경찰",
                -9.10279465428179
            ],
            [
                "공급",
                -9.10435293222919
            ],
            [
                "처리",
                -9.105428840947168
            ],
            [
                "현장",
                -9.110654485470826
            ],
            [
                "전문",
                -9.112282962672937
            ],
            [
                "갈",
                -9.11500658266439
            ],
            [
                "고객",
                -9.115644038767513
            ],
            [
                "기존",
                -9.118166109175595
            ],
            [
                "강조",
                -9.120886240847357
            ],
            [
                "든",
                -9.12623760308184
            ],
            [
                "그래서",
                -9.126665155315152
            ],
            [
                "병원",
                -9.127407545422503
            ],
            [
                "적용",
                -9.132254755032418
            ],
            [
                "철",
                -9.132283315110863
            ],
            [
                "▁최대",
                -9.132378187150849
            ],
            [
                "▁14",
                -9.132929201597362
            ],
            [
                "단체",
                -9.132933932502727
            ],
            [
                "벌",
                -9.13652515461688
            ],
            [
                "활",
                -9.13816543271974
            ],
            [
                "형성",
                -9.139183296196464
            ],
            [
                "같이",
                -9.141885177075656
            ],
            [
                "져",
                -9.151248137210231
            ],
            [
                "▁%)",
                -9.152238292599062
            ],
            [
                "▁40",
                -9.152495578464558
            ],
            [
                "▁달러",
                -9.15278371645697
            ],
            [
                "랑",
                -9.153826455710549
            ],
            [
                "골",
                -9.156130389435146
            ],
            [
                "▁대비",
                -9.15678153942176
            ],
            [
                "민주당",
                -9.158384755970221
            ],
            [
                "영상",
                -9.158558319697816
            ],
            [
                "이라고",
                -9.160361814609201
            ],
            [
                "취",
                -9.160854601443138
            ],
            [
                "위원장",
                -9.163471674765066
            ],
            [
                "▁변화",
                -9.164430994773854
            ],
            [
                "▁입장",
                -9.165628123646504
            ],
            [
                "기능",
                -9.166584010817488
            ],
            [
                "으",
                -9.168544278908954
            ],
            [
                "십",
                -9.16911430050143
            ],
            [
                "니까",
                -9.16998616215086
            ],
            [
                "패",
                -9.172294487517314
            ],
            [
                "건강",
                -9.17310505832896
            ],
            [
                "건설",
                -9.178960296295097
            ],
            [
                "K",
                -9.179822651763608
            ],
            [
                "쪽",
                -9.179860577833882
            ],
            [
                "▁마음",
                -9.181798468544335
            ],
            [
                ">",
                -9.184343932352887
            ],
            [
                "입니다",
                -9.184568168846088
            ],
            [
                "거리",
                -9.186050093251831
            ],
            [
                "▁24",
                -9.187555870674103
            ],
            [
                "각각",
                -9.19113757724797
            ],
            [
                "얘기",
                -9.191517898770375
            ],
            [
                "오후",
                -9.191875280438872
            ],
            [
                "상품",
                -9.194031971737651
            ],
            [
                "검찰",
                -9.195717572382822
            ],
            [
                "바로",
                -9.19796040953442
            ],
            [
                "끝",
                -9.201038983459151
            ],
            [
                "▁공동",
                -9.205003608087623
            ],
            [
                "세요",
                -9.205096260970604
            ],
            [
                "▁위치",
                -9.206806311721989
            ],
            [
                "윤",
                -9.20823603826701
            ],
            [
                ":",
                -9.20867555875813
            ],
            [
                "공간",
                -9.21011695748297
            ],
            [
                "▁예상",
                -9.210884750557302
            ],
            [
                "아파트",
                -9.21133814141625
            ],
            [
                "시즌",
                -9.216942265345386
            ],
            [
                "글",
                -9.217458982575652
            ],
            [
                "미래",
                -9.217555282350636
            ],
            [
                "지속",
                -9.221388780851871
            ],
            [
                "▁17",
                -9.223181356731303
            ],
            [
                "영향",
                -9.225498064899346
            ],
            [
                "▁나라",
                -9.22625765481731
            ],
            [
                "역시",
                -9.228637634868683
            ],
            [
                "▁개인",
                -9.22871446970981
            ],
            [
                "노력",
                -9.230709642931476
            ],
            [
                "▁유지",
                -9.230788562930957
            ],
            [
                "황",
                -9.236590215277934
            ],
            [
                "못하",
                -9.237983503975649
            ],
            [
                "아직",
                -9.241442058317245
            ],
            [
                "해외",
                -9.244039410044321
            ],
            [
                "망",
                -9.245137137555494
            ],
            [
                "자동차",
                -9.246970442732689
            ],
            [
                "▁피해",
                -9.247084727048287
            ],
            [
                "범",
                -9.248348061938094
            ],
            [
                "롯",
                -9.24864379722801
            ],
            [
                "▁선정",
                -9.249824821940159
            ],
            [
                "커",
                -9.250487711212688
            ],
            [
                "G",
                -9.251084493749255
            ],
            [
                "물론",
                -9.251312234673998
            ],
            [
                "프",
                -9.25175338099773
            ],
            [
                "악",
                -9.252040727466282
            ],
            [
                "이야기",
                -9.25212049866243
            ],
            [
                "M",
                -9.2550438351315
            ],
            [
                "▁주요",
                -9.255427761693625
            ],
            [
                "봤",
                -9.256836426630404
            ],
            [
                "색",
                -9.25765771820481
            ],
            [
                "접",
                -9.262000394071624
            ],
            [
                "어야",
                -9.262479530544109
            ],
            [
                "개월",
                -9.262843939118309
            ],
            [
                "▁21",
                -9.263987660561378
            ],
            [
                "▁열린",
                -9.272634451309035
            ],
            [
                "내년",
                -9.274698442866832
            ],
            [
                "▁연결",
                -9.276186010807574
            ],
            [
                "확보",
                -9.279634717668861
            ],
            [
                "행정",
                -9.281666824477439
            ],
            [
                "협력",
                -9.282442805933039
            ],
            [
                "레",
                -9.283624543198236
            ],
            [
                "업무",
                -9.284017983537748
            ],
            [
                "성공",
                -9.285086008052234
            ],
            [
                "인데",
                -9.28710213352299
            ],
            [
                "술",
                -9.292497953382474
            ],
            [
                "독",
                -9.292804938786109
            ],
            [
                "봉",
                -9.29461998989416
            ],
            [
                "게임",
                -9.295124481041453
            ],
            [
                "역사",
                -9.295409815247043
            ],
            [
                "대해서",
                -9.295495747435154
            ],
            [
                "▁상승",
                -9.296346356635713
            ],
            [
                "차량",
                -9.296415699465346
            ],
            [
                "인천",
                -9.299866182764287
            ],
            [
                "로부터",
                -9.300162239843086
            ],
            [
                "더욱",
                -9.30101344798255
            ],
            [
                "실시",
                -9.301380434416998
            ],
            [
                "▁선택",
                -9.302124156505661
            ],
            [
                "예산",
                -9.303252102364425
            ],
            [
                "적극",
                -9.30426361406932
            ],
            [
                "왕",
                -9.305927204507913
            ],
            [
                "역할",
                -9.307226626482155
            ],
            [
                "언",
                -9.30979399867718
            ],
            [
                "▁정상",
                -9.31382235176168
            ],
            [
                "전략",
                -9.316689690622136
            ],
            [
                "암",
                -9.319103128586653
            ],
            [
                "검사",
                -9.324614964204274
            ],
            [
                "▁중앙",
                -9.325741679098405
            ],
            [
                "통합",
                -9.326025199939535
            ],
            [
                "여러",
                -9.326558207318033
            ],
            [
                "팔",
                -9.327365770413317
            ],
            [
                "광주",
                -9.3292406651106
            ],
            [
                "곡",
                -9.329304668109481
            ],
            [
                "▁불법",
                -9.330530113480634
            ],
            [
                "해결",
                -9.333352147648272
            ],
            [
                "린",
                -9.33445446191313
            ],
            [
                "▁23",
                -9.334567832178086
            ],
            [
                "계약",
                -9.335632615369109
            ],
            [
                "한다고",
                -9.336441404850937
            ],
            [
                "▁조치",
                -9.336592239331301
            ],
            [
                "얻",
                -9.339448387666497
            ],
            [
                "특",
                -9.340643427931301
            ],
            [
                "▁현대",
                -9.3447575789567
            ],
            [
                "테",
                -9.345493969339289
            ],
            [
                "착",
                -9.345753799761429
            ],
            [
                "쉽",
                -9.346225758360422
            ],
            [
                "▁삼성",
                -9.346529456586396
            ],
            [
                "대책",
                -9.350945120913474
            ],
            [
                "직원",
                -9.352451446279415
            ],
            [
                "R",
                -9.356333724443203
            ],
            [
                "렸",
                -9.362100672404338
            ],
            [
                "▁방향",
                -9.363321990287877
            ],
            [
                "냈",
                -9.366948063082189
            ],
            [
                "글로벌",
                -9.369179717060414
            ],
            [
                "▁27",
                -9.369546890398636
            ],
            [
                "감사",
                -9.369599266426109
            ],
            [
                "방안",
                -9.370120252070377
            ],
            [
                "특별",
                -9.370929978641115
            ],
            [
                "경영",
                -9.373848545159163
            ],
            [
                "t",
                -9.375289668384298
            ],
            [
                "풍",
                -9.379765862892796
            ],
            [
                "▁22",
                -9.381370160932526
            ],
            [
                "희",
                -9.382585094878579
            ],
            [
                "에너지",
                -9.382736696789353
            ],
            [
                "▁방문",
                -9.383952613180952
            ],
            [
                "작업",
                -9.387068217936575
            ],
            [
                "작품",
                -9.38945119577586
            ],
            [
                "대응",
                -9.391680424482137
            ],
            [
                "▁28",
                -9.393935293165528
            ],
            [
                "▁자유",
                -9.395148020192746
            ],
            [
                "우려",
                -9.395165732287847
            ],
            [
                "신청",
                -9.395376203347213
            ],
            [
                "몇",
                -9.396133169276274
            ],
            [
                "어떻게",
                -9.406875554375368
            ],
            [
                "s",
                -9.409919499791092
            ],
            [
                "▁26",
                -9.411623247216964
            ],
            [
                "환자",
                -9.412311391401309
            ],
            [
                "요청",
                -9.41249150985378
            ],
            [
                "복지",
                -9.412836723899526
            ],
            [
                "의견",
                -9.413555294595346
            ],
            [
                "▁안정",
                -9.41385913077182
            ],
            [
                "몸",
                -9.41961565471142
            ],
            [
                "판단",
                -9.419948532917411
            ],
            [
                "▁위해서",
                -9.421060746978515
            ],
            [
                "검",
                -9.421214724070355
            ],
            [
                "비용",
                -9.428629164976705
            ],
            [
                "거래",
                -9.429968809860842
            ],
            [
                "아요",
                -9.432796005121382
            ],
            [
                "홍",
                -9.438813543459336
            ],
            [
                "부담",
                -9.439155488849606
            ],
            [
                "으나",
                -9.44153573430834
            ],
            [
                "자체",
                -9.441967339913543
            ],
            [
                "광고",
                -9.442234501812248
            ],
            [
                "▁책임",
                -9.444246155509502
            ],
            [
                "▁조직",
                -9.44475893813728
            ],
            [
                "맡",
                -9.445900417403104
            ],
            [
                "탈",
                -9.446018017418933
            ],
            [
                "개최",
                -9.446935642453198
            ],
            [
                "데이터",
                -9.448867972232405
            ],
            [
                "씩",
                -9.449035967801885
            ],
            [
                "울",
                -9.45262253179506
            ],
            [
                "네요",
                -9.455606057883555
            ],
            [
                "지난달",
                -9.455633308921485
            ],
            [
                "감소",
                -9.457140189000595
            ],
            [
                "탄",
                -9.461785318263857
            ],
            [
                "전문가",
                -9.46273421254236
            ],
            [
                "목표",
                -9.463083794881056
            ],
            [
                "▁경쟁",
                -9.463639740998953
            ],
            [
                "▁조정",
                -9.464114519994023
            ],
            [
                "시행",
                -9.467930664915881
            ],
            [
                "▁보인다",
                -9.46961549807194
            ],
            [
                "치료",
                -9.472242307827742
            ],
            [
                "보여",
                -9.47277733881734
            ],
            [
                "의료",
                -9.474859760052587
            ],
            [
                "▁29",
                -9.478809838825217
            ],
            [
                "▁활성",
                -9.480417237702326
            ],
            [
                "브랜드",
                -9.481267023632993
            ],
            [
                "T",
                -9.481311148479188
            ],
            [
                "뜻",
                -9.481452253786188
            ],
            [
                "▁내부",
                -9.48174524796906
            ],
            [
                "▁프로",
                -9.482562077501848
            ],
            [
                "공연",
                -9.48268657240727
            ],
            [
                "E",
                -9.483688678674604
            ],
            [
                "▁LG",
                -9.487642483225668
            ],
            [
                "혁신",
                -9.488579561759066
            ],
            [
                "대부분",
                -9.489690285011735
            ],
            [
                "배우",
                -9.490508000784398
            ],
            [
                "났",
                -9.492226688298844
            ],
            [
                "까",
                -9.492283356646109
            ],
            [
                "위원",
                -9.493884098880422
            ],
            [
                "락",
                -9.495970573451512
            ],
            [
                "품",
                -9.497716899822814
            ],
            [
                "업계",
                -9.499936361804876
            ],
            [
                "수출",
                -9.50074037362695
            ],
            [
                "▁보호",
                -9.5016062270723
            ],
            [
                "통신",
                -9.502137484738828
            ],
            [
                "보험",
                -9.50747322124284
            ],
            [
                "자료",
                -9.507702409328976
            ],
            [
                "허",
                -9.509613315925032
            ],
            [
                "카드",
                -9.510095169427323
            ],
            [
                "집중",
                -9.510246499864522
            ],
            [
                "그냥",
                -9.510362238185387
            ],
            [
                "▁ᄏᄏᄏ",
                -9.512745237215837
            ],
            [
                "▁공공",
                -9.51696974234659
            ],
            [
                "만나",
                -9.51701278455523
            ],
            [
                "단지",
                -9.520591221333566
            ],
            [
                "▁리그",
                -9.520628566830842
            ],
            [
                "친구",
                -9.521400804157423
            ],
            [
                "즈",
                -9.523390787742022
            ],
            [
                "e",
                -9.524076975145377
            ],
            [
                "자금",
                -9.52586771250909
            ],
            [
                "어느",
                -9.528171006580259
            ],
            [
                "버",
                -9.528357371595522
            ],
            [
                "종합",
                -9.529759774782839
            ],
            [
                "F",
                -9.530190644856765
            ],
            [
                "죽",
                -9.536531266128502
            ],
            [
                "밀",
                -9.539253271523293
            ],
            [
                "영업",
                -9.542391777728824
            ],
            [
                "▁하루",
                -9.543444079535918
            ],
            [
                "▁고려",
                -9.546060041657315
            ],
            [
                "▁평균",
                -9.547585154225787
            ],
            [
                "밖",
                -9.549747879720721
            ],
            [
                "특징",
                -9.551650514148918
            ],
            [
                "구축",
                -9.551863747807548
            ],
            [
                "육",
                -9.552840835103755
            ],
            [
                "&",
                -9.553180056956608
            ],
            [
                "결국",
                -9.55397005592588
            ],
            [
                "과학",
                -9.554616299074357
            ],
            [
                "▁60",
                -9.556032552570036
            ],
            [
                "맛",
                -9.55825959972088
            ],
            [
                "아닌",
                -9.559554128755735
            ],
            [
                "수익",
                -9.56453248073115
            ],
            [
                "풀",
                -9.566654279896493
            ],
            [
                "▁기본",
                -9.567110361356967
            ],
            [
                "오전",
                -9.567548750538528
            ],
            [
                "혐의",
                -9.571474964442423
            ],
            [
                "귀",
                -9.572962533327585
            ],
            [
                "존",
                -9.57358628271433
            ],
            [
                "소속",
                -9.573589547200939
            ],
            [
                "▁주변",
                -9.57740260599033
            ],
            [
                "모르",
                -9.577834330745532
            ],
            [
                "▁표현",
                -9.579196771176566
            ],
            [
                "▁반대",
                -9.579608756888197
            ],
            [
                "섰",
                -9.581437435396802
            ],
            [
                "빈",
                -9.58377942747033
            ],
            [
                "따",
                -9.584187041141332
            ],
            [
                "팬",
                -9.585458161040117
            ],
            [
                "소비자",
                -9.585793244566112
            ],
            [
                "먼저",
                -9.58756736575604
            ],
            [
                "브",
                -9.588365952548859
            ],
            [
                "모델",
                -9.589606620043485
            ],
            [
                "참석",
                -9.592560024409456
            ],
            [
                "제작",
                -9.594321548183581
            ],
            [
                "핵",
                -9.596837279237912
            ],
            [
                "관광",
                -9.596929554014887
            ],
            [
                "택",
                -9.59701206673338
            ],
            [
                "논의",
                -9.597380219990766
            ],
            [
                "▁자연",
                -9.599124353062944
            ],
            [
                "셨",
                -9.600676845906584
            ],
            [
                "검토",
                -9.601251409790766
            ],
            [
                "▁상당",
                -9.601333546349254
            ],
            [
                "등록",
                -9.601942532632563
            ],
            [
                "케",
                -9.602022435070522
            ],
            [
                "▁경험",
                -9.602867701546376
            ],
            [
                "전화",
                -9.60373595585694
            ],
            [
                "▁도움",
                -9.604070691828369
            ],
            [
                "완",
                -9.605369929471262
            ],
            [
                "위험",
                -9.60692429537311
            ],
            [
                "▁SK",
                -9.60873806461483
            ],
            [
                "농",
                -9.609098185243488
            ],
            [
                "규",
                -9.609173767291272
            ],
            [
                "능력",
                -9.610373459249653
            ],
            [
                "값",
                -9.612146482971053
            ],
            [
                "차례",
                -9.612474152706907
            ],
            [
                "제조",
                -9.61367988304422
            ],
            [
                "덕",
                -9.615299943233174
            ],
            [
                "▁드러",
                -9.617014800295603
            ],
            [
                "▁31",
                -9.617180517453937
            ],
            [
                "릴",
                -9.618135433516844
            ],
            [
                "대출",
                -9.619220254872037
            ],
            [
                "갔",
                -9.622523028628986
            ],
            [
                "그럼",
                -9.625817180342588
            ],
            [
                "H",
                -9.625866783449458
            ],
            [
                "료",
                -9.626490558435224
            ],
            [
                "▁민주",
                -9.63237368391881
            ],
            [
                "대한민국",
                -9.634424937850216
            ],
            [
                "본부",
                -9.63500864532905
            ],
            [
                "체험",
                -9.635017684327368
            ],
            [
                "충",
                -9.635831480272596
            ],
            [
                "행위",
                -9.637631291278558
            ],
            [
                "▁규정",
                -9.639205274883437
            ],
            [
                "청와대",
                -9.63977312341902
            ],
            [
                "장애",
                -9.640058279575197
            ],
            [
                "▁%,",
                -9.640341550061617
            ],
            [
                "▁음악",
                -9.642384469894374
            ],
            [
                "필",
                -9.64309081228213
            ],
            [
                "그런데",
                -9.645226180504306
            ],
            [
                "어렵",
                -9.646390150914987
            ],
            [
                "비판",
                -9.646813227067106
            ],
            [
                "핵심",
                -9.648405805976086
            ],
            [
                "L",
                -9.650881467792015
            ],
            [
                "최초",
                -9.65231059329616
            ],
            [
                "▁우수",
                -9.656031233218073
            ],
            [
                "매출",
                -9.656955214072696
            ],
            [
                "▁우선",
                -9.657424697474056
            ],
            [
                "사항",
                -9.657883549759719
            ],
            [
                "염",
                -9.658061942096847
            ],
            [
                "경남",
                -9.659053822849563
            ],
            [
                "머",
                -9.65971652434808
            ],
            [
                "링",
                -9.659855465761193
            ],
            [
                "형태",
                -9.662432032173408
            ],
            [
                "넣",
                -9.663007162673875
            ],
            [
                "으로써",
                -9.663026974059818
            ],
            [
                "나왔",
                -9.663648442911335
            ],
            [
                "논란",
                -9.666039833160136
            ],
            [
                "분양",
                -9.668386814164029
            ],
            [
                "전달",
                -9.668757811749424
            ],
            [
                "인터넷",
                -9.669377206140021
            ],
            [
                "견",
                -9.671687055796001
            ],
            [
                "I",
                -9.673382452919986
            ],
            [
                "경기도",
                -9.674092377109352
            ],
            [
                "잇",
                -9.674133375446196
            ],
            [
                "마지막",
                -9.674460214290413
            ],
            [
                "시험",
                -9.675683915702834
            ],
            [
                "립",
                -9.676356910566625
            ],
            [
                "낸",
                -9.67679748901883
            ],
            [
                "정말",
                -9.677858903881226
            ],
            [
                "▁지급",
                -9.678390881926147
            ],
            [
                "▁조선",
                -9.67990631624266
            ],
            [
                "▁부족",
                -9.681087588665326
            ],
            [
                "사례",
                -9.682298298671487
            ],
            [
                "▁못했",
                -9.682847934260534
            ],
            [
                "▁km",
                -9.683654851574007
            ],
            [
                "확산",
                -9.684369207196205
            ],
            [
                "규제",
                -9.68615915772309
            ],
            [
                "답",
                -9.686542476006817
            ],
            [
                "출신",
                -9.68686173629263
            ],
            [
                "각종",
                -9.686966452678634
            ],
            [
                "메",
                -9.692418573836008
            ],
            [
                "삶",
                -9.692608972294384
            ],
            [
                "▁반응",
                -9.694158032565742
            ],
            [
                "보내",
                -9.694365214652962
            ],
            [
                "령",
                -9.696784623081513
            ],
            [
                "엄마",
                -9.704376108035168
            ],
            [
                "징",
                -9.70590853350013
            ],
            [
                "여자",
                -9.706119022975335
            ],
            [
                "어디",
                -9.706651498067675
            ],
            [
                "▁우승",
                -9.708897855959991
            ],
            [
                "기획",
                -9.709745644630885
            ],
            [
                "쳐",
                -9.712779718207296
            ],
            [
                "대형",
                -9.714926396898488
            ],
            [
                "온라인",
                -9.715426716086023
            ],
            [
                "둔",
                -9.715530191741955
            ],
            [
                "▁나타났",
                -9.71608746236451
            ],
            [
                "▁TV",
                -9.717125132293827
            ],
            [
                "일자리",
                -9.718041890983612
            ],
            [
                "▁유럽",
                -9.718493098071676
            ],
            [
                "▁2010",
                -9.721068626337557
            ],
            [
                "밖에",
                -9.722082208517778
            ],
            [
                "▁전환",
                -9.722655308827719
            ],
            [
                "▁소재",
                -9.722819361640639
            ],
            [
                "여야",
                -9.723780755723393
            ],
            [
                "숙",
                -9.724119684234704
            ],
            [
                "N",
                -9.724351437545108
            ],
            [
                "롯데",
                -9.727227046275774
            ],
            [
                "▁비교",
                -9.727931815057575
            ],
            [
                "매우",
                -9.728064457650975
            ],
            [
                "▁누리",
                -9.729389052116078
            ],
            [
                "∼",
                -9.730672894728663
            ],
            [
                "예술",
                -9.732052840409244
            ],
            [
                "▁70",
                -9.736513784743408
            ],
            [
                "부문",
                -9.736916189197215
            ],
            [
                "▁반영",
                -9.737666692008903
            ],
            [
                "주소",
                -9.740578008585505
            ],
            [
                "롭",
                -9.74131785452831
            ],
            [
                "▲",
                -9.74181126078725
            ],
            [
                "칠",
                -9.74211199625619
            ],
            [
                "한테",
                -9.749810148210551
            ],
            [
                "식품",
                -9.74990034664952
            ],
            [
                "▁2012",
                -9.750243449376454
            ],
            [
                "설립",
                -9.751752871540239
            ],
            [
                "▁이익",
                -9.75270206690918
            ],
            [
                "부동산",
                -9.753018359620867
            ],
            [
                "공식",
                -9.753437105584613
            ],
            [
                "ᄏ",
                -9.753905503068255
            ],
            [
                "창원시",
                -9.75396766013529
            ],
            [
                "공무원",
                -9.754175947486326
            ],
            [
                "공원",
                -9.756240907935968
            ],
            [
                "홀",
                -9.756279033954433
            ],
            [
                "비속",
                -9.757615117089628
            ],
            [
                "림",
                -9.757699664397416
            ],
            [
                "포인트",
                -9.759025014832924
            ],
            [
                "▁현실",
                -9.760759963521737
            ],
            [
                "압",
                -9.76087810800579
            ],
            [
                "금리",
                -9.762147824688535
            ],
            [
                "O",
                -9.766389702450212
            ],
            [
                "행복",
                -9.767862193856661
            ],
            [
                "습",
                -9.770976600121864
            ],
            [
                "▁최종",
                -9.771489883240932
            ],
            [
                "퍼",
                -9.771528551219319
            ],
            [
                "몰",
                -9.77272630546652
            ],
            [
                "소리",
                -9.773192028477347
            ],
            [
                "밥",
                -9.774014626080719
            ],
            [
                "▁2014",
                -9.774307248104625
            ],
            [
                "▁2013",
                -9.7744292327527
            ],
            [
                "진출",
                -9.77447057499279
            ],
            [
                "▁2015",
                -9.774790478452022
            ],
            [
                "디자인",
                -9.77485457143366
            ],
            [
                "▁2000",
                -9.775244534687058
            ],
            [
                "본격",
                -9.77630084635866
            ],
            [
                "웅",
                -9.776920789449383
            ],
            [
                "따라서",
                -9.777851862548129
            ],
            [
                "분위기",
                -9.779985642296044
            ],
            [
                "건물",
                -9.78009734679131
            ],
            [
                "펀드",
                -9.780276267317928
            ],
            [
                "교사",
                -9.782527260439045
            ],
            [
                "주목",
                -9.784716337002958
            ],
            [
                "으로서",
                -9.78738571690697
            ],
            [
                "실제",
                -9.788213721195621
            ],
            [
                "른",
                -9.790437896561151
            ],
            [
                "언론",
                -9.793921821096292
            ],
            [
                "▁시켜",
                -9.794780995455563
            ],
            [
                "인식",
                -9.795371884265485
            ],
            [
                "울산",
                -9.795848060935297
            ],
            [
                "조금",
                -9.796148088108678
            ],
            [
                "▁특허",
                -9.797413087623069
            ],
            [
                "제대로",
                -9.797747440222434
            ],
            [
                "그렇게",
                -9.798297800927353
            ],
            [
                "누구",
                -9.798918668079358
            ],
            [
                "영역",
                -9.799654417629682
            ],
            [
                "폐",
                -9.803014148103664
            ],
            [
                "봐",
                -9.803611913181554
            ],
            [
                "남자",
                -9.804443468212115
            ],
            [
                "▁공격",
                -9.804582382599367
            ],
            [
                "▁2011",
                -9.807217662196432
            ],
            [
                "무엇",
                -9.808482693081361
            ],
            [
                "보였",
                -9.808952776324071
            ],
            [
                "교통",
                -9.80909789507994
            ],
            [
                "체계",
                -9.809690403650746
            ],
            [
                "▁200",
                -9.810399968578196
            ],
            [
                "절차",
                -9.812724189988991
            ],
            [
                "협회",
                -9.814005378373768
            ],
            [
                "여행",
                -9.814569624388824
            ],
            [
                "연구원",
                -9.814578983355037
            ],
            [
                "라면",
                -9.81586660985429
            ],
            [
                "목소리",
                -9.81722427800193
            ],
            [
                "▁올림픽",
                -9.81838742561618
            ],
            [
                "드라마",
                -9.819810317719885
            ],
            [
                "버스",
                -9.819877475834565
            ],
            [
                "청년",
                -9.820970516412673
            ],
            [
                "족",
                -9.821239652041324
            ],
            [
                "찬",
                -9.826021405947303
            ],
            [
                "밤",
                -9.826255169512935
            ],
            [
                "변경",
                -9.826741955649728
            ],
            [
                "▁아야",
                -9.829590191140309
            ],
            [
                "협",
                -9.830466348234403
            ],
            [
                "▁ᄏᄏᄏᄏ",
                -9.831446843491339
            ],
            [
                "◆",
                -9.83468703979839
            ],
            [
                "소득",
                -9.834900375077737
            ],
            [
                "경북",
                -9.83596365276856
            ],
            [
                "배치",
                -9.8366364843109
            ],
            [
                "▁정신",
                -9.837501071649806
            ],
            [
                "겨",
                -9.839696965932424
            ],
            [
                "▁목적",
                -9.839893271108938
            ],
            [
                "영국",
                -9.840882137212898
            ],
            [
                "▁느냐",
                -9.84734413695795
            ],
            [
                "겪",
                -9.84923316870379
            ],
            [
                "효율",
                -9.850474841294426
            ],
            [
                "특성",
                -9.851290463861291
            ],
            [
                "홈",
                -9.85142617435549
            ],
            [
                "▁선발",
                -9.85246521094556
            ],
            [
                "즉",
                -9.852766329099463
            ],
            [
                "노조",
                -9.853929527877977
            ],
            [
                "▁전력",
                -9.854595176089685
            ],
            [
                "▁2009",
                -9.854967532844235
            ],
            [
                "▁투표",
                -9.85574087620097
            ],
            [
                "▁물질",
                -9.856242052148552
            ],
            [
                "재정",
                -9.8568763699691
            ],
            [
                "찍",
                -9.859710087649448
            ],
            [
                "으로부터",
                -9.86055389945153
            ],
            [
                "▁피부",
                -9.865400860986695
            ],
            [
                "누",
                -9.86584863063255
            ],
            [
                "구매",
                -9.866604690447465
            ],
            [
                "제외",
                -9.868058952495554
            ],
            [
                "V",
                -9.868513970420842
            ],
            [
                "비율",
                -9.868774486230134
            ],
            [
                "려고",
                -9.871981290380514
            ],
            [
                "축구",
                -9.874248714207917
            ],
            [
                "록",
                -9.875077308958769
            ],
            [
                "화학",
                -9.877212972667008
            ],
            [
                "▁연속",
                -9.877253760519025
            ],
            [
                "▁달리",
                -9.877892665280248
            ],
            [
                "존재",
                -9.878429669958887
            ],
            [
                "심사",
                -9.878532905434932
            ],
            [
                "▁2008",
                -9.879622822146406
            ],
            [
                "▁희망",
                -9.880087762105854
            ],
            [
                "=",
                -9.880320814932997
            ],
            [
                "공항",
                -9.8807193174695
            ],
            [
                "축제",
                -9.88219058752708
            ],
            [
                "외부",
                -9.88234751542952
            ],
            [
                "속도",
                -9.882663421151094
            ],
            [
                "사태",
                -9.883770365962164
            ],
            [
                "외국인",
                -9.884369952632614
            ],
            [
                "춘",
                -9.885421008155715
            ],
            [
                "혼",
                -9.885605443890237
            ],
            [
                "예방",
                -9.88563169196105
            ],
            [
                "회복",
                -9.886236465920595
            ],
            [
                "을까",
                -9.886730884006697
            ],
            [
                "의혹",
                -9.88720595170246
            ],
            [
                "[",
                -9.887719659574591
            ],
            [
                "중소기업",
                -9.88794540225657
            ],
            [
                "스포츠",
                -9.888342336990004
            ],
            [
                "]",
                -9.890230626098253
            ],
            [
                "웃",
                -9.891736783022331
            ],
            [
                "홍보",
                -9.892343799182335
            ],
            [
                "▁80",
                -9.89251957459107
            ],
            [
                "힘들",
                -9.893927599811585
            ],
            [
                "들어가",
                -9.894858731322653
            ],
            [
                "발견",
                -9.89547177536772
            ],
            [
                "▁유치",
                -9.89649160354827
            ],
            [
                "학습",
                -9.896945158644275
            ],
            [
                "▁차원",
                -9.898730708524834
            ],
            [
                "꿈",
                -9.899137063328254
            ],
            [
                "제출",
                -9.900648220001598
            ],
            [
                "▁500",
                -9.901388753353425
            ],
            [
                "▁2016",
                -9.902042580357262
            ],
            [
                "청소년",
                -9.902859716049715
            ],
            [
                "인력",
                -9.903933847868405
            ],
            [
                "▁소개",
                -9.904340680144902
            ],
            [
                "▁수입",
                -9.90523339181309
            ],
            [
                "▁만든",
                -9.906915328526525
            ],
            [
                "전통",
                -9.907473890291032
            ],
            [
                "출연",
                -9.907855707993948
            ],
            [
                "효",
                -9.909267297570834
            ],
            [
                "▁아시아",
                -9.909386495346913
            ],
            [
                "`",
                -9.909451536208913
            ],
            [
                "힌",
                -9.909630580720098
            ],
            [
                "훈련",
                -9.911843020167492
            ],
            [
                "엄",
                -9.912222718625241
            ],
            [
                "ᆞ",
                -9.912627804401966
            ],
            [
                "▁보유",
                -9.916011674005176
            ],
            [
                "플",
                -9.918203989200244
            ],
            [
                "노래",
                -9.918373897712742
            ],
            [
                "어려운",
                -9.918560845213923
            ],
            [
                "더라도",
                -9.920278276808643
            ],
            [
                "일단",
                -9.920311022908349
            ],
            [
                "둘",
                -9.921463516142337
            ],
            [
                "법원",
                -9.921984893331956
            ],
            [
                "듣",
                -9.922132983360225
            ],
            [
                "숨",
                -9.922230845234257
            ],
            [
                "유통",
                -9.922293427462007
            ],
            [
                "민간",
                -9.924053731523859
            ],
            [
                "기초",
                -9.924998387698183
            ],
            [
                "▁결합",
                -9.92573814951435
            ],
            [
                "▁ᅲᅲ",
                -9.9258569655282
            ],
            [
                "감염",
                -9.926212434326255
            ],
            [
                "취업",
                -9.926872781425935
            ],
            [
                "실적",
                -9.927502071561866
            ],
            [
                "옥",
                -9.927806270680227
            ],
            [
                "구체",
                -9.930520927048832
            ],
            [
                "▁신규",
                -9.9317873792498
            ],
            [
                "더불",
                -9.93492929429777
            ],
            [
                "삼성전자",
                -9.935426758240105
            ],
            [
                "줬",
                -9.937264940773689
            ],
            [
                "▁신호",
                -9.937337225356986
            ],
            [
                "개혁",
                -9.937416185164455
            ],
            [
                "쳤",
                -9.939057095890075
            ],
            [
                "설계",
                -9.940345308108721
            ],
            [
                "주식",
                -9.941450980323449
            ],
            [
                "하락",
                -9.94261543335656
            ],
            [
                "▁2017",
                -9.945203529658144
            ],
            [
                "공부",
                -9.946291613467334
            ],
            [
                "▁인간",
                -9.946692866832107
            ],
            [
                "그동안",
                -9.95149809820398
            ],
            [
                "혹",
                -9.951554240322055
            ],
            [
                "▁독일",
                -9.954775383585766
            ],
            [
                "전남",
                -9.956803309926736
            ],
            [
                "머리",
                -9.958228279994096
            ],
            [
                "▁2018",
                -9.958337348537261
            ],
            [
                "협의",
                -9.959281317954323
            ],
            [
                "베",
                -9.960211572802057
            ],
            [
                "인근",
                -9.961098634147312
            ],
            [
                "▁전쟁",
                -9.965432490556351
            ],
            [
                "▁조건",
                -9.966733658698942
            ],
            [
                "▁거쳐",
                -9.967574495154773
            ],
            [
                "자산",
                -9.967654973904619
            ],
            [
                "낼",
                -9.967917784116654
            ],
            [
                "확진",
                -9.967978786985523
            ],
            [
                "p",
                -9.969173834412153
            ],
            [
                "▁표시",
                -9.972066432541734
            ],
            [
                "총리",
                -9.974250123632718
            ],
            [
                "▁참가",
                -9.97479386053114
            ],
            [
                "▁선보",
                -9.97497263498652
            ],
            [
                "▁1000",
                -9.975483783486938
            ],
            [
                "그것",
                -9.978184269860552
            ],
            [
                "중단",
                -9.978241577177622
            ],
            [
                "탑",
                -9.980270076932426
            ],
            [
                "척",
                -9.98035887272993
            ],
            [
                "께",
                -9.981027819209404
            ],
            [
                "세상",
                -9.982483802534546
            ],
            [
                "쉬",
                -9.982614690715746
            ],
            [
                "읽",
                -9.98288907378383
            ],
            [
                "했으며",
                -9.984818306167297
            ],
            [
                "빛",
                -9.988828475889248
            ],
            [
                "ᅲ",
                -9.990016766023656
            ],
            [
                "학년",
                -9.991866119959816
            ],
            [
                "콘텐츠",
                -9.992109369343703
            ],
            [
                "경쟁력",
                -9.99320335209298
            ],
            [
                "▁촬영",
                -9.994913626992924
            ],
            [
                "이모티콘",
                -9.99537869130507
            ],
            [
                "꼽",
                -9.99546787516554
            ],
            [
                "협상",
                -9.995666524627186
            ],
            [
                "꼭",
                -9.995713685107951
            ],
            [
                "칭",
                -9.997223956991801
            ],
            [
                "담당",
                -9.997614376326391
            ],
            [
                "▁특정",
                -9.997930902057748
            ],
            [
                "자치",
                -9.998455487387421
            ],
            [
                "확정",
                -9.998772741790251
            ],
            [
                "요즘",
                -9.99891443651545
            ],
            [
                "호텔",
                -9.999223573818385
            ],
            [
                "▁현상",
                -10.000847351027584
            ],
            [
                "증권",
                -10.00138613106115
            ],
            [
                "스마트",
                -10.00367603034767
            ],
            [
                "부모",
                -10.00589960336126
            ],
            [
                "연장",
                -10.006588902631307
            ],
            [
                "갑",
                -10.006597288511598
            ],
            [
                "체결",
                -10.006682675636181
            ],
            [
                "건축",
                -10.007938971091118
            ],
            [
                "위반",
                -10.008807383176398
            ],
            [
                "a",
                -10.008908735112925
            ],
            [
                "▁소비",
                -10.011459257170094
            ],
            [
                "g",
                -10.012251514780182
            ],
            [
                "근무",
                -10.012696539466493
            ],
            [
                "향상",
                -10.013039927467213
            ],
            [
                "승리",
                -10.013376186749886
            ],
            [
                "▁노동",
                -10.013537984972535
            ],
            [
                "은데",
                -10.014232591809805
            ],
            [
                "펼",
                -10.014443665230324
            ],
            [
                "당국",
                -10.015732092104347
            ],
            [
                "질문",
                -10.016117032551092
            ],
            [
                "확",
                -10.016553325374252
            ],
            [
                "시청",
                -10.016858389279848
            ],
            [
                "얼굴",
                -10.020031735645649
            ],
            [
                "박근혜",
                -10.020174065624625
            ],
            [
                "▁ᄒᄒ",
                -10.020568163802453
            ],
            [
                "▁덧붙",
                -10.02065229166838
            ],
            [
                "진단",
                -10.020926964029712
            ],
            [
                "꽃",
                -10.02127742367846
            ],
            [
                "작년",
                -10.02135578229922
            ],
            [
                "올랐",
                -10.025446395212558
            ],
            [
                "▁법률",
                -10.027558845894026
            ],
            [
                "c",
                -10.027627100051639
            ],
            [
                "벽",
                -10.029147766744359
            ],
            [
                "▁평화",
                -10.029210698526791
            ],
            [
                "클",
                -10.030272019944737
            ],
            [
                "▁300",
                -10.031203303646619
            ],
            [
                "▁나온다",
                -10.03232428980602
            ],
            [
                "▁못한",
                -10.032563357878212
            ],
            [
                "수업",
                -10.038230086634519
            ],
            [
                "재단",
                -10.03838215185907
            ],
            [
                "b",
                -10.04089343342645
            ],
            [
                "▁기타",
                -10.043120553317662
            ],
            [
                "▁남북",
                -10.044046044809525
            ],
            [
                "투입",
                -10.045685865462245
            ],
            [
                "범위",
                -10.04713290165087
            ],
            [
                "스럽",
                -10.049149378197525
            ],
            [
                "문제점",
                -10.051464630792038
            ],
            [
                "곧",
                -10.051474276383813
            ],
            [
                "▁생명",
                -10.051608867153154
            ],
            [
                "그거",
                -10.051892079959853
            ],
            [
                "파악",
                -10.053436424206229
            ],
            [
                "늦",
                -10.054056019112316
            ],
            [
                "▁유명",
                -10.055241127702375
            ],
            [
                "이미지",
                -10.056366140494601
            ],
            [
                "금액",
                -10.056386337966071
            ],
            [
                "▁이뤄",
                -10.05814815413174
            ],
            [
                "복합",
                -10.058281165506678
            ],
            [
                "객",
                -10.05880557107408
            ],
            [
                "스마트폰",
                -10.061490231458134
            ],
            [
                "W",
                -10.062583147666189
            ],
            [
                "음식",
                -10.063903794935944
            ],
            [
                "프랑스",
                -10.064903836239962
            ],
            [
                "언제",
                -10.066262135234417
            ],
            [
                "법인",
                -10.066490824027982
            ],
            [
                "페",
                -10.067381456737893
            ],
            [
                "▁나타",
                -10.069842658390842
            ],
            [
                "▁35",
                -10.070814833705473
            ],
            [
                "▁말씀",
                -10.070964640448596
            ],
            [
                "시절",
                -10.071770495290158
            ],
            [
                "창업",
                -10.07241766767968
            ],
            [
                "▁스타",
                -10.07255077467485
            ],
            [
                "셈",
                -10.073154222478367
            ],
            [
                "례",
                -10.073562749922418
            ],
            [
                "비슷",
                -10.073920366802078
            ],
            [
                "므로",
                -10.074304219885594
            ],
            [
                "X",
                -10.075347634028713
            ],
            [
                "▁’(",
                -10.075668026377775
            ],
            [
                "▁5000",
                -10.075833407796788
            ],
            [
                "내놓",
                -10.07601369552447
            ],
            [
                "y",
                -10.078258385078037
            ],
            [
                "점검",
                -10.07833950591016
            ],
            [
                "맨",
                -10.079746395589469
            ],
            [
                "d",
                -10.081491836955095
            ],
            [
                "거든요",
                -10.081602077950935
            ],
            [
                "국토",
                -10.081679148671899
            ],
            [
                "모바일",
                -10.08323307484302
            ],
            [
                "▁...",
                -10.084136361317801
            ],
            [
                "짐",
                -10.087110167111444
            ],
            [
                "트럼프",
                -10.087499818353134
            ],
            [
                "회담",
                -10.088164609892324
            ],
            [
                "▁수술",
                -10.088926433597756
            ],
            [
                "끌",
                -10.089174650140812
            ],
            [
                "▁이끌",
                -10.089267305321819
            ],
            [
                "느낌",
                -10.090172061842575
            ],
            [
                "범죄",
                -10.09074133321392
            ],
            [
                "예요",
                -10.092867114970614
            ],
            [
                "선언",
                -10.092990625050904
            ],
            [
                "짓",
                -10.09310813376729
            ],
            [
                "허가",
                -10.094685438946302
            ],
            [
                "스스로",
                -10.09754023504019
            ],
            [
                "휘",
                -10.097717265626589
            ],
            [
                "발언",
                -10.097841089634143
            ],
            [
                "▁남성",
                -10.098809704632744
            ],
            [
                "선물",
                -10.099384676236443
            ],
            [
                "▁여름",
                -10.099614140078991
            ],
            [
                "봄",
                -10.100022042853146
            ],
            [
                "서울시",
                -10.10032028747568
            ],
            [
                "추천",
                -10.101816315766683
            ],
            [
                "잘못",
                -10.10200927935163
            ],
            [
                "그래",
                -10.102919846510972
            ],
            [
                "▁청구",
                -10.10344337837432
            ],
            [
                "슈",
                -10.104914073677959
            ],
            [
                "U",
                -10.105237972997681
            ],
            [
                "▁공유",
                -10.106161276743212
            ],
            [
                "▁%),",
                -10.106533930846222
            ],
            [
                "측면",
                -10.106647184397048
            ],
            [
                "런",
                -10.107622029756893
            ],
            [
                "쯤",
                -10.10768808396418
            ],
            [
                "등급",
                -10.108883803526007
            ],
            [
                "나무",
                -10.1091055435642
            ],
            [
                "배출",
                -10.109523324079328
            ],
            [
                "오히려",
                -10.11232930044179
            ],
            [
                "▁임금",
                -10.1128783159891
            ],
            [
                "혜택",
                -10.115577097237495
            ],
            [
                "그대로",
                -10.115598747292905
            ],
            [
                "▁행동",
                -10.115981039817157
            ],
            [
                "워",
                -10.118143405600282
            ],
            [
                "▁32",
                -10.11922502816598
            ],
            [
                "결혼",
                -10.119464711043138
            ],
            [
                "열리",
                -10.120868396889524
            ],
            [
                "연계",
                -10.121269034636189
            ],
            [
                "딸",
                -10.12127421418661
            ],
            [
                "▁최소",
                -10.121572458171208
            ],
            [
                "러시아",
                -10.122522911959937
            ],
            [
                "빨리",
                -10.12261055033575
            ],
            [
                "불편",
                -10.123511319657927
            ],
            [
                "육성",
                -10.123611491263722
            ],
            [
                "▁2007",
                -10.12434796515273
            ],
            [
                "먼",
                -10.125073639250285
            ],
            [
                "▁구속",
                -10.126491523241505
            ],
            [
                "▁2020",
                -10.12678116061488
            ],
            [
                "여론",
                -10.12713153523412
            ],
            [
                "움",
                -10.129653422261619
            ],
            [
                "영어",
                -10.129719888578828
            ],
            [
                "▁전용",
                -10.130411177510851
            ],
            [
                "넓",
                -10.130435736965628
            ],
            [
                "갈등",
                -10.132147519239684
            ],
            [
                "프로젝트",
                -10.13369595674772
            ],
            [
                "무슨",
                -10.135450375837035
            ],
            [
                "붙",
                -10.13693186530505
            ],
            [
                "어린이",
                -10.137333293125526
            ],
            [
                "헌",
                -10.137357876071468
            ],
            [
                "걱정",
                -10.137421445347277
            ],
            [
                "련",
                -10.140802849818394
            ],
            [
                "선생",
                -10.141848450536926
            ],
            [
                "소통",
                -10.142356993229786
            ],
            [
                "퇴",
                -10.143133217195137
            ],
            [
                "핑",
                -10.143153792799797
            ],
            [
                "어려움",
                -10.143897021570494
            ],
            [
                "콘",
                -10.144765850251655
            ],
            [
                "채널",
                -10.14520610912449
            ],
            [
                "채용",
                -10.147635798384025
            ],
            [
                "상담",
                -10.147717118575756
            ],
            [
                "섬",
                -10.14810064820265
            ],
            [
                "능",
                -10.152287489115587
            ],
            [
                "반도체",
                -10.154728416727561
            ],
            [
                "교육청",
                -10.155236636933006
            ],
            [
                "부품",
                -10.156225417936097
            ],
            [
                "여전히",
                -10.156981291862763
            ],
            [
                "아버지",
                -10.157069921237309
            ],
            [
                "창출",
                -10.157115710962374
            ],
            [
                "해양",
                -10.157228476331055
            ],
            [
                "변호사",
                -10.16033037036444
            ],
            [
                "▁디지털",
                -10.163299303184257
            ],
            [
                "조합",
                -10.166210505192021
            ],
            [
                "써",
                -10.166445658154098
            ],
            [
                "차별",
                -10.166606868101022
            ],
            [
                "총장",
                -10.16776080796616
            ],
            [
                "이벤트",
                -10.169898173988782
            ],
            [
                "스타일",
                -10.1721734893784
            ],
            [
                "죄",
                -10.172505473994422
            ],
            [
                "잠",
                -10.172673397114158
            ],
            [
                "구역",
                -10.174924000766422
            ],
            [
                "▁정권",
                -10.175881865018857
            ],
            [
                "▁작용",
                -10.176099932641918
            ],
            [
                "해졌",
                -10.17625320310106
            ],
            [
                "▁사망",
                -10.178905718585037
            ],
            [
                "름",
                -10.179066267150281
            ],
            [
                "기억",
                -10.179084505063738
            ],
            [
                "실제로",
                -10.180684321291466
            ],
            [
                "al",
                -10.180972019979198
            ],
            [
                "▁2019",
                -10.181780628329001
            ],
            [
                "▁ᄏᄏᄏᄏᄏ",
                -10.182310487494602
            ],
            [
                "연금",
                -10.184393475819487
            ],
            [
                "▁노인",
                -10.184832457125506
            ],
            [
                "매장",
                -10.185287791281375
            ],
            [
                "잔",
                -10.185792130906798
            ],
            [
                "판결",
                -10.189081719096547
            ],
            [
                "팅",
                -10.189124028543343
            ],
            [
                "셀",
                -10.189164229207837
            ],
            [
                "측정",
                -10.189273117361182
            ],
            [
                "훈",
                -10.191637640874088
            ],
            [
                "인증",
                -10.1925090519384
            ],
            [
                "▁소송",
                -10.192779424263067
            ],
            [
                "강력",
                -10.19363900732037
            ],
            [
                "▁나선",
                -10.19413455400199
            ],
            [
                "탁",
                -10.194448261750548
            ],
            [
                "본인",
                -10.194957894582295
            ],
            [
                "ᄒ",
                -10.196455193532996
            ],
            [
                "▁야구",
                -10.198090343180331
            ],
            [
                "만드",
                -10.198715692418622
            ],
            [
                "▁무역",
                -10.20192114597561
            ],
            [
                "옷",
                -10.202237901875204
            ],
            [
                "▁단순",
                -10.202884135612573
            ],
            [
                "마무리",
                -10.203512536814497
            ],
            [
                "깊",
                -10.203711080562538
            ],
            [
                "▁설정",
                -10.20643509371667
            ],
            [
                "오래",
                -10.206466436772708
            ],
            [
                "매년",
                -10.207117740001085
            ],
            [
                "▁나온",
                -10.208994914927464
            ],
            [
                "묻",
                -10.210759507947673
            ],
            [
                "당선",
                -10.214216006089291
            ],
            [
                "연합",
                -10.214944558443207
            ],
            [
                "▁바탕",
                -10.216768711034769
            ],
            [
                "쇼",
                -10.218260682856556
            ],
            [
                "달성",
                -10.221268933402838
            ],
            [
                "심각",
                -10.221286282233589
            ],
            [
                "▁신문",
                -10.221349152632738
            ],
            [
                "피해자",
                -10.221534882351786
            ],
            [
                "▁올리",
                -10.228199266694851
            ],
            [
                "틀",
                -10.228453660697431
            ],
            [
                "땅",
                -10.228984895503896
            ],
            [
                "▁33",
                -10.231203595444208
            ],
            [
                "▁90",
                -10.231257774130007
            ],
            [
                "재산",
                -10.231892457411611
            ],
            [
                "꺼",
                -10.232775377633285
            ],
            [
                "n",
                -10.233024375348668
            ],
            [
                "좌",
                -10.233875681548946
            ],
            [
                "정확",
                -10.23448282279871
            ],
            [
                "으면서",
                -10.234729227868552
            ],
            [
                "그때",
                -10.235816671631087
            ],
            [
                "재료",
                -10.23636701762562
            ],
            [
                "빼",
                -10.237197886289183
            ],
            [
                "언니",
                -10.23735112983906
            ],
            [
                "끼",
                -10.237761868117541
            ],
            [
                "초등",
                -10.23779764492113
            ],
            [
                "▁동물",
                -10.240631548526512
            ],
            [
                "츠",
                -10.241654174791282
            ],
            [
                "으니",
                -10.241939173534414
            ],
            [
                "수석",
                -10.243517936179362
            ],
            [
                "통화",
                -10.243519358440974
            ],
            [
                "익",
                -10.243813947640286
            ],
            [
                "믿",
                -10.244805894173961
            ],
            [
                "네트워크",
                -10.246339349204034
            ],
            [
                "바이러스",
                -10.24712822856814
            ],
            [
                "총선",
                -10.247316822418751
            ],
            [
                "젊",
                -10.248337489743154
            ],
            [
                "빌",
                -10.24857053541726
            ],
            [
                "약속",
                -10.248983647602916
            ],
            [
                "려면",
                -10.250318559265915
            ],
            [
                "in",
                -10.250340315281264
            ],
            [
                "소식",
                -10.250632477342855
            ],
            [
                "득",
                -10.251234388042326
            ],
            [
                "지자체",
                -10.252881857467385
            ],
            [
                "▁복수",
                -10.256306781430643
            ],
            [
                "▁줄어",
                -10.257544596226188
            ],
            [
                "▁임대",
                -10.257929749237013
            ],
            [
                "궁",
                -10.260248771761853
            ],
            [
                "해석",
                -10.260666554730172
            ],
            [
                "▁45",
                -10.26180580223458
            ],
            [
                "품질",
                -10.261960367648127
            ],
            [
                "◇",
                -10.262148460434036
            ],
            [
                "자녀",
                -10.266295111384412
            ],
            [
                "얼마나",
                -10.267299766788966
            ],
            [
                "▁아래",
                -10.26826638984627
            ],
            [
                "▁분리",
                -10.268922142616578
            ],
            [
                "블",
                -10.270088355819011
            ],
            [
                "션",
                -10.270574570508792
            ],
            [
                "봉사",
                -10.27156378923332
            ],
            [
                "모집",
                -10.273830363484281
            ],
            [
                "마케팅",
                -10.274626383611043
            ],
            [
                "연구소",
                -10.275312199140245
            ],
            [
                "철도",
                -10.27594768484015
            ],
            [
                "교체",
                -10.276754950758548
            ],
            [
                "▁재판",
                -10.276850111699563
            ],
            [
                "아침",
                -10.276931002747727
            ],
            [
                "▁국립",
                -10.277002438995748
            ],
            [
                "▁유리",
                -10.277295044980995
            ],
            [
                "▁신경",
                -10.280183366240152
            ],
            [
                "홈페이지",
                -10.280692640563188
            ],
            [
                "▁집단",
                -10.281221757634997
            ],
            [
                "▁항공",
                -10.281403038079947
            ],
            [
                "▁바람",
                -10.28292823548149
            ],
            [
                "▁전형",
                -10.284093434494354
            ],
            [
                "▁불안",
                -10.284280983941255
            ],
            [
                "질환",
                -10.286900107394445
            ],
            [
                "신뢰",
                -10.287230784683652
            ],
            [
                "협약",
                -10.28748637568305
            ],
            [
                "그게",
                -10.29008493836957
            ],
            [
                "굉장히",
                -10.290604851633343
            ],
            [
                "출마",
                -10.292802878985757
            ],
            [
                "▁인물",
                -10.293374434188802
            ],
            [
                "́",
                -10.294202640139348
            ],
            [
                "순위",
                -10.296424263954737
            ],
            [
                "폼",
                -10.297514577982442
            ],
            [
                "충남",
                -10.298988464651964
            ],
            [
                "전혀",
                -10.299516649947856
            ],
            [
                "쿠",
                -10.300731669963392
            ],
            [
                "사업자",
                -10.30101073873576
            ],
            [
                "▁34",
                -10.301855813949008
            ],
            [
                "그래도",
                -10.303761356303466
            ],
            [
                "▁통상",
                -10.304246023243225
            ],
            [
                "J",
                -10.304882214093606
            ],
            [
                "칼",
                -10.3067694046591
            ],
            [
                "▁저장",
                -10.30788278597309
            ],
            [
                "얼",
                -10.308304076202491
            ],
            [
                "역량",
                -10.308843821776343
            ],
            [
                "야당",
                -10.31108091723826
            ],
            [
                "완화",
                -10.312489994341862
            ],
            [
                "▁졸업",
                -10.313832516794154
            ],
            [
                "▁이루어",
                -10.31423338200304
            ],
            [
                "슬",
                -10.314804341585576
            ],
            [
                "출발",
                -10.317188955564696
            ],
            [
                "이랑",
                -10.31887897174014
            ],
            [
                "빠르",
                -10.318919467331206
            ],
            [
                "▁완성",
                -10.319327929146448
            ],
            [
                "▁나갈",
                -10.320522102421414
            ],
            [
                "▁뉴스",
                -10.321335348536206
            ],
            [
                "골프",
                -10.322441629878833
            ],
            [
                "원칙",
                -10.324641290440447
            ],
            [
                "묘",
                -10.324809609989133
            ],
            [
                "솔",
                -10.324999316735527
            ],
            [
                "보건",
                -10.328767359427871
            ],
            [
                "순간",
                -10.328816471614441
            ],
            [
                "인터뷰",
                -10.329198617940278
            ],
            [
                "▁시킬",
                -10.329517660974808
            ],
            [
                "▁신용",
                -10.329848515556764
            ],
            [
                "번호",
                -10.330334920302125
            ],
            [
                "▁그린",
                -10.330404419454464
            ],
            [
                "뇌",
                -10.331364394845128
            ],
            [
                "세트",
                -10.33173233617883
            ],
            [
                "됨",
                -10.331759209737662
            ],
            [
                "문재인",
                -10.332759241849848
            ],
            [
                "스타",
                -10.333441126539258
            ],
            [
                "싸",
                -10.335146002238977
            ],
            [
                "농업",
                -10.337735580437748
            ],
            [
                "▁단속",
                -10.338382654682079
            ],
            [
                "친환경",
                -10.338599311960415
            ],
            [
                "▁아무",
                -10.338898618707418
            ],
            [
                "방역",
                -10.339707773121892
            ],
            [
                "저녁",
                -10.340189399691358
            ],
            [
                "뽑",
                -10.34039431565809
            ],
            [
                "잖아요",
                -10.340914548012607
            ],
            [
                "괜찮",
                -10.341217670384731
            ],
            [
                "▁36",
                -10.341556115472843
            ],
            [
                "응답",
                -10.34259399501967
            ],
            [
                "매일",
                -10.342707673003963
            ],
            [
                "▁주문",
                -10.343021967036657
            ],
            [
                "짜",
                -10.344109664146439
            ],
            [
                "▁벌어",
                -10.344850643005346
            ],
            [
                "▁불구",
                -10.345910226789192
            ],
            [
                "+",
                -10.346457661009325
            ],
            [
                "흔",
                -10.347183132599602
            ],
            [
                "▁시켰",
                -10.347451947036227
            ],
            [
                "옆",
                -10.347786313581233
            ],
            [
                "종래",
                -10.348100915549358
            ],
            [
                "국회의원",
                -10.348769890191718
            ],
            [
                "대학교",
                -10.349054962355137
            ],
            [
                "봐야",
                -10.349121956959374
            ],
            [
                "취소",
                -10.34991041957468
            ],
            [
                "킹",
                -10.35021630566274
            ],
            [
                "맛있",
                -10.350495348563406
            ],
            [
                "무료",
                -10.351142720476242
            ],
            [
                "▁오픈",
                -10.351883835844966
            ],
            [
                "앱",
                -10.353172625057276
            ],
            [
                "▁뛰어",
                -10.353804197495181
            ],
            [
                "뉴",
                -10.354112179080198
            ],
            [
                "학원",
                -10.35415185261608
            ],
            [
                "마스크",
                -10.355172120828563
            ],
            [
                "나요",
                -10.35548025528912
            ],
            [
                "▁집행",
                -10.355503369805948
            ],
            [
                "▁이루",
                -10.357310413194325
            ],
            [
                "▁예비",
                -10.357351825405955
            ],
            [
                "신설",
                -10.358928338871491
            ],
            [
                "운용",
                -10.358981290277855
            ],
            [
                "공단",
                -10.363048893585939
            ],
            [
                "조절",
                -10.363080410744137
            ],
            [
                "저희",
                -10.363135254514846
            ],
            [
                "▁기념",
                -10.363990227232582
            ],
            [
                "처분",
                -10.365490701318457
            ],
            [
                "투자자",
                -10.366576265236018
            ],
            [
                "▁추정",
                -10.367021266847688
            ],
            [
                "근거",
                -10.368107043616822
            ],
            [
                "쟁",
                -10.36847331149278
            ],
            [
                "실패",
                -10.368843344342558
            ],
            [
                "▁불리",
                -10.370127208756008
            ],
            [
                "곤",
                -10.371448765255659
            ],
            [
                "겼",
                -10.371917868525314
            ],
            [
                "더니",
                -10.372178771888107
            ],
            [
                "▁미치",
                -10.374440484457248
            ],
            [
                "l",
                -10.375193149267657
            ],
            [
                "▁살펴",
                -10.375264664063245
            ],
            [
                "카페",
                -10.37694070185446
            ],
            [
                "온도",
                -10.378195976844651
            ],
            [
                "랍니다",
                -10.378597996618383
            ],
            [
                "승인",
                -10.382383948532262
            ],
            [
                "▁마치",
                -10.385011652696951
            ],
            [
                "▁허용",
                -10.385085421758875
            ],
            [
                "사이트",
                -10.386375529784745
            ],
            [
                "보고서",
                -10.386898130732172
            ],
            [
                "부탁",
                -10.38753775353047
            ],
            [
                "▁펼쳐",
                -10.388455558643212
            ],
            [
                "내일",
                -10.389744061332072
            ],
            [
                "커피",
                -10.391812909841562
            ],
            [
                "▁배경",
                -10.392446378423552
            ],
            [
                "▁둘러",
                -10.3939398242555
            ],
            [
                "끈",
                -10.394621317730849
            ],
            [
                "▁2006",
                -10.394927457249725
            ],
            [
                "▁KT",
                -10.395794559009031
            ],
            [
                "놀",
                -10.396234772916674
            ],
            [
                "확장",
                -10.396293833495566
            ],
            [
                "성능",
                -10.397360912146782
            ],
            [
                "앉",
                -10.398055279524804
            ],
            [
                "▁접수",
                -10.39824075758107
            ],
            [
                "인권",
                -10.398411019899156
            ],
            [
                "발굴",
                -10.398844020975163
            ],
            [
                "시리즈",
                -10.399066275375638
            ],
            [
                "그러니까",
                -10.400830851883613
            ],
            [
                "뛰",
                -10.4009419702291
            ],
            [
                "완전",
                -10.401541973472368
            ],
            [
                "혼자",
                -10.401937518229383
            ],
            [
                "▁단위",
                -10.40253652324869
            ],
            [
                "▁토지",
                -10.403915792007638
            ],
            [
                "▁금속",
                -10.406333284568257
            ],
            [
                "잃",
                -10.406565006653736
            ],
            [
                "어머니",
                -10.407735405807813
            ],
            [
                "입주",
                -10.409343086400352
            ],
            [
                "▁특수",
                -10.410049020790108
            ],
            [
                "생태",
                -10.410662096721452
            ],
            [
                "f",
                -10.410682829903495
            ],
            [
                "〈",
                -10.410861461024453
            ],
            [
                "백화점",
                -10.411119468396926
            ],
            [
                "근로자",
                -10.411269964924967
            ],
            [
                "반드",
                -10.411844784398314
            ],
            [
                "쇼핑",
                -10.41238961119532
            ],
            [
                "▁밝혀",
                -10.413001757019435
            ],
            [
                "엉",
                -10.413093802422196
            ],
            [
                "나타나",
                -10.414124296478427
            ],
            [
                "외국",
                -10.41447202456161
            ],
            [
                "카메라",
                -10.415718378590203
            ],
            [
                "교류",
                -10.415846890857278
            ],
            [
                "전북",
                -10.416627992250506
            ],
            [
                "미리",
                -10.416628277926005
            ],
            [
                "균",
                -10.416772522725362
            ],
            [
                "뒷",
                -10.41865206436161
            ],
            [
                "습니까",
                -10.41880465328591
            ],
            [
                "〉",
                -10.419399826521511
            ],
            [
                "만족",
                -10.419671177875728
            ],
            [
                "원래",
                -10.421010123573284
            ],
            [
                "컨",
                -10.421716213723673
            ],
            [
                "한다면",
                -10.422408601675148
            ],
            [
                "메시지",
                -10.4229074930092
            ],
            [
                "▁외교",
                -10.424000621311542
            ],
            [
                "맞춤",
                -10.42582873004165
            ],
            [
                "얼마",
                -10.426563027428118
            ],
            [
                "했으나",
                -10.426643284833178
            ],
            [
                "줘",
                -10.426844845576682
            ],
            [
                "딱",
                -10.427650338693715
            ],
            [
                "는데요",
                -10.428032951185182
            ],
            [
                "예측",
                -10.42841621569276
            ],
            [
                "▁37",
                -10.42922753592209
            ],
            [
                "깨",
                -10.429831613713684
            ],
            [
                "▁독립",
                -10.430617566143882
            ],
            [
                "패션",
                -10.43289415913832
            ],
            [
                "운전",
                -10.433077741777174
            ],
            [
                "코리아",
                -10.43318853779258
            ],
            [
                "나머지",
                -10.43358875037081
            ],
            [
                "▁중간",
                -10.433847268379795
            ],
            [
                "체육",
                -10.433855451521014
            ],
            [
                "헤",
                -10.435026133331963
            ],
            [
                "수립",
                -10.435050378654179
            ],
            [
                "미디어",
                -10.435513866576038
            ],
            [
                "《",
                -10.435669480128263
            ],
            [
                "작성",
                -10.435820991350047
            ],
            [
                "▁표면",
                -10.4365418830352
            ],
            [
                "매력",
                -10.437025172374073
            ],
            [
                "녹",
                -10.437291559706846
            ],
            [
                "노동자",
                -10.439453433212703
            ],
            [
                "종목",
                -10.440336967952378
            ],
            [
                "처벌",
                -10.440833856457724
            ],
            [
                "빅",
                -10.440840805340832
            ],
            [
                "읍",
                -10.441257035538118
            ],
            [
                "연출",
                -10.441433259139316
            ],
            [
                "▁38",
                -10.442335341202703
            ],
            [
                "공약",
                -10.442368550491274
            ],
            [
                "겸",
                -10.442400334934636
            ],
            [
                "휴",
                -10.44333854375892
            ],
            [
                "혈",
                -10.44433578129863
            ],
            [
                "회견",
                -10.444468404420613
            ],
            [
                "푸",
                -10.444524471277637
            ],
            [
                "■",
                -10.445307711708791
            ],
            [
                "▁겨울",
                -10.445335788318657
            ],
            [
                "▁3000",
                -10.445805046199531
            ],
            [
                "극복",
                -10.446199714814368
            ],
            [
                "자율",
                -10.44621052679246
            ],
            [
                "앙",
                -10.448483113104611
            ],
            [
                "심리",
                -10.4506366711813
            ],
            [
                "▁안내",
                -10.455173463813399
            ],
            [
                "폰",
                -10.455441404633662
            ],
            [
                "개념",
                -10.45621777152874
            ],
            [
                "▁오르",
                -10.45660733889461
            ],
            [
                "차단",
                -10.458048285451774
            ],
            [
                "관광객",
                -10.458349030022651
            ],
            [
                "▁최선",
                -10.45836136704144
            ],
            [
                "느끼",
                -10.459158347302738
            ],
            [
                "헐",
                -10.459722055718727
            ],
            [
                "촉구",
                -10.46126615451916
            ],
            [
                "▁충격",
                -10.461915337514299
            ],
            [
                "▁양성",
                -10.462491356966254
            ],
            [
                "주말",
                -10.46249180199761
            ],
            [
                "밑",
                -10.46253728578681
            ],
            [
                "겟",
                -10.462628537355034
            ],
            [
                "설비",
                -10.462684432914525
            ],
            [
                "▁바이오",
                -10.463102922782024
            ],
            [
                "꼬",
                -10.464870530265902
            ],
            [
                "떨어지",
                -10.465196256596496
            ],
            [
                "싱",
                -10.46566801284294
            ],
            [
                "교회",
                -10.466169555484111
            ],
            [
                "오염",
                -10.466237378702582
            ],
            [
                "헌법",
                -10.467487885583886
            ],
            [
                "엘",
                -10.469816879428532
            ],
            [
                "상반기",
                -10.470978464015321
            ],
            [
                "or",
                -10.472405205707393
            ],
            [
                "투어",
                -10.47290750094809
            ],
            [
                "세월",
                -10.47292955542944
            ],
            [
                "▁노선",
                -10.472954350246887
            ],
            [
                "▁42",
                -10.473450837739092
            ],
            [
                "법안",
                -10.473569078724786
            ],
            [
                "더라",
                -10.47406650527167
            ],
            [
                "디스플레이",
                -10.474226861462173
            ],
            [
                "한나라당",
                -10.474880038419457
            ],
            [
                "실험",
                -10.475609178056859
            ],
            [
                "공천",
                -10.476775549303415
            ],
            [
                "▁보통",
                -10.477907108318972
            ],
            [
                "늘어나",
                -10.478270977561369
            ],
            [
                "남편",
                -10.478717223221194
            ],
            [
                "▁폴리",
                -10.47991749547898
            ],
            [
                "항상",
                -10.480146450640373
            ],
            [
                "▁절대",
                -10.481559965943331
            ],
            [
                "창원",
                -10.481777624907474
            ],
            [
                "r",
                -10.482533413299928
            ],
            [
                "▁군사",
                -10.483245192279963
            ],
            [
                "캐",
                -10.483414698230215
            ],
            [
                "월드컵",
                -10.484135613598363
            ],
            [
                "절반",
                -10.484270200409528
            ],
            [
                "구나",
                -10.484457527347704
            ],
            [
                "▁접촉",
                -10.485122323702067
            ],
            [
                "적절",
                -10.485765461324947
            ],
            [
                "드립니다",
                -10.486545114991731
            ],
            [
                "현대차",
                -10.486975054707107
            ],
            [
                "끊",
                -10.487477041725775
            ],
            [
                "맥",
                -10.488607855288823
            ],
            [
                "모양",
                -10.489201366142474
            ],
            [
                "▁ᄏᄏᄏᄏᄏᄏ",
                -10.489568655716978
            ],
            [
                "맺",
                -10.48981062332638
            ],
            [
                "완료",
                -10.493300922951994
            ],
            [
                "클럽",
                -10.496554285739277
            ],
            [
                "짧",
                -10.49735397272609
            ],
            [
                "덜",
                -10.497635575893556
            ],
            [
                "▁긴급",
                -10.499235814148525
            ],
            [
                "▁오른",
                -10.4996200511529
            ],
            [
                "▁맞춰",
                -10.499782624732347
            ],
            [
                "도착",
                -10.5003264275153
            ],
            [
                "센서",
                -10.501049637823442
            ],
            [
                "욕",
                -10.5013514483014
            ],
            [
                "▁그림",
                -10.502200113732423
            ],
            [
                "탕",
                -10.505935670627137
            ],
            [
                "권력",
                -10.506176588305053
            ],
            [
                "촌",
                -10.508005991738896
            ],
            [
                "전날",
                -10.508624256498617
            ],
            [
                "결제",
                -10.50928783323204
            ],
            [
                "▁자격",
                -10.509557571719524
            ],
            [
                "하반기",
                -10.510451564815867
            ],
            [
                "실질",
                -10.511597806806792
            ],
            [
                "▁39",
                -10.511766827903262
            ],
            [
                "화재",
                -10.513015695658876
            ],
            [
                "떠",
                -10.514164593636941
            ],
            [
                "빠른",
                -10.514506122931977
            ],
            [
                "▁55",
                -10.514513726035258
            ],
            [
                "바뀌",
                -10.51460429669028
            ],
            [
                "컴퓨터",
                -10.515544534846244
            ],
            [
                "접근",
                -10.51829430374024
            ],
            [
                "긍정",
                -10.518719925166362
            ],
            [
                "원내대표",
                -10.518923306619179
            ],
            [
                "▁IT",
                -10.519022026819572
            ],
            [
                "관객",
                -10.521157312841456
            ],
            [
                "싫",
                -10.521674192645813
            ],
            [
                "매각",
                -10.522173055629198
            ],
            [
                "▁감정",
                -10.522309106284737
            ],
            [
                "스러운",
                -10.522577414925198
            ],
            [
                "▁알리",
                -10.52325291402089
            ],
            [
                "센",
                -10.524002048783428
            ],
            [
                "묵",
                -10.524443448468134
            ],
            [
                "쌓",
                -10.524925557180026
            ],
            [
                "평소",
                -10.52567585201795
            ],
            [
                "▁새로",
                -10.526027562841652
            ],
            [
                "햇",
                -10.526152583310017
            ],
            [
                "물량",
                -10.527330989539475
            ],
            [
                "굴",
                -10.528345406195816
            ],
            [
                "실천",
                -10.530006726305402
            ],
            [
                "웠",
                -10.530184830525874
            ],
            [
                "i",
                -10.531706747811155
            ],
            [
                "건립",
                -10.531747393363554
            ],
            [
                "냉",
                -10.53211664054437
            ],
            [
                "갑자기",
                -10.533066163721747
            ],
            [
                "재난",
                -10.533517054709023
            ],
            [
                "베트남",
                -10.533749303193744
            ],
            [
                "철거",
                -10.534915887475929
            ],
            [
                "손실",
                -10.536141910944956
            ],
            [
                "▁KBS",
                -10.536825688233288
            ],
            [
                "버리",
                -10.537615240452665
            ],
            [
                "아빠",
                -10.537918705777614
            ],
            [
                "충분히",
                -10.538288115240658
            ],
            [
                "쓴",
                -10.538628641095803
            ],
            [
                "톤",
                -10.539537119832472
            ],
            [
                "투수",
                -10.542191581560209
            ],
            [
                "▁상호",
                -10.542369554518432
            ],
            [
                "개편",
                -10.542699272697554
            ],
            [
                "쓸",
                -10.542850858541735
            ],
            [
                "혀",
                -10.542867759670434
            ],
            [
                "공모",
                -10.543399667793866
            ],
            [
                "렌",
                -10.543946588666428
            ],
            [
                "찌",
                -10.544978665494074
            ],
            [
                "▁지켜",
                -10.545024440819226
            ],
            [
                "▁투명",
                -10.545960033571799
            ],
            [
                "후반",
                -10.546647700231299
            ],
            [
                "▁2005",
                -10.547063114841418
            ],
            [
                "검증",
                -10.547541459002268
            ],
            [
                "▁내려",
                -10.548195032985022
            ],
            [
                "▁떠나",
                -10.549067499835099
            ],
            [
                "▁000",
                -10.550865317511294
            ],
            [
                "돼야",
                -10.552114945412521
            ],
            [
                "빙",
                -10.552419841750256
            ],
            [
                "콜",
                -10.553780793271677
            ],
            [
                "▁자본",
                -10.554306591123892
            ],
            [
                "출범",
                -10.554832953301421
            ],
            [
                "세금",
                -10.555922043030723
            ],
            [
                "선박",
                -10.556062167435291
            ],
            [
                "▁흐름",
                -10.55674331479453
            ],
            [
                "도서관",
                -10.557379118277831
            ],
            [
                "앤",
                -10.557714720694248
            ],
            [
                "낙",
                -10.558914708015099
            ],
            [
                "돕",
                -10.559098482625423
            ],
            [
                "x",
                -10.560056432493031
            ],
            [
                "재밌",
                -10.560151929258756
            ],
            [
                "마찬가지",
                -10.560353379671023
            ],
            [
                "그니까",
                -10.561633085039698
            ],
            [
                "확실",
                -10.561674516048688
            ],
            [
                "▁임시",
                -10.562341697103355
            ],
            [
                "바꾸",
                -10.562551829246324
            ],
            [
                "적어도",
                -10.563180038480073
            ],
            [
                "철저",
                -10.566095866561119
            ],
            [
                "▁표준",
                -10.56623200128712
            ],
            [
                "▁관람",
                -10.56695982019364
            ],
            [
                "▁MBC",
                -10.567362687622829
            ],
            [
                "▁48",
                -10.568008473660598
            ],
            [
                "▁41",
                -10.56806985915373
            ],
            [
                "▁세포",
                -10.568696033134483
            ],
            [
                "▁플랫",
                -10.569467209247517
            ],
            [
                "채권",
                -10.57031695551115
            ],
            [
                "딩",
                -10.570664195008417
            ],
            [
                "요금",
                -10.570672773454286
            ],
            [
                "▁52",
                -10.57146794961311
            ],
            [
                "▁43",
                -10.571849701988
            ],
            [
                "▁강남",
                -10.572225123760067
            ],
            [
                "▁그리",
                -10.572612409554562
            ],
            [
                "인프라",
                -10.5727806500028
            ],
            [
                "세워",
                -10.573047933623853
            ],
            [
                "▁400",
                -10.574209666609235
            ],
            [
                "데뷔",
                -10.57440611476396
            ],
            [
                "부회장",
                -10.574728317042279
            ],
            [
                "▁AI",
                -10.575250600612877
            ],
            [
                "일어나",
                -10.57532466441674
            ],
            [
                "뉴욕",
                -10.575501023180639
            ],
            [
                "반복",
                -10.575639877905848
            ],
            [
                "섭",
                -10.575823017284621
            ],
            [
                "부처",
                -10.576062434748039
            ],
            [
                "울러",
                -10.576332941966113
            ],
            [
                "오빠",
                -10.576395055934077
            ],
            [
                "첨단",
                -10.576589255058519
            ],
            [
                "주인공",
                -10.576648856999311
            ],
            [
                "안보",
                -10.576868152777504
            ],
            [
                "▁분류",
                -10.577156409770435
            ],
            [
                "한반도",
                -10.577979823716886
            ],
            [
                "협의회",
                -10.578228185311236
            ],
            [
                "엠",
                -10.578939386966244
            ],
            [
                "▁불가",
                -10.581271773555393
            ],
            [
                "누가",
                -10.581644218238353
            ],
            [
                "학부모",
                -10.581988576760189
            ],
            [
                "실현",
                -10.584978396594158
            ],
            [
                "주거",
                -10.586282579543074
            ],
            [
                "폐지",
                -10.586389640158922
            ],
            [
                "▁늘어",
                -10.586899193445836
            ],
            [
                "스트",
                -10.586916072579958
            ],
            [
                "모임",
                -10.588051295825766
            ],
            [
                "▁65",
                -10.588139649489989
            ],
            [
                "▁바란",
                -10.588272127898248
            ],
            [
                "엔진",
                -10.588894304210674
            ],
            [
                "폭력",
                -10.589256126942484
            ],
            [
                "자랑",
                -10.590024295509584
            ],
            [
                "셔",
                -10.59047279597292
            ],
            [
                "훨씬",
                -10.593395232670087
            ],
            [
                "▁개방",
                -10.59400923736409
            ],
            [
                "ing",
                -10.594264785882963
            ],
            [
                "구요",
                -10.595462836294
            ],
            [
                "펜",
                -10.595777696584877
            ],
            [
                "_",
                -10.597804387096945
            ],
            [
                "▁마리",
                -10.598362465760724
            ],
            [
                "토론",
                -10.598656055129869
            ],
            [
                "캐릭터",
                -10.598887176761702
            ],
            [
                "대변인",
                -10.600739766378497
            ],
            [
                "꾸준히",
                -10.600827723089633
            ],
            [
                "탓",
                -10.600933887340362
            ],
            [
                "집회",
                -10.60199495200221
            ],
            [
                "직업",
                -10.603000883919874
            ],
            [
                "승부",
                -10.603768026414839
            ],
            [
                "세력",
                -10.607455744214342
            ],
            [
                "▁통일",
                -10.6096625216582
            ],
            [
                "진입",
                -10.610197728439834
            ],
            [
                "으니까",
                -10.611434483687976
            ],
            [
                "열심히",
                -10.613249837368029
            ],
            [
                "▁44",
                -10.613826210566636
            ],
            [
                "필수",
                -10.61388503051247
            ],
            [
                "검색",
                -10.614114179593663
            ],
            [
                "개정안",
                -10.615350315966335
            ],
            [
                "략",
                -10.615716326953528
            ],
            [
                "업종",
                -10.616033657645634
            ],
            [
                "섬유",
                -10.616061897206848
            ],
            [
                "전극",
                -10.616201863035059
            ],
            [
                "올렸",
                -10.617128225763773
            ],
            [
                "옹",
                -10.61735816028754
            ],
            [
                "민원",
                -10.617943672397555
            ],
            [
                "미술",
                -10.620741527991845
            ],
            [
                "셋",
                -10.620876641023846
            ],
            [
                "배터리",
                -10.620952113613006
            ],
            [
                "▁증거",
                -10.620985244097653
            ],
            [
                "연락",
                -10.621640658941152
            ],
            [
                "▁내리",
                -10.621942494264145
            ],
            [
                "힐",
                -10.62239378848748
            ],
            [
                "k",
                -10.62240854993993
            ],
            [
                "▁천만",
                -10.622993537917958
            ],
            [
                "▁혁명",
                -10.623817146174586
            ],
            [
                "최저",
                -10.624158255847398
            ],
            [
                "수능",
                -10.626405945673193
            ],
            [
                "충분",
                -10.626778856615891
            ],
            [
                "슨",
                -10.626822677371162
            ],
            [
                "▁드리",
                -10.627946699074872
            ],
            [
                "놨",
                -10.62866212285974
            ],
            [
                "캠프",
                -10.628788066968738
            ],
            [
                "▁시킨",
                -10.62916339572804
            ],
            [
                "증상",
                -10.630616309446001
            ],
            [
                "▁강제",
                -10.6334880985128
            ],
            [
                "직장",
                -10.633666217797824
            ],
            [
                "발명",
                -10.636739857918727
            ],
            [
                "노출",
                -10.636919286909196
            ],
            [
                "프레임",
                -10.636992731376823
            ],
            [
                "▁발행",
                -10.642081770056542
            ],
            [
                "▁강원",
                -10.644844622338775
            ],
            [
                "▁권리",
                -10.645035524496967
            ],
            [
                "▁문학",
                -10.64717868037978
            ],
            [
                "출력",
                -10.648204713206283
            ],
            [
                "조례",
                -10.648306445534017
            ],
            [
                "걷",
                -10.649364174685708
            ],
            [
                "멤버",
                -10.65024909014778
            ],
            [
                "만약",
                -10.650569639802766
            ],
            [
                "▁신종",
                -10.650796034181068
            ],
            [
                "위협",
                -10.65094885066546
            ],
            [
                "그랬",
                -10.65096770829514
            ],
            [
                "청장",
                -10.65111254561648
            ],
            [
                "운행",
                -10.651130540223331
            ],
            [
                "▁51",
                -10.65189619087241
            ],
            [
                "뭔가",
                -10.65194974692604
            ],
            [
                "▁이뤄지",
                -10.652019052123304
            ],
            [
                "▁명령",
                -10.652802806833451
            ],
            [
                "쌀",
                -10.654099894307691
            ],
            [
                "악화",
                -10.654379328281822
            ],
            [
                "닌",
                -10.654607686075865
            ],
            [
                "세우",
                -10.654893366312445
            ],
            [
                "자전거",
                -10.655907333018295
            ],
            [
                "연료",
                -10.657314351773675
            ],
            [
                "쥐",
                -10.657330736339604
            ],
            [
                "Y",
                -10.657637340795752
            ],
            [
                "당초",
                -10.657892577744121
            ],
            [
                "약간",
                -10.66037762522431
            ],
            [
                "간담회",
                -10.661885119334627
            ],
            [
                "궁금",
                -10.662150476252426
            ],
            [
                "▁kg",
                -10.662992171991613
            ],
            [
                "조작",
                -10.663449840179338
            ],
            [
                "▁46",
                -10.663554793274628
            ],
            [
                "종류",
                -10.6645675494187
            ],
            [
                "패턴",
                -10.665527111530292
            ],
            [
                "로봇",
                -10.665720037387922
            ],
            [
                "신속",
                -10.666405224749502
            ],
            [
                "이명박",
                -10.667507743587413
            ],
            [
                "고등학교",
                -10.668086079927123
            ],
            [
                "▁블랙",
                -10.669521592285573
            ],
            [
                "개막",
                -10.67015924322048
            ],
            [
                "팀장",
                -10.671800847983622
            ],
            [
                "▁150",
                -10.672350847597844
            ],
            [
                "▁재생",
                -10.673093771249981
            ],
            [
                "▁47",
                -10.673217203127225
            ],
            [
                "▁부르",
                -10.673396634224632
            ],
            [
                "혁",
                -10.674095622324371
            ],
            [
                "조차",
                -10.675925594636274
            ],
            [
                "할머니",
                -10.676355549152937
            ],
            [
                "추세",
                -10.676458949980375
            ],
            [
                "숲",
                -10.67715635293134
            ],
            [
                "▁박사",
                -10.677472935358708
            ],
            [
                "녀",
                -10.677696133979271
            ],
            [
                "컵",
                -10.677911578998955
            ],
            [
                "농협",
                -10.67878786785414
            ],
            [
                "복귀",
                -10.679286024351022
            ],
            [
                "빚",
                -10.680473807158846
            ],
            [
                "블록",
                -10.681468918288873
            ],
            [
                "▁49",
                -10.681678816905627
            ],
            [
                "▁ᅮᅮ",
                -10.682885111168865
            ],
            [
                "사실상",
                -10.683077721558977
            ],
            [
                "포항",
                -10.68714614177978
            ],
            [
                "현수막",
                -10.687384456838062
            ],
            [
                "이사장",
                -10.68826876924262
            ],
            [
                "▁거듭",
                -10.688907294973179
            ],
            [
                "움직임",
                -10.69094035218429
            ],
            [
                "▁나누",
                -10.69154831381819
            ],
            [
                "패널",
                -10.692507581564584
            ],
            [
                "라운드",
                -10.692568004129317
            ],
            [
                "▁'(",
                -10.692701582351905
            ],
            [
                "마트",
                -10.692764567902088
            ],
            [
                "홈런",
                -10.694889274263153
            ],
            [
                "▁유동",
                -10.695078919052794
            ],
            [
                "▁조명",
                -10.697046253367844
            ],
            [
                "싼",
                -10.697481266673469
            ],
            [
                "▷",
                -10.697557062739996
            ],
            [
                "충전",
                -10.697721766374784
            ],
            [
                "단독",
                -10.700489284760245
            ],
            [
                "▁올라",
                -10.701440770387853
            ],
            [
                "키우",
                -10.701674672659548
            ],
            [
                "혜",
                -10.701755520545422
            ],
            [
                "취약",
                -10.702044425823921
            ],
            [
                "▁어린",
                -10.702430364986046
            ],
            [
                "》",
                -10.703599774809147
            ],
            [
                "계층",
                -10.703878278789148
            ],
            [
                "칸",
                -10.704339561685233
            ],
            [
                "벤처",
                -10.705463295848771
            ],
            [
                "▁%(",
                -10.705655247849442
            ],
            [
                "휴대",
                -10.707600945520827
            ],
            [
                "실내",
                -10.708011947028552
            ],
            [
                "연말",
                -10.708654510337487
            ],
            [
                "답변",
                -10.709678838563466
            ],
            [
                "택시",
                -10.709793761900539
            ],
            [
                "서류",
                -10.71115309199894
            ],
            [
                "er",
                -10.711667829209665
            ],
            [
                "웨이",
                -10.712179363626506
            ],
            [
                "흐",
                -10.71338120497884
            ],
            [
                "개별",
                -10.713443793912148
            ],
            [
                "예약",
                -10.7156825240635
            ],
            [
                "핀",
                -10.716337419012229
            ],
            [
                "박물관",
                -10.716552042869635
            ],
            [
                "▁나올",
                -10.716739222748652
            ],
            [
                "부착",
                -10.717932673159956
            ],
            [
                "▁SNS",
                -10.71861809132036
            ],
            [
                "모듈",
                -10.722248863189364
            ],
            [
                "근로",
                -10.722709789482751
            ],
            [
                "댓글",
                -10.723212032252466
            ],
            [
                "결승",
                -10.723778170635017
            ],
            [
                "▁시티",
                -10.72391058252774
            ],
            [
                "집계",
                -10.724018917509117
            ],
            [
                "경력",
                -10.724554971628631
            ],
            [
                "흥",
                -10.725344551380374
            ],
            [
                "▁75",
                -10.725951038772807
            ],
            [
                "▁구현",
                -10.7260951938678
            ],
            [
                "▁손해",
                -10.726740008276082
            ],
            [
                "▁창조",
                -10.727109836895163
            ],
            [
                "서울대",
                -10.727768831271472
            ],
            [
                "▁탄소",
                -10.728054078136001
            ],
            [
                "털",
                -10.728226923285373
            ],
            [
                "입력",
                -10.728292787963744
            ],
            [
                "썼",
                -10.728345376686145
            ],
            [
                "여러분",
                -10.728728751559878
            ],
            [
                "농가",
                -10.729479561177897
            ],
            [
                "축소",
                -10.730761689688363
            ],
            [
                "▁코스",
                -10.734718799431683
            ],
            [
                "편성",
                -10.735023482169094
            ],
            [
                "▁2004",
                -10.735685836940526
            ],
            [
                "▁응원",
                -10.735878263064247
            ],
            [
                "저축",
                -10.735964520145949
            ],
            [
                "앨범",
                -10.737768677168598
            ],
            [
                "여건",
                -10.738584124155349
            ],
            [
                "et",
                -10.74164431470199
            ],
            [
                "h",
                -10.743071973668773
            ],
            [
                "그녀",
                -10.744442621625598
            ],
            [
                "▁임명",
                -10.745141511291523
            ],
            [
                "적합",
                -10.745375261805227
            ],
            [
                "취임",
                -10.748249901057369
            ],
            [
                "작동",
                -10.749067200039987
            ],
            [
                "▁문헌",
                -10.74944351479571
            ],
            [
                "융합",
                -10.749933596568505
            ],
            [
                "충북",
                -10.750936342575697
            ],
            [
                "논",
                -10.753995241565077
            ],
            [
                "됩니다",
                -10.75442789094726
            ],
            [
                "맹",
                -10.75633726096441
            ],
            [
                "▁59",
                -10.75655607807638
            ],
            [
                "압박",
                -10.75680425898829
            ],
            [
                "식당",
                -10.75695662184141
            ],
            [
                "▁ᄏᄏᄏᄏᄏᄏᄏ",
                -10.757589739722295
            ],
            [
                "▁모아",
                -10.75777833605336
            ],
            [
                "▁가슴",
                -10.758791338797794
            ],
            [
                "성격",
                -10.759433915564195
            ],
            [
                "즐길",
                -10.759775875826222
            ],
            [
                "공감",
                -10.760772532634281
            ],
            [
                "엄청",
                -10.761245559586147
            ],
            [
                "▁53",
                -10.762539623715348
            ],
            [
                "수록",
                -10.763059634115772
            ],
            [
                "▁무선",
                -10.763513190030366
            ],
            [
                "흘",
                -10.763532455293028
            ],
            [
                "욱",
                -10.765680537835145
            ],
            [
                "실력",
                -10.765783670416788
            ],
            [
                "냥",
                -10.766567605141871
            ],
            [
                "▁슈퍼",
                -10.76659938214239
            ],
            [
                "닫",
                -10.766709464898655
            ],
            [
                "겁니다",
                -10.766929589830296
            ],
            [
                "매체",
                -10.767097192261543
            ],
            [
                "▁언어",
                -10.76735778742278
            ],
            [
                "▁소유",
                -10.767804109900126
            ],
            [
                "총회",
                -10.76792131397455
            ],
            [
                "커지",
                -10.768522350493575
            ],
            [
                "▁두산",
                -10.768951853506401
[...]
